{
  "version": "1.0",
  "truncation": null,
  "padding": null,
  "added_tokens": [
    {
      "id": 0,
      "content": "<unk>",
      "single_word": false,
      "lstrip": false,
      "rstrip": false,
      "normalized": false,
      "special": true
    },
    {
      "id": 1,
      "content": "<sys>",
      "single_word": false,
      "lstrip": false,
      "rstrip": false,
      "normalized": false,
      "special": true
    },
    {
      "id": 2,
      "content": "<usr>",
      "single_word": false,
      "lstrip": false,
      "rstrip": false,
      "normalized": false,
      "special": true
    },
    {
      "id": 3,
      "content": "<ai>",
      "single_word": false,
      "lstrip": false,
      "rstrip": false,
      "normalized": false,
      "special": true
    },
    {
      "id": 4,
      "content": "<s>",
      "single_word": false,
      "lstrip": false,
      "rstrip": false,
      "normalized": false,
      "special": true
    },
    {
      "id": 5,
      "content": "</s>",
      "single_word": false,
      "lstrip": false,
      "rstrip": false,
      "normalized": false,
      "special": true
    },
    {
      "id": 6,
      "content": "<pad>",
      "single_word": false,
      "lstrip": false,
      "rstrip": false,
      "normalized": false,
      "special": true
    }
  ],
  "normalizer": null,
  "pre_tokenizer": {
    "type": "ByteLevel",
    "add_prefix_space": false,
    "trim_offsets": true,
    "use_regex": true
  },
  "post_processor": {
    "type": "TemplateProcessing",
    "single": [
      {
        "SpecialToken": {
          "id": "<s>",
          "type_id": 0
        }
      },
      {
        "Sequence": {
          "id": "A",
          "type_id": 0
        }
      },
      {
        "SpecialToken": {
          "id": "</s>",
          "type_id": 0
        }
      }
    ],
    "pair": [
      {
        "SpecialToken": {
          "id": "<s>",
          "type_id": 0
        }
      },
      {
        "Sequence": {
          "id": "A",
          "type_id": 0
        }
      },
      {
        "SpecialToken": {
          "id": "</s>",
          "type_id": 0
        }
      },
      {
        "Sequence": {
          "id": "B",
          "type_id": 1
        }
      },
      {
        "SpecialToken": {
          "id": "</s>",
          "type_id": 1
        }
      }
    ],
    "special_tokens": {
      "</s>": {
        "id": "</s>",
        "ids": [
          5
        ],
        "tokens": [
          "</s>"
        ]
      },
      "<s>": {
        "id": "<s>",
        "ids": [
          4
        ],
        "tokens": [
          "<s>"
        ]
      }
    }
  },
  "decoder": {
    "type": "ByteLevel",
    "add_prefix_space": true,
    "trim_offsets": true,
    "use_regex": true
  },
  "model": {
    "type": "BPE",
    "dropout": null,
    "unk_token": "<unk>",
    "continuing_subword_prefix": null,
    "end_of_word_suffix": null,
    "fuse_unk": false,
    "byte_fallback": false,
    "ignore_merges": false,
    "vocab": {
      "<unk>": 0,
      "<sys>": 1,
      "<usr>": 2,
      "<ai>": 3,
      "<s>": 4,
      "</s>": 5,
      "<pad>": 6,
      "!": 7,
      "\"": 8,
      "#": 9,
      "$": 10,
      "%": 11,
      "&": 12,
      "'": 13,
      "(": 14,
      ")": 15,
      "*": 16,
      "+": 17,
      ",": 18,
      "-": 19,
      ".": 20,
      "/": 21,
      "0": 22,
      "1": 23,
      "2": 24,
      "3": 25,
      "4": 26,
      "5": 27,
      "6": 28,
      "7": 29,
      "8": 30,
      "9": 31,
      ":": 32,
      ";": 33,
      "<": 34,
      "=": 35,
      ">": 36,
      "?": 37,
      "@": 38,
      "A": 39,
      "B": 40,
      "C": 41,
      "D": 42,
      "E": 43,
      "F": 44,
      "G": 45,
      "H": 46,
      "I": 47,
      "J": 48,
      "K": 49,
      "L": 50,
      "M": 51,
      "N": 52,
      "O": 53,
      "P": 54,
      "Q": 55,
      "R": 56,
      "S": 57,
      "T": 58,
      "U": 59,
      "V": 60,
      "W": 61,
      "X": 62,
      "Y": 63,
      "Z": 64,
      "[": 65,
      "\\": 66,
      "]": 67,
      "^": 68,
      "_": 69,
      "`": 70,
      "a": 71,
      "b": 72,
      "c": 73,
      "d": 74,
      "e": 75,
      "f": 76,
      "g": 77,
      "h": 78,
      "i": 79,
      "j": 80,
      "k": 81,
      "l": 82,
      "m": 83,
      "n": 84,
      "o": 85,
      "p": 86,
      "q": 87,
      "r": 88,
      "s": 89,
      "t": 90,
      "u": 91,
      "v": 92,
      "w": 93,
      "x": 94,
      "y": 95,
      "z": 96,
      "{": 97,
      "|": 98,
      "}": 99,
      "~": 100,
      "¡": 101,
      "¢": 102,
      "£": 103,
      "¤": 104,
      "¥": 105,
      "¦": 106,
      "§": 107,
      "¨": 108,
      "©": 109,
      "ª": 110,
      "«": 111,
      "¬": 112,
      "®": 113,
      "¯": 114,
      "°": 115,
      "±": 116,
      "²": 117,
      "³": 118,
      "´": 119,
      "µ": 120,
      "¶": 121,
      "·": 122,
      "¸": 123,
      "¹": 124,
      "º": 125,
      "»": 126,
      "¼": 127,
      "½": 128,
      "¾": 129,
      "¿": 130,
      "Â": 131,
      "Ã": 132,
      "Ä": 133,
      "Å": 134,
      "Ç": 135,
      "È": 136,
      "Ê": 137,
      "Î": 138,
      "Ï": 139,
      "Ð": 140,
      "Ñ": 141,
      "Ø": 142,
      "Ù": 143,
      "â": 144,
      "ã": 145,
      "ä": 146,
      "å": 147,
      "æ": 148,
      "ç": 149,
      "è": 150,
      "é": 151,
      "ï": 152,
      "ð": 153,
      "ĉ": 154,
      "Ċ": 155,
      "Ġ": 156,
      "Ģ": 157,
      "ģ": 158,
      "Ĥ": 159,
      "ĥ": 160,
      "Ħ": 161,
      "ħ": 162,
      "Ĩ": 163,
      "ĩ": 164,
      "Ī": 165,
      "ī": 166,
      "Ĭ": 167,
      "ĭ": 168,
      "Į": 169,
      "į": 170,
      "İ": 171,
      "ı": 172,
      "Ĳ": 173,
      "ĳ": 174,
      "Ĵ": 175,
      "ĵ": 176,
      "Ķ": 177,
      "ķ": 178,
      "ĸ": 179,
      "Ĺ": 180,
      "ĺ": 181,
      "Ļ": 182,
      "ļ": 183,
      "Ľ": 184,
      "ľ": 185,
      "Ŀ": 186,
      "ŀ": 187,
      "Ł": 188,
      "ł": 189,
      "Ń": 190,
      "en": 191,
      "er": 192,
      "in": 193,
      "ch": 194,
      "Ġd": 195,
      "Ġa": 196,
      "es": 197,
      "un": 198,
      "ie": 199,
      "on": 200,
      "st": 201,
      "Ġt": 202,
      "it": 203,
      "at": 204,
      "ein": 205,
      "Ġs": 206,
      "re": 207,
      "und": 208,
      "an": 209,
      "or": 210,
      "he": 211,
      "Ġw": 212,
      "is": 213,
      "ich": 214,
      "le": 215,
      "Ġund": 216,
      "Ġb": 217,
      "as": 218,
      "te": 219,
      "ĠS": 220,
      "Ġf": 221,
      "Ã¼": 222,
      "Ġein": 223,
      "ä¸": 224,
      "Ġin": 225,
      "ar": 226,
      "el": 227,
      "Ġm": 228,
      "ï¼": 229,
      "zu": 230,
      "Ã¤": 231,
      "ti": 232,
      "al": 233,
      "Ġan": 234,
      "ĠA": 235,
      "ten": 236,
      "ge": 237,
      "Ġdie": 238,
      "Ġv": 239,
      "ro": 240,
      "Ġzu": 241,
      "ĠĠ": 242,
      "Ġthe": 243,
      "gen": 244,
      "Ġo": 245,
      "çļ": 246,
      "çļĦ": 247,
      "ï¼Į": 248,
      "ãĢ": 249,
      "Ġp": 250,
      "ĠB": 251,
      "Ġh": 252,
      "Ġc": 253,
      "Ġi": 254,
      "ut": 255,
      "us": 256,
      "ur": 257,
      "ing": 258,
      "ĠD": 259,
      "de": 260,
      "Ġder": 261,
      "ĠI": 262,
      "ãĢĤ": 263,
      "der": 264,
      "Ġk": 265,
      "hr": 266,
      "ol": 267,
      "um": 268,
      "ĠT": 269,
      "ri": 270,
      "om": 271,
      "ung": 272,
      "lich": 273,
      "##": 274,
      "Ã¶": 275,
      "ion": 276,
      "Ġbe": 277,
      "äº": 278,
      "ra": 279,
      "ĠE": 280,
      "Ġn": 281,
      "il": 282,
      "Ġg": 283,
      "ĠW": 284,
      "ent": 285,
      "uf": 286,
      "ä»": 287,
      "ĠF": 288,
      "ĠK": 289,
      "ter": 290,
      "em": 291,
      "ier": 292,
      "ĠM": 293,
      "Ġth": 294,
      "ĠG": 295,
      "se": 296,
      "ĠP": 297,
      "den": 298,
      "ir": 299,
      "Ġand": 300,
      "tion": 301,
      "ĠR": 302,
      "ck": 303,
      "eit": 304,
      "åı": 305,
      "Ġl": 306,
      "isch": 307,
      "ĠH": 308,
      "et": 309,
      "ig": 310,
      "Ġdas": 311,
      "ben": 312,
      "Ġre": 313,
      "Ġto": 314,
      "ĠIn": 315,
      "ĠV": 316,
      "Ã¼r": 317,
      "Ġof": 318,
      "ed": 319,
      "am": 320,
      "Ġver": 321,
      "ber": 322,
      "Ġthat": 323,
      "ation": 324,
      "sch": 325,
      "æľ": 326,
      "è¿": 327,
      "Ġer": 328,
      "ru": 329,
      "Ġist": 330,
      "çĶ": 331,
      "ist": 332,
      "Ġis": 333,
      "Ġal": 334,
      "ow": 335,
      "åĪ": 336,
      "å®": 337,
      "åħ": 338,
      "ic": 339,
      "esp": 340,
      "ach": 341,
      "len": 342,
      "pp": 343,
      "Ġum": 344,
      "est": 345,
      "å¤": 346,
      "Ġeine": 347,
      "ĠL": 348,
      "Ġdes": 349,
      "be": 350,
      "sen": 351,
      "men": 352,
      "ĠAn": 353,
      "Ġst": 354,
      "and": 355,
      "Ġden": 356,
      "Ġe": 357,
      "ĠĠĠĠ": 358,
      "ann": 359,
      "iv": 360,
      "ä½": 361,
      "Ġge": 362,
      "###": 363,
      "Ġauf": 364,
      "åĬ": 365,
      "ĠZ": 366,
      "ies": 367,
      "Ġvon": 368,
      "ction": 369,
      "ÃŁ": 370,
      "Ġmit": 371,
      "ä¸Ģ": 372,
      "eine": 373,
      "tw": 374,
      "æĪ": 375,
      "åľ": 376,
      "åĴ": 377,
      "au": 378,
      "eh": 379,
      "Ġr": 380,
      "stru": 381,
      "ç»": 382,
      "åĴĮ": 383,
      "ĠSt": 384,
      "ce": 385,
      "æĺ": 386,
      "ĠfÃ¼r": 387,
      "ul": 388,
      "utz": 389,
      "icht": 390,
      "ĠC": 391,
      "ff": 392,
      "ĠSie": 393,
      "nen": 394,
      "espon": 395,
      "ak": 396,
      "rit": 397,
      "æĸ": 398,
      "struction": 399,
      "uch": 400,
      "è¯": 401,
      "ess": 402,
      "esponse": 403,
      "qu": 404,
      "Ġ1": 405,
      "ĠN": 406,
      "tz": 407,
      "ĥ½": 408,
      "iel": 409,
      "th": 410,
      "ind": 411,
      "Ġoder": 412,
      "Ġes": 413,
      "ĠVer": 414,
      "utzer": 415,
      "orm": 416,
      "Ġun": 417,
      "è®": 418,
      "omp": 419,
      "Ġpro": 420,
      "ver": 421,
      "end": 422,
      "ien": 423,
      "twor": 424,
      "ss": 425,
      "åº": 426,
      "åĲ": 427,
      "æķ": 428,
      "ate": 429,
      "Ġim": 430,
      "Ã¶n": 431,
      "èĥ½": 432,
      "æĺ¯": 433,
      "ä¹": 434,
      "ungen": 435,
      "ere": 436,
      "ä»¥": 437,
      "ze": 438,
      "åŃ": 439,
      "ä¸ª": 440,
      "oll": 441,
      "éĢ": 442,
      "åı¯": 443,
      "tes": 444,
      "ĠU": 445,
      "sp": 446,
      "og": 447,
      "ĠSch": 448,
      "im": 449,
      "ne": 450,
      "ãĢģ": 451,
      "ab": 452,
      "Ġapp": 453,
      "ï¼ļ": 454,
      "id": 455,
      "tworten": 456,
      "ith": 457,
      "Ġsich": 458,
      "Ã¤n": 459,
      "çĶ¨": 460,
      "Ġle": 461,
      "Ġdu": 462,
      "ĠBen": 463,
      "Ġsie": 464,
      "Ġeinen": 465,
      "Ã¼ber": 466,
      "Ġfor": 467,
      "ah": 468,
      "Ġcomp": 469,
      "Ġdass": 470,
      "Ġwir": 471,
      "ĠBenutzer": 472,
      "Ġha": 473,
      "Ġdem": 474,
      "äºº": 475,
      "ieren": 476,
      "åľ¨": 477,
      "ag": 478,
      "form": 479,
      "Ġaus": 480,
      "æĿ": 481,
      "ĠO": 482,
      "bes": 483,
      "åĽ": 484,
      "ahr": 485,
      "å°": 486,
      "Ġhe": 487,
      "ĠAntworten": 488,
      "ä¼": 489,
      "å¸": 490,
      "è¡": 491,
      "Ġwie": 492,
      "ib": 493,
      "ĠBe": 494,
      "ische": 495,
      "Ġals": 496,
      "ĠĠĠ": 497,
      "éĩ": 498,
      "cri": 499,
      "å¼": 500,
      "Ġcon": 501,
      "ask": 502,
      "Ġ2": 503,
      "Ġsch": 504,
      "all": 505,
      "ĠJ": 506,
      "æĹ": 507,
      "Ġwith": 508,
      "rop": 509,
      "os": 510,
      "ts": 511,
      "ern": 512,
      "ä¸º": 513,
      "Ġsein": 514,
      "ĠSp": 515,
      "Ġdies": 516,
      "rite": 517,
      "ei": 518,
      "put": 519,
      "ell": 520,
      "ers": 521,
      "å¹": 522,
      "åĨ": 523,
      "ĠEr": 524,
      "Ã¤hr": 525,
      "Ġkann": 526,
      "ĠÃ¼ber": 527,
      "urch": 528,
      "ik": 529,
      "ely": 530,
      "ek": 531,
      "è§": 532,
      "Ġne": 533,
      "keit": 534,
      "Ġj": 535,
      "Ġtask": 536,
      "Ġsind": 537,
      "ot": 538,
      "ĠkÃ¶n": 539,
      "lichen": 540,
      "å¯": 541,
      "Ġ\"": 542,
      "esch": 543,
      "Ġeiner": 544,
      "ĠRe": 545,
      "fÃ¼": 546,
      "ad": 547,
      "çī": 548,
      "Ġrequ": 549,
      "æĢ": 550,
      "rÃ¤": 551,
      "ert": 552,
      "Ġdeine": 553,
      "Ġdescri": 554,
      "xt": 555,
      "æľī": 556,
      "liche": 557,
      "Ġcomple": 558,
      "ft": 559,
      "ately": 560,
      "ellen": 561,
      "igen": 562,
      "ä¸Ń": 563,
      "Ġbei": 564,
      "ll": 565,
      "Ġab": 566,
      "Ġinstruction": 567,
      "assen": 568,
      "Ġresponse": 569,
      "elow": 570,
      "ve": 571,
      "Ġrequest": 572,
      "åĩ": 573,
      "du": 574,
      "ç§": 575,
      "Ġgen": 576,
      "Ġda": 577,
      "ischen": 578,
      "Ġapprop": 579,
      "Ġappropri": 580,
      "è¿Ļ": 581,
      "ct": 582,
      "æī": 583,
      "Ġdescribes": 584,
      "Below": 585,
      "Ġsp": 586,
      "ĠWrite": 587,
      "ĠResponse": 588,
      "ĠInstruction": 589,
      "Ġcompletes": 590,
      "Ġappropriately": 591,
      "Ġde": 592,
      "æł": 593,
      "op": 594,
      "æŀ": 595,
      "ass": 596,
      "ehr": 597,
      "od": 598,
      "ive": 599,
      "çĶŁ": 600,
      "ĠAr": 601,
      "æķ°": 602,
      "åı¯ä»¥": 603,
      "oh": 604,
      "age": 605,
      "Ġ(": 606,
      "ht": 607,
      "hal": 608,
      "ige": 609,
      "reund": 610,
      "ä¿": 611,
      "ä¾": 612,
      "ort": 613,
      "è¦": 614,
      "ationen": 615,
      "fen": 616,
      "ä¸į": 617,
      "zen": 618,
      "ĠThe": 619,
      "Ġ=": 620,
      "rÃ¼": 621,
      "å½": 622,
      "åį": 623,
      "red": 624,
      "Ġex": 625,
      "ther": 626,
      "è¦ģ": 627,
      "Ġwer": 628,
      "che": 629,
      "chen": 630,
      "åĮ": 631,
      "ack": 632,
      "ĠUn": 633,
      "é¢": 634,
      "ine": 635,
      "ang": 636,
      "æ³": 637,
      "Ġhil": 638,
      "lo": 639,
      "ä»¬": 640,
      "hre": 641,
      "ä¸Ģä¸ª": 642,
      "Ġich": 643,
      "Ġhat": 644,
      "Ã¶r": 645,
      "Ġwh": 646,
      "Ġwar": 647,
      "Ġdar": 648,
      "äºĨ": 649,
      "tig": 650,
      "å·": 651,
      "la": 652,
      "çİ": 653,
      "çĽ": 654,
      "heit": 655,
      "ĠPro": 656,
      "Ġwas": 657,
      "ick": 658,
      "our": 659,
      "ĠTe": 660,
      "ust": 661,
      "Ġ-": 662,
      "ĠAuf": 663,
      "kt": 664,
      "å¾": 665,
      "Ã¤h": 666,
      "éĹ": 667,
      "Ġet": 668,
      "Ġz": 669,
      "Ġon": 670,
      "we": 671,
      "Ġwerden": 672,
      "ĠVor": 673,
      "æĿ¥": 674,
      "æµ": 675,
      "æŃ": 676,
      "å¥": 677,
      "æı": 678,
      "The": 679,
      "ran": 680,
      "Ġwird": 681,
      "Ġus": 682,
      "ssist": 683,
      "auf": 684,
      "ise": 685,
      "æį": 686,
      "Ġent": 687,
      "Ġor": 688,
      "enn": 689,
      "ĠDie": 690,
      "æİ": 691,
      "ant": 692,
      "Ġalle": 693,
      "ĊĠĠĠĠ": 694,
      "ĠkÃ¶nnen": 695,
      "Ġsen": 696,
      "Ġmo": 697,
      "èĢ": 698,
      "ug": 699,
      "ud": 700,
      "è¡Į": 701,
      "aus": 702,
      "Ġvor": 703,
      "Ġunter": 704,
      "iz": 705,
      "Ġhel": 706,
      "å¯¹": 707,
      "me": 708,
      "Ġas": 709,
      "eln": 710,
      "ay": 711,
      "çŃ": 712,
      "Ġy": 713,
      "eren": 714,
      "Ġauch": 715,
      "ile": 716,
      "¦Ĥ": 717,
      "è¿ĩ": 718,
      "å¿": 719,
      "ĠEn": 720,
      "ä»ĸ": 721,
      "if": 722,
      "mer": 723,
      "Ġit": 724,
      "Ġte": 725,
      "Ġprov": 726,
      "æĬ": 727,
      "æĶ": 728,
      "ĠEin": 729,
      "00": 730,
      "Ĥ¨": 731,
      "ok": 732,
      "æĦ": 733,
      "lÃ¤": 734,
      "éĿ": 735,
      "Ġfreund": 736,
      "æĪĳ": 737,
      "ap": 738,
      "ssistent": 739,
      "ment": 740,
      "æĭ": 741,
      "éĢļ": 742,
      "nis": 743,
      "Ġbist": 744,
      "Ġdurch": 745,
      "Ġeinem": 746,
      "ĠGe": 747,
      "æĽ": 748,
      "Ã¤hrend": 749,
      "Ġpa": 750,
      "Ġgro": 751,
      "äºİ": 752,
      "Ġbes": 753,
      "Ġnicht": 754,
      "ĠFra": 755,
      "Ġso": 756,
      "ard": 757,
      "Ġhin": 758,
      "hen": 759,
      "å¦Ĥ": 760,
      "ga": 761,
      "å®ĥ": 762,
      "reich": 763,
      "ommen": 764,
      "Ã¶g": 765,
      "åĬ¨": 766,
      "Ġco": 767,
      "Ġdein": 768,
      "lie": 769,
      "wen": 770,
      "æĹ¶": 771,
      "âĢ": 772,
      "æĤ¨": 773,
      "ç®": 774,
      "æıĲ": 775,
      "Ã¼tz": 776,
      "Ġcan": 777,
      "Ġkon": 778,
      "ill": 779,
      "tern": 780,
      "ÃŁen": 781,
      "æ´": 782,
      "aten": 783,
      "ly": 784,
      "chte": 785,
      "æį®": 786,
      "åĳ": 787,
      "Ġen": 788,
      "ste": 789,
      "ungs": 790,
      "iert": 791,
      "æĪĲ": 792,
      "ĊĠĠĠ": 793,
      "erv": 794,
      "unk": 795,
      "ity": 796,
      "å¤§": 797,
      "Ġhilf": 798,
      "och": 799,
      "ure": 800,
      "æ°": 801,
      "Ġbie": 802,
      "Ġumf": 803,
      "çī©": 804,
      "ief": 805,
      "rei": 806,
      "åºĶ": 807,
      "Du": 808,
      "èĩ": 809,
      "tel": 810,
      "ĠLe": 811,
      "formationen": 812,
      "åľ°": 813,
      "å®ļ": 814,
      "æĽ´": 815,
      "è¾": 816,
      "ide": 817,
      "Ġinput": 818,
      "ĠÃ": 819,
      "rom": 820,
      "è´": 821,
      "åĪ°": 822,
      "ç¨": 823,
      "alte": 824,
      "ĠHau": 825,
      "ç§į": 826,
      "æĮ": 827,
      "dern": 828,
      "text": 829,
      "Ġhaben": 830,
      "ä¸ĭ": 831,
      "ĠAus": 832,
      "ĠInformationen": 833,
      "åİ": 834,
      "erg": 835,
      "itÃ¤": 836,
      "ativ": 837,
      "Ġlog": 838,
      "ä¼ļ": 839,
      "Ġwe": 840,
      "ĠDein": 841,
      "atz": 842,
      "elt": 843,
      "Ġzur": 844,
      "Ġnach": 845,
      "cken": 846,
      "æĸ¹": 847,
      "éľ": 848,
      "Ġgeben": 849,
      "ides": 850,
      "Ġ3": 851,
      "ĠwÃ¤hrend": 852,
      "dere": 853,
      "Ġwur": 854,
      "ĠDies": 855,
      "ĠGesch": 856,
      "åĪĨ": 857,
      "ial": 858,
      "pf": 859,
      "ark": 860,
      "hren": 861,
      "æĢ§": 862,
      "gabe": 863,
      "cc": 864,
      "Ġsoll": 865,
      "per": 866,
      "çĲ": 867,
      "Ġch": 868,
      "Ġihre": 869,
      "æ³ķ": 870,
      "æľº": 871,
      "pt": 872,
      "æĥ": 873,
      "ĠQ": 874,
      "åŃĲ": 875,
      "Ġlogisch": 876,
      "Ġfa": 877,
      "bs": 878,
      "tim": 879,
      "åĵ": 880,
      "chn": 881,
      "sam": 882,
      "Ã¤r": 883,
      "åŃ¦": 884,
      "ired": 885,
      "Ġinc": 886,
      "urther": 887,
      "akten": 888,
      "tro": 889,
      "éľĢ": 890,
      "bar": 891,
      "fahr": 892,
      "è½": 893,
      "Ġumfassen": 894,
      "ec": 895,
      "ring": 896,
      "dem": 897,
      "è¿Ľ": 898,
      "å¹¶": 899,
      "tet": 900,
      "ĠEs": 901,
      "scha": 902,
      "å¤ļ": 903,
      "Ã¶glich": 904,
      "ç½": 905,
      "sten": 906,
      "art": 907,
      "Ġall": 908,
      "ram": 909,
      "è§£": 910,
      "Ġprovides": 911,
      "Ġfurther": 912,
      "åıĳ": 913,
      "ç¨ĭ": 914,
      "Ġeth": 915,
      "ĠQu": 916,
      "ç«": 917,
      "unden": 918,
      "uld": 919,
      "ho": 920,
      "ä½ĵ": 921,
      "Ġje": 922,
      "rie": 923,
      "stellen": 924,
      "ĠKI": 925,
      "æĸĩ": 926,
      "fol": 927,
      "åĬĽ": 928,
      "beit": 929,
      "stÃ¼tz": 930,
      "ahl": 931,
      "çŃī": 932,
      "are": 933,
      "Ġ5": 934,
      "Ġare": 935,
      "Ġweit": 936,
      "Ã¤nd": 937,
      "ĠInput": 938,
      "bereit": 939,
      "æ¯": 940,
      "ä½¿": 941,
      "Ġimp": 942,
      "Ġcontext": 943,
      "io": 944,
      "yst": 945,
      "å¢": 946,
      "Ġwor": 947,
      "ä¸Ĭ": 948,
      "ä¾Ľ": 949,
      "In": 950,
      "Ġ+": 951,
      "Ġpaired": 952,
      "éĺ": 953,
      "lei": 954,
      "Ġeinige": 955,
      "ign": 956,
      "ä½ľ": 957,
      "åĩº": 958,
      "Ġhelfen": 959,
      "Ġby": 960,
      "Ġverwen": 961,
      "owing": 962,
      "Ġumfassende": 963,
      "wer": 964,
      "iele": 965,
      "æŀľ": 966,
      "Ġinform": 967,
      "éĻ": 968,
      "lan": 969,
      "Ġmehr": 970,
      "igkeit": 971,
      "æĪĸ": 972,
      "è®¡": 973,
      "ite": 974,
      "tiv": 975,
      "ken": 976,
      "æ±": 977,
      "Ã¤l": 978,
      "schie": 979,
      "ehen": 980,
      "ç±": 981,
      "mo": 982,
      "Ġfoll": 983,
      "ĠDer": 984,
      "Ġfrom": 985,
      "ĠZeit": 986,
      "Ġbieten": 987,
      "æĸ°": 988,
      "ally": 989,
      "ges": 990,
      "ub": 991,
      "ĠHalte": 992,
      "åħ¶": 993,
      "å¸¸": 994,
      "ain": 995,
      "æ¸": 996,
      "Ġ$": 997,
      "bei": 998,
      "Ġ20": 999,
      "osit": 1000,
      "Ġsollte": 1001,
      "ibt": 1002,
      "åĲĮ": 1003,
      "éĩı": 1004,
      "å¥½": 1005,
      "stÃ¤nd": 1006,
      "Ġman": 1007,
      "Ã¤re": 1008,
      "è¡¨": 1009,
      "ç³": 1010,
      "çº": 1011,
      "Ġfakten": 1012,
      "Ġmach": 1013,
      "ĠCh": 1014,
      "hne": 1015,
      "æķ°æį®": 1016,
      "Ġsenten": 1017,
      "Ġhinzu": 1018,
      "èĩª": 1019,
      "Ġpo": 1020,
      "ice": 1021,
      "ĠZiel": 1022,
      "ç»ı": 1023,
      "ĠNutzer": 1024,
      "ystem": 1025,
      "ob": 1026,
      "ue": 1027,
      "å±": 1028,
      "uss": 1029,
      "riv": 1030,
      "Ġwurde": 1031,
      "ç¤": 1032,
      "Ġ4": 1033,
      "Ġbis": 1034,
      "olog": 1035,
      "é¢ĺ": 1036,
      "gt": 1037,
      "æĻ": 1038,
      "Ġar": 1039,
      "leb": 1040,
      "åħ³": 1041,
      "able": 1042,
      "å¼Ģ": 1043,
      "Ġins": 1044,
      "ĠTh": 1045,
      "Ġdiese": 1046,
      "ç³»": 1047,
      "ata": 1048,
      "ĠunterstÃ¼tz": 1049,
      "å»": 1050,
      "Ġlief": 1051,
      "åĮĸ": 1052,
      "éĿ¢": 1053,
      "ĠNutzern": 1054,
      "asier": 1055,
      "Ġho": 1056,
      "ĠDas": 1057,
      "ehmen": 1058,
      "Ġsentence": 1059,
      "çĤ": 1060,
      "ensch": 1061,
      "ĠfÃ¼": 1062,
      "ame": 1063,
      "æľĢ": 1064,
      "èĢĮ": 1065,
      "çĲĨ": 1066,
      "Ġher": 1067,
      "ä¿Ŀ": 1068,
      "Ġfollowing": 1069,
      "åĻ": 1070,
      "Ġzum": 1071,
      "iven": 1072,
      "Ġuns": 1073,
      "sph": 1074,
      "ĊĠĠĠĠĠĠĠ": 1075,
      "æıĲä¾Ľ": 1076,
      "gan": 1077,
      "rin": 1078,
      "éģ": 1079,
      "Ã¤tz": 1080,
      "Ġohne": 1081,
      "ĠBeh": 1082,
      "éĹ´": 1083,
      "Ġzw": 1084,
      "itÃ¤t": 1085,
      "lic": 1086,
      "ition": 1087,
      "det": 1088,
      "ĠInter": 1089,
      "Ġverb": 1090,
      "åºı": 1091,
      "åĽ½": 1092,
      "Ġgenau": 1093,
      "``": 1094,
      "cht": 1095,
      "orre": 1096,
      "ĠAl": 1097,
      "Ġper": 1098,
      "licher": 1099,
      "åĬ©": 1100,
      "å·¥": 1101,
      "å»º": 1102,
      "åĻ¨": 1103,
      "ient": 1104,
      "ook": 1105,
      "up": 1106,
      "lev": 1107,
      "ted": 1108,
      "ia": 1109,
      "lin": 1110,
      "Ġgew": 1111,
      "å°Ĩ": 1112,
      "Ġdeinen": 1113,
      "gst": 1114,
      "«ĺ": 1115,
      "ç´": 1116,
      "é«ĺ": 1117,
      "ĠAufgabe": 1118,
      "ĠFrage": 1119,
      "res": 1120,
      "èµ": 1121,
      "äºĽ": 1122,
      "ĠSpra": 1123,
      "halten": 1124,
      "éĢļè¿ĩ": 1125,
      "Ġliefern": 1126,
      "éĶ": 1127,
      "Ġtra": 1128,
      "Ġposit": 1129,
      "ome": 1130,
      "out": 1131,
      "vel": 1132,
      "isp": 1133,
      "tif": 1134,
      "genommen": 1135,
      "omm": 1136,
      "ĠÃľ": 1137,
      "éľĢè¦ģ": 1138,
      "her": 1139,
      "ç¡": 1140,
      "ĠIch": 1141,
      "ral": 1142,
      "wert": 1143,
      "Ġber": 1144,
      "ä¸»": 1145,
      "tige": 1146,
      "tigen": 1147,
      "tionen": 1148,
      "ult": 1149,
      "Ġalso": 1150,
      "schaft": 1151,
      "æģ": 1152,
      "ument": 1153,
      "éĩį": 1154,
      "æīĢ": 1155,
      "ake": 1156,
      "Ġleicht": 1157,
      "æ´»": 1158,
      "av": 1159,
      "çĿ": 1160,
      "Ġsuch": 1161,
      "Ġkl": 1162,
      "'s": 1163,
      "for": 1164,
      "reat": 1165,
      "teile": 1166,
      "Ġfin": 1167,
      "ĠLeben": 1168,
      "ä½¿çĶ¨": 1169,
      "ĠunterstÃ¼tzen": 1170,
      "ble": 1171,
      "Ġ\\": 1172,
      "chs": 1173,
      "Ġdi": 1174,
      "ations": 1175,
      "ÃŁe": 1176,
      "ç±»": 1177,
      "ron": 1178,
      "åģ": 1179,
      "èī": 1180,
      "erte": 1181,
      "Ġacc": 1182,
      "çĶµ": 1183,
      "ä¹ĭ": 1184,
      "ĠJahr": 1185,
      "Assistent": 1186,
      "ŀĭ": 1187,
      "ä¸İ": 1188,
      "ĠDu": 1189,
      "ä¹ł": 1190,
      "ç®Ĺ": 1191,
      "sion": 1192,
      "ys": 1193,
      "unt": 1194,
      "ĠAssistent": 1195,
      "get": 1196,
      "ĠDeine": 1197,
      "æĪ·": 1198,
      "ards": 1199,
      "Die": 1200,
      "hn": 1201,
      "æ¬": 1202,
      "æ²": 1203,
      "Ġse": 1204,
      "Ġme": 1205,
      "ï¼Ī": 1206,
      "Ġhas": 1207,
      "åĪĽ": 1208,
      "ehm": 1209,
      "Ġdabei": 1210,
      "ast": 1211,
      "sbereit": 1212,
      "stell": 1213,
      "Ġblei": 1214,
      "ï¼ī": 1215,
      "å®¶": 1216,
      "Ġsicher": 1217,
      "çİ°": 1218,
      "éĹ®": 1219,
      "Ġfair": 1220,
      "ou": 1221,
      "Ġdich": 1222,
      "tell": 1223,
      "Ġmor": 1224,
      "Ġmir": 1225,
      "Ġrelev": 1226,
      "æĦŁ": 1227,
      "ĠÃľber": 1228,
      "lung": 1229,
      "uen": 1230,
      "çĦ": 1231,
      "Ġem": 1232,
      "äº¤": 1233,
      "å¤Ł": 1234,
      "ä¿¡": 1235,
      "Ġihr": 1236,
      "chnolog": 1237,
      "fahren": 1238,
      "Ġpositive": 1239,
      "ç¡®": 1240,
      "ĠIt": 1241,
      "ĠHand": 1242,
      "åĬł": 1243,
      "sphÃ¤re": 1244,
      "ip": 1245,
      "ler": 1246,
      "é£": 1247,
      "leich": 1248,
      "ase": 1249,
      "ets": 1250,
      "Ġdarauf": 1251,
      "ces": 1252,
      "è°": 1253,
      "Ġqu": 1254,
      "ĠDurch": 1255,
      "äº§": 1256,
      "èĥ½å¤Ł": 1257,
      "Ġdieser": 1258,
      "erson": 1259,
      "vor": 1260,
      "yp": 1261,
      "æº": 1262,
      "çķ": 1263,
      "Ġat": 1264,
      "tiere": 1265,
      "ä½ł": 1266,
      "ĠStand": 1267,
      "åº¦": 1268,
      "lebnis": 1269,
      "mei": 1270,
      "èĬ": 1271,
      "one": 1272,
      "ĠTon": 1273,
      "è¯Ń": 1274,
      "ĊĠĠĠĠĠĠĠĠ": 1275,
      "bo": 1276,
      "ke": 1277,
      "ood": 1278,
      "ichte": 1279,
      "Ã¼n": 1280,
      "Ġeines": 1281,
      "setz": 1282,
      "å¼ı": 1283,
      "ĠkÃ¶nn": 1284,
      "lau": 1285,
      "to": 1286,
      "åĢ": 1287,
      "Ġam": 1288,
      "ĠMensch": 1289,
      "Ġrec": 1290,
      "annten": 1291,
      "ffen": 1292,
      "æĦı": 1293,
      "Ġhilfsbereit": 1294,
      "schieden": 1295,
      "ple": 1296,
      "ry": 1297,
      "åŀĭ": 1298,
      "Ġdata": 1299,
      "ĠRicht": 1300,
      "ight": 1301,
      "åħ¥": 1302,
      "ĠStre": 1303,
      "ritt": 1304,
      "æºĲ": 1305,
      "ac": 1306,
      "gr": 1307,
      "éķ": 1308,
      "çļĦç": 1309,
      "ä¹Ł": 1310,
      "åĽł": 1311,
      "cess": 1312,
      "fer": 1313,
      "ĠWe": 1314,
      "ĠRechte": 1315,
      "çĦ¶": 1316,
      "hl": 1317,
      "tra": 1318,
      "ĠwÃ¼r": 1319,
      "aktion": 1320,
      "Ġkannst": 1321,
      "ep": 1322,
      "fl": 1323,
      "éĥ½": 1324,
      "rig": 1325,
      "åı¯èĥ½": 1326,
      "åĨ³": 1327,
      "fÃ¼hr": 1328,
      "ĠUnter": 1329,
      "ustom": 1330,
      "ĠBehand": 1331,
      "fra": 1332,
      "åŁ": 1333,
      "anten": 1334,
      "elle": 1335,
      "ĠApp": 1336,
      "geben": 1337,
      "utral": 1338,
      "Ġverschieden": 1339,
      "Ġresp": 1340,
      "æĺ¯ä¸Ģ": 1341,
      "Ġspe": 1342,
      "Ġused": 1343,
      "åĵģ": 1344,
      "An": 1345,
      "ha": 1346,
      "ente": 1347,
      "eingenommen": 1348,
      "Ġbas": 1349,
      "tic": 1350,
      "Ġob": 1351,
      "Ġout": 1352,
      "ĠKon": 1353,
      "ĠBeisp": 1354,
      "ĠArt": 1355,
      "ĠMenschen": 1356,
      "pl": 1357,
      "arn": 1358,
      "Ġoben": 1359,
      "ä»¶": 1360,
      "Ġthis": 1361,
      "fÃ¼gen": 1362,
      "Ġetw": 1363,
      "Ġhohe": 1364,
      "mit": 1365,
      "oc": 1366,
      "èĤ": 1367,
      "Ġangen": 1368,
      "åĪĹ": 1369,
      "ĠThemen": 1370,
      "å¾Ĺ": 1371,
      "atives": 1372,
      "ĠQuellen": 1373,
      "linien": 1374,
      "Ġmoral": 1375,
      "éķ¿": 1376,
      "ism": 1377,
      "Ġmich": 1378,
      "Ġges": 1379,
      "ç»Ł": 1380,
      "åĮħ": 1381,
      "reiche": 1382,
      "Sch": 1383,
      "gument": 1384,
      "èģ": 1385,
      "arbeit": 1386,
      "Ġgibt": 1387,
      "åĨħ": 1388,
      "Ġneutral": 1389,
      "ĠRichtlinien": 1390,
      "æŁ": 1391,
      "ç¾": 1392,
      "Ġ[": 1393,
      "ondere": 1394,
      "anz": 1395,
      "Ġtheir": 1396,
      "Ã¶ff": 1397,
      "ĠGesp": 1398,
      "Ġseinen": 1399,
      "å½ĵ": 1400,
      "Ġkontro": 1401,
      "æĥħ": 1402,
      "å¢ŀ": 1403,
      "bst": 1404,
      "Ġad": 1405,
      "atur": 1406,
      "Ġander": 1407,
      "Ġkorre": 1408,
      "ild": 1409,
      "isten": 1410,
      "ĠZu": 1411,
      "åŃĹ": 1412,
      "meide": 1413,
      "ĠGesprÃ¤": 1414,
      "ail": 1415,
      "erlebnis": 1416,
      "Ġaber": 1417,
      "Ġbefol": 1418,
      "ilen": 1419,
      "ç»ĵ": 1420,
      "åĲİ": 1421,
      "Ġgenannten": 1422,
      "æĪĳä»¬": 1423,
      "ĠHaup": 1424,
      "mat": 1425,
      "ner": 1426,
      "Ġro": 1427,
      "åıĺ": 1428,
      "åħ¨": 1429,
      "å¸®": 1430,
      "åŃ¦ä¹ł": 1431,
      "çĤ¹": 1432,
      "Ġangenehm": 1433,
      "fe": 1434,
      "é¡": 1435,
      "atÃ¼r": 1436,
      "ance": 1437,
      "Ġwenn": 1438,
      "alt": 1439,
      "ĠPriv": 1440,
      "Ġerfahren": 1441,
      "ĠVermeide": 1442,
      "Ã¤ng": 1443,
      "ĠOr": 1444,
      "ĠProdu": 1445,
      "Ġfreundlichen": 1446,
      "å¸®åĬ©": 1447,
      "sib": 1448,
      "ari": 1449,
      "ĠInteraktion": 1450,
      "ĠPrivat": 1451,
      "20": 1452,
      "ĠIhre": 1453,
      "ierte": 1454,
      "åı¥": 1455,
      "åĪ©": 1456,
      "åĪ¶": 1457,
      "ical": 1458,
      "çĽ®": 1459,
      "æĬĢ": 1460,
      "Ġinformatives": 1461,
      "ĠStandards": 1462,
      "Ġrespek": 1463,
      "Ġkontrover": 1464,
      "ĠGesprÃ¤chs": 1465,
      "Ġangenehmes": 1466,
      "ĠPrivatsphÃ¤re": 1467,
      "basier": 1468,
      "wend": 1469,
      "ĊĠ": 1470,
      "ĠMit": 1471,
      "zeich": 1472,
      "æłĩ": 1473,
      "Ġwhich": 1474,
      "Ġethische": 1475,
      "Ġbleibe": 1476,
      "ĠBehandle": 1477,
      "Ġmoralische": 1478,
      "Ġrespektiere": 1479,
      "ĠGesprÃ¤chserlebnis": 1480,
      "ale": 1481,
      "no": 1482,
      "ym": 1483,
      "æ¨": 1484,
      "besondere": 1485,
      "ekt": 1486,
      "Ġyou": 1487,
      "Ġrelevanten": 1488,
      "uten": 1489,
      "Ġdo": 1490,
      "Ġcustom": 1491,
      "ings": 1492,
      "olle": 1493,
      "ĠKunden": 1494,
      "å¤©": 1495,
      "ĠUm": 1496,
      "ĠArgument": 1497,
      "Ġmore": 1498,
      "ĠgroÃŁen": 1499,
      "è¿Ľè¡Į": 1500,
      "æģ¯": 1501,
      "éĥ": 1502,
      "ener": 1503,
      "Ã¼ck": 1504,
      "ä½į": 1505,
      "ĠSpiel": 1506,
      "å¹´": 1507,
      "Ġhilft": 1508,
      "æŃ¤": 1509,
      "åºĶçĶ¨": 1510,
      "lass": 1511,
      "uer": 1512,
      "ange": 1513,
      "Ġeff": 1514,
      "Ġdec": 1515,
      "æµĭ": 1516,
      "æ°´": 1517,
      "Ġinsbesondere": 1518,
      "ĠSprache": 1519,
      "Ġbefolgst": 1520,
      "æ¨¡": 1521,
      "ĠArgumentation": 1522,
      "Ġdan": 1523,
      "Ġtre": 1524,
      "ä¸ļ": 1525,
      "urn": 1526,
      "urteile": 1527,
      "omb": 1528,
      "Ġgesch": 1529,
      "iger": 1530,
      "å®ŀ": 1531,
      "åħ¬": 1532,
      "ĠVerb": 1533,
      "åĲĪ": 1534,
      "ĠVorurteile": 1535,
      "æľºåĻ¨": 1536,
      "éĹ®é¢ĺ": 1537,
      "Ġkontroversen": 1538,
      "gram": 1539,
      "erk": 1540,
      "å½±": 1541,
      "ä»ĸä»¬": 1542,
      "lieÃŁ": 1543,
      "æĮģ": 1544,
      "ax": 1545,
      "con": 1546,
      "pla": 1547,
      "att": 1548,
      "ichtig": 1549,
      "Ã¼s": 1550,
      "ielen": 1551,
      "ord": 1552,
      "orien": 1553,
      "Ġwo": 1554,
      "ĠGem": 1555,
      "tziel": 1556,
      "Ġsensib": 1557,
      "å¿ĥ": 1558,
      "lÃ¤ss": 1559,
      "ĠunterstÃ¼tzenden": 1560,
      "ĠHauptziel": 1561,
      "co": 1562,
      "gin": 1563,
      "reate": 1564,
      "ĠKl": 1565,
      "ĠGer": 1566,
      "ç½ĳ": 1567,
      "Ġsensiblen": 1568,
      "Al": 1569,
      "St": 1570,
      "off": 1571,
      "åī": 1572,
      "è¢": 1573,
      "é¦": 1574,
      "Ġseine": 1575,
      "ĠfÃ¶r": 1576,
      "iere": 1577,
      "Ġredu": 1578,
      "Ġ10": 1579,
      "ohn": 1580,
      "Ġhilfsbereiter": 1581,
      "rate": 1582,
      "zeit": 1583,
      "æ£": 1584,
      "Ġ{": 1585,
      "Ġdir": 1586,
      "ision": 1587,
      "geb": 1588,
      "ĠprÃ¤": 1589,
      "decken": 1590,
      "æľ¬": 1591,
      "Ġ19": 1592,
      "è®¾": 1593,
      "Ġhave": 1594,
      "ĠOp": 1595,
      "å°ı": 1596,
      "æ°Ķ": 1597,
      "çĿĢ": 1598,
      "Ġetwas": 1599,
      "ute": 1600,
      "uÃŁ": 1601,
      "éļ": 1602,
      "Ġsho": 1603,
      "ĠAd": 1604,
      "çĽ¸": 1605,
      "ĠVoreingenommen": 1606,
      "Ġhelp": 1607,
      "bsite": 1608,
      "éĥ¨": 1609,
      "ĠVoreingenommenheit": 1610,
      "dition": 1611,
      "ew": 1612,
      "li": 1613,
      "ç¬": 1614,
      "issen": 1615,
      "Ġmein": 1616,
      "Ġbean": 1617,
      "Ġger": 1618,
      "Ġgut": 1619,
      "æľ¯": 1620,
      "Ġstets": 1621,
      "åĬ¡": 1622,
      "ä»¥ä¸ĭ": 1623,
      "åĩı": 1624,
      "unkte": 1625,
      "è®¡ç®Ĺ": 1626,
      "ç¾İ": 1627,
      "Ich": 1628,
      "gor": 1629,
      "satz": 1630,
      "zahl": 1631,
      "ated": 1632,
      "Ġandere": 1633,
      "äºĭ": 1634,
      "åĽŀ": 1635,
      "ĠDiese": 1636,
      "fin": 1637,
      "mack": 1638,
      "ĠAb": 1639,
      "ĠAut": 1640,
      "use": 1641,
      "Ġgr": 1642,
      "Ġgiven": 1643,
      "ĠNach": 1644,
      "Ġprocess": 1645,
      "ĠFragen": 1646,
      "Ġbasieren": 1647,
      "ĠfÃ¶rdern": 1648,
      "hnen": 1649,
      "ä»İ": 1650,
      "Ġgem": 1651,
      "Ġabdecken": 1652,
      "ä¾ĭ": 1653,
      "åįķ": 1654,
      "çİ¯": 1655,
      "è¾ĵ": 1656,
      "Ġweitere": 1657,
      "Ġdanach": 1658,
      "aw": 1659,
      "aÃŁ": 1660,
      "lu": 1661,
      "Ġ6": 1662,
      "ieb": 1663,
      "Ġserv": 1664,
      "ç»Ļ": 1665,
      "è¯ķ": 1666,
      "Ġnew": 1667,
      "asser": 1668,
      "Ġfreundlicher": 1669,
      "Ġverwendet": 1670,
      "ative": 1671,
      "Ġinto": 1672,
      "Ġkoh": 1673,
      "Ġlang": 1674,
      "ĠverstÃ¤nd": 1675,
      "å¤Ħ": 1676,
      "twort": 1677,
      "å¿«": 1678,
      "èĬĤ": 1679,
      "ĠkohÃ¤r": 1680,
      "les": 1681,
      "nah": 1682,
      "ater": 1683,
      "ory": 1684,
      "Ġinter": 1685,
      "ĠAk": 1686,
      "ĠIm": 1687,
      "ĠTag": 1688,
      "å®¹": 1689,
      "åħ·": 1690,
      "å°ĳ": 1691,
      "ekte": 1692,
      "ktur": 1693,
      "ternehmen": 1694,
      "sammen": 1695,
      "ĠhinzufÃ¼gen": 1696,
      "æĻº": 1697,
      "Ġanderen": 1698,
      "ĠkohÃ¤rente": 1699,
      "ful": 1700,
      "gel": 1701,
      "pro": 1702,
      "zie": 1703,
      "ĠmÃ¶glich": 1704,
      "Ġzusammen": 1705,
      "utter": 1706,
      "Ġbet": 1707,
      "Ġnoch": 1708,
      "amil": 1709,
      "abil": 1710,
      "ĠHaupt": 1711,
      "Ġincre": 1712,
      "Gener": 1713,
      "ç¥": 1714,
      "è·": 1715,
      "é©": 1716,
      "asse": 1717,
      "ä¸¤": 1718,
      "Ã¤ch": 1719,
      "Ġother": 1720,
      "ĠFÃ¼": 1721,
      "ĠMehr": 1722,
      "cker": 1723,
      "Ġlist": 1724,
      "è¿Ĳ": 1725,
      "çī¹": 1726,
      "ĠEnerg": 1727,
      "Ġhilfreiche": 1728,
      "Ã¶glichkeit": 1729,
      "ä¿¡æģ¯": 1730,
      "mittel": 1731,
      "Ġcustomer": 1732,
      "Ġshould": 1733,
      "digen": 1734,
      "fach": 1735,
      "land": 1736,
      "ore": 1737,
      "oth": 1738,
      "ren": 1739,
      "éª": 1740,
      "Ġsc": 1741,
      "ary": 1742,
      "Ġnur": 1743,
      "ĠWenn": 1744,
      "Ġev": 1745,
      "Ġele": 1746,
      "Ġprodu": 1747,
      "æł¹": 1748,
      "weise": 1749,
      "ç¨ĭåºı": 1750,
      "Ġword": 1751,
      "Ġverwenden": 1752,
      "ç¤¾": 1753,
      "é£Ł": 1754,
      "zt": 1755,
      "æ·": 1756,
      "ates": 1757,
      "Ġben": 1758,
      "derungen": 1759,
      "Ġnum": 1760,
      "ĠFar": 1761,
      "ammen": 1762,
      "å®¢": 1763,
      "å¼ķ": 1764,
      "lob": 1765,
      "ç³»ç»Ł": 1766,
      "hat": 1767,
      "æ¶": 1768,
      "éĤ": 1769,
      "ese": 1770,
      "ank": 1771,
      "tive": 1772,
      "twe": 1773,
      "æĸĻ": 1774,
      "Ġdazu": 1775,
      "Ã¤higkeit": 1776,
      "æµģ": 1777,
      "æ±Ĥ": 1778,
      "Ġbeantworten": 1779,
      "åĩıå°ĳ": 1780,
      "Generate": 1781,
      "upp": 1782,
      "wick": 1783,
      "éĽ": 1784,
      "ond": 1785,
      "uter": 1786,
      "tions": 1787,
      "è¯į": 1788,
      "è®©": 1789,
      "Ġjed": 1790,
      "è¿Ļä¸ª": 1791,
      "rÃ¼n": 1792,
      "Ġhatte": 1793,
      "Ġfaktenbasier": 1794,
      "wendung": 1795,
      "ual": 1796,
      "wo": 1797,
      "war": 1798,
      "Ġsh": 1799,
      "tierte": 1800,
      "Ġviel": 1801,
      "Ġno": 1802,
      "ĠHier": 1803,
      "è¯¥": 1804,
      "ohl": 1805,
      "Ġkorrek": 1806,
      "ool": 1807,
      "ph": 1808,
      "ress": 1809,
      "wÃ¼r": 1810,
      "çľ": 1811,
      "çł": 1812,
      "els": 1813,
      "Ġop": 1814,
      "ĠBo": 1815,
      "lichkeit": 1816,
      "ĠPunkte": 1817,
      "amt": 1818,
      "æĭ¬": 1819,
      "èī²": 1820,
      "Ġihrer": 1821,
      "ĠProduk": 1822,
      "Das": 1823,
      "ipp": 1824,
      "çŁ": 1825,
      "ĸçķ": 1826,
      "Ġeinz": 1827,
      "ĠMin": 1828,
      "è¿°": 1829,
      "æī¾": 1830,
      "éĿŀ": 1831,
      "timm": 1832,
      "éĩįè¦ģ": 1833,
      "ĠverstÃ¤ndlich": 1834,
      "ç©": 1835,
      "çĸ": 1836,
      "è¶": 1837,
      "ĠSatz": 1838,
      "Ġmake": 1839,
      "alten": 1840,
      "Ġlie": 1841,
      "Ġret": 1842,
      "annst": 1843,
      "ĠZus": 1844,
      "åĲį": 1845,
      "Ġabout": 1846,
      "ä¸įåĲĮ": 1847,
      "å½¢": 1848,
      "æİĴ": 1849,
      "æĶ¹": 1850,
      "æĤ¨çļĦ": 1851,
      "```": 1852,
      "ĠHandeln": 1853,
      "vol": 1854,
      "åĸ": 1855,
      "Ġ'": 1856,
      "Ġ0": 1857,
      "icher": 1858,
      "ĠmÃ¶": 1859,
      "Ġcar": 1860,
      "dentif": 1861,
      "Ġyour": 1862,
      "Ġfreundliche": 1863,
      "Ġjeder": 1864,
      "æ¯Ķ": 1865,
      "ĠThis": 1866,
      "ĠStrebe": 1867,
      "plain": 1868,
      "Ġkorrektes": 1869,
      "ger": 1870,
      "gung": 1871,
      "sÃ¤tz": 1872,
      "wir": 1873,
      "éħ": 1874,
      "ors": 1875,
      "Ġmed": 1876,
      "ĠDaten": 1877,
      "ilm": 1878,
      "ä»£": 1879,
      "ĠHer": 1880,
      "Ġrep": 1881,
      "åħĥ": 1882,
      "å¤ĸ": 1883,
      "ä½Ĩ": 1884,
      "Ġres": 1885,
      "uchen": 1886,
      "æķĪ": 1887,
      "çĶ¨æĪ·": 1888,
      "Ġlearn": 1889,
      "ä¸ŃçļĦ": 1890,
      "halt": 1891,
      "å¥¹": 1892,
      "æİ¥": 1893,
      "unktion": 1894,
      "ĠGeschichte": 1895,
      "ĠGeschmack": 1896,
      "è¢«": 1897,
      "ace": 1898,
      "å§": 1899,
      "Ġsystem": 1900,
      "Ġwel": 1901,
      "Ġwill": 1902,
      "isen": 1903,
      "alen": 1904,
      "row": 1905,
      "Ġkeine": 1906,
      "æķĻ": 1907,
      "éĢŁ": 1908,
      "é¢Ħ": 1909,
      "Ġits": 1910,
      "Ġbeste": 1911,
      "Ġethisch": 1912,
      "Ġweiter": 1913,
      "Ġfaktenorien": 1914,
      "ĠkÃ¶nnte": 1915,
      "åĮħæĭ¬": 1916,
      "ĠMehrwert": 1917,
      "æł¹æį®": 1918,
      "Ġfaktenorientierte": 1919,
      "ear": 1920,
      "ose": 1921,
      "Ġ7": 1922,
      "Ġup": 1923,
      "Ġtyp": 1924,
      "itt": 1925,
      "ating": 1926,
      "ash": 1927,
      "Ġfol": 1928,
      "Ġindem": 1929,
      "Ġerm": 1930,
      "Ġimmer": 1931,
      "ime": 1932,
      "æĹł": 1933,
      "ĠgroÃŁ": 1934,
      "Ġmachen": 1935,
      "Ġbereit": 1936,
      "Ġspez": 1937,
      "æ¨¡åŀĭ": 1938,
      "10": 1939,
      "voll": 1940,
      "èĲ": 1941,
      "Ġ8": 1942,
      "ons": 1943,
      "ĠSo": 1944,
      "ĠDe": 1945,
      "Ġbek": 1946,
      "ierung": 1947,
      "ĠMÃ¶glichkeit": 1948,
      "ruck": 1949,
      "è®®": 1950,
      "Ġhad": 1951,
      "ĠUnternehmen": 1952,
      "æĶ¾": 1953,
      "å®ĥä»¬": 1954,
      "âĢľ": 1955,
      "ĠLebens": 1956,
      "ĠwÃ¼rde": 1957,
      "frac": 1958,
      "lieÃŁlich": 1959,
      "gorith": 1960,
      "agen": 1961,
      "iness": 1962,
      "iet": 1963,
      "ichten": 1964,
      "ĠStel": 1965,
      "Ġform": 1966,
      "usst": 1967,
      "ĠWelt": 1968,
      "åı£": 1969,
      "ett": 1970,
      "åĬŁ": 1971,
      "ç»Ħ": 1972,
      "aking": 1973,
      "éĩĮ": 1974,
      "æĢ»": 1975,
      "çº¿": 1976,
      "ç´¢": 1977,
      "velop": 1978,
      "ĠBeispiel": 1979,
      "Als": 1980,
      "æĻºèĥ½": 1981,
      "):": 1982,
      "Des": 1983,
      "ade": 1984,
      "}{": 1985,
      "èİ": 1986,
      "Ġ}": 1987,
      "Ġsol": 1988,
      "Ġsow": 1989,
      "Ġbel": 1990,
      "teil": 1991,
      "Ġeinfach": 1992,
      "ĠIhr": 1993,
      "å®ī": 1994,
      "æĸŃ": 1995,
      "èĥ½æºĲ": 1996,
      "ahre": 1997,
      "å¼º": 1998,
      "å¯¼": 1999,
      "æĢģ": 2000,
      "Ġexp": 2001,
      "åĳĺ": 2002,
      "æĮĩ": 2003,
      "Ġverbess": 2004,
      "KÃ¶n": 2005,
      "oy": 2006,
      "inder": 2007,
      "Ġaut": 2008,
      "Ġvoll": 2009,
      "ĠEx": 2010,
      "ower": 2011,
      "ä¹Ī": 2012,
      "éĢī": 2013,
      "ife": 2014,
      "000": 2015,
      "âĢĿ": 2016,
      "Ġeng": 2017,
      "ommun": 2018,
      "ize": 2019,
      "æ¡": 2020,
      "èº": 2021,
      "Ġx": 2022,
      "tieren": 2023,
      "Ġvis": 2024,
      "deut": 2025,
      "Ġkn": 2026,
      "ehl": 2027,
      "è¯Ŀ": 2028,
      "è®º": 2029,
      "åĩĨ": 2030,
      "çĶŁæ´»": 2031,
      "Ã¤hlen": 2032,
      "æŃ£": 2033,
      "æ¸ħ": 2034,
      "å±ķ": 2035,
      "Ġzwei": 2036,
      "Ġverschiedene": 2037,
      "Ã¼ssen": 2038,
      "ĠprÃ¤z": 2039,
      "Ex": 2040,
      "osten": 2041,
      "ç¦": 2042,
      "èĭ": 2043,
      "chten": 2044,
      "lex": 2045,
      "legen": 2046,
      "Ġviele": 2047,
      "ĠWir": 2048,
      "ischer": 2049,
      "æľŁ": 2050,
      "éĢĤ": 2051,
      "æĹ¥": 2052,
      "å¹³": 2053,
      "rÃ¼ck": 2054,
      "ç«ł": 2055,
      "æĸĩç«ł": 2056,
      "æ¯ı": 2057,
      "å¢ĥ": 2058,
      "åīį": 2059,
      "èº«": 2060,
      "çģ": 2061,
      "èĻ": 2062,
      "ald": 2063,
      "als": 2064,
      "alth": 2065,
      "ĠFreund": 2066,
      "ĠHe": 2067,
      "ience": 2068,
      "Ġhabe": 2069,
      "æŀĦ": 2070,
      "Ġone": 2071,
      "Ġprovide": 2072,
      "reiben": 2073,
      "éģĵ": 2074,
      "Ġdiff": 2075,
      "åı¥åŃĲ": 2076,
      "\",": 2077,
      "ider": 2078,
      "å£": 2079,
      "æ»": 2080,
      "ç¼": 2081,
      "unst": 2082,
      "leisch": 2083,
      "ï¼Ł": 2084,
      "til": 2085,
      "Ġanzu": 2086,
      "Ã¶s": 2087,
      "Ġbeen": 2088,
      "ĠMar": 2089,
      "igh": 2090,
      "amm": 2091,
      "ruktur": 2092,
      "å¹¿": 2093,
      "Ġexper": 2094,
      "æİ¨": 2095,
      "Ġtechnolog": 2096,
      "æĹ¶éĹ´": 2097,
      "Ġbietet": 2098,
      "Ġfinden": 2099,
      "stellung": 2100,
      "è°ĥ": 2101,
      "åĢ¼": 2102,
      ").": 2103,
      "//": 2104,
      "line": 2105,
      "ma": 2106,
      "ç²": 2107,
      "ink": 2108,
      "ines": 2109,
      "onder": 2110,
      "einen": 2111,
      "Ġsel": 2112,
      "ĠAI": 2113,
      "Ġover": 2114,
      "Ġerhalten": 2115,
      "ows": 2116,
      "å¤į": 2117,
      "éĢł": 2118,
      "å¸¦": 2119,
      "æ³¨": 2120,
      "è½¦": 2121,
      "ç¤º": 2122,
      "ç´ł": 2123,
      "éĶĢ": 2124,
      "åģ¥": 2125,
      "æĬĢæľ¯": 2126,
      "Ġdecision": 2127,
      "æľºåĻ¨äºº": 2128,
      "çİ¯å¢ĥ": 2129,
      "Ġreturn": 2130,
      "19": 2131,
      "rat": 2132,
      "åķ": 2133,
      "çĮ": 2134,
      "Ġ#": 2135,
      "Ġdis": 2136,
      "itte": 2137,
      "Ġfe": 2138,
      "Ġmin": 2139,
      "ĠmÃ¼ssen": 2140,
      "Ġph": 2141,
      "Ġpl": 2142,
      "Ġif": 2143,
      "usiness": 2144,
      "ĠFor": 2145,
      "ĠKn": 2146,
      "åıĹ": 2147,
      "åŃĺ": 2148,
      "å°±": 2149,
      "æł¼": 2150,
      "Ġdarin": 2151,
      "èĢħ": 2152,
      "Ġenerg": 2153,
      "åİ»": 2154,
      "èµ·": 2155,
      "ving": 2156,
      "è¨": 2157,
      "ĠSeit": 2158,
      "Ġihn": 2159,
      "old": 2160,
      "Ġgo": 2161,
      "ents": 2162,
      "ĠMus": 2163,
      "è¿ĺ": 2164,
      "annt": 2165,
      "twick": 2166,
      "ä¹ī": 2167,
      "ĠUS": 2168,
      "ĠSchrit": 2169,
      "imm": 2170,
      "äººç±»": 2171,
      "åĽ¾": 2172,
      "æīĭ": 2173,
      "ify": 2174,
      "å¦Ĥæŀľ": 2175,
      "Ġimpro": 2176,
      "ious": 2177,
      "Schritt": 2178,
      "ĠZusammen": 2179,
      "gorithm": 2180,
      "ens": 2181,
      "Ġmeine": 2182,
      "Ġmark": 2183,
      "zustellen": 2184,
      "Ġval": 2185,
      "Ġihren": 2186,
      "ĠWasser": 2187,
      "æľį": 2188,
      "çĶ±": 2189,
      "iste": 2190,
      "åĪ«": 2191,
      "åĪĻ": 2192,
      "æĺİ": 2193,
      "è®¸": 2194,
      "å¸Ĥ": 2195,
      "æĬ¤": 2196,
      "nisse": 2197,
      "æĺ¯ä¸Ģç§į": 2198,
      "ĠStelle": 2199,
      "Der": 2200,
      "Was": 2201,
      "ld": 2202,
      "lle": 2203,
      "çĪ": 2204,
      "ĠĊ": 2205,
      "Ã¤d": 2206,
      "Ġve": 2207,
      "Ġpe": 2208,
      "ĠBet": 2209,
      "ĠDen": 2210,
      "ĠKunst": 2211,
      "ters": 2212,
      "Ġerne": 2213,
      "Ġerstellen": 2214,
      "istor": 2215,
      "ä¸ĢäºĽ": 2216,
      "ĠCo": 2217,
      "ĠNe": 2218,
      "æĺ¯ä¸Ģä¸ª": 2219,
      "ĠBedeut": 2220,
      "Ġexam": 2221,
      "ĠTeig": 2222,
      "Ġchar": 2223,
      "Ġwork": 2224,
      "ganis": 2225,
      "gramm": 2226,
      "Dies": 2227,
      "__": 2228,
      "ect": 2229,
      "nt": 2230,
      "ugen": 2231,
      "vie": 2232,
      "Ġtwo": 2233,
      "ath": 2234,
      "ans": 2235,
      "ĠAchte": 2236,
      "Ġperson": 2237,
      "ĠTra": 2238,
      "ĠTour": 2239,
      "ĠFilm": 2240,
      "ĠGes": 2241,
      "esser": 2242,
      "æķ´": 2243,
      "Ġapplic": 2244,
      "ĠBew": 2245,
      "ĠProble": 2246,
      "å¾Ī": 2247,
      "æĭ©": 2248,
      "Ġbestimm": 2249,
      "Ġcount": 2250,
      "æ¬¡": 2251,
      "right": 2252,
      "atÃ¼rlich": 2253,
      "è¾ĵåħ¥": 2254,
      "lude": 2255,
      "å®¢æĪ·": 2256,
      "éĿŀå¸¸": 2257,
      ");": 2258,
      "los": 2259,
      "yth": 2260,
      "çĥ": 2261,
      "ited": 2262,
      "Ġthey": 2263,
      "Ġpri": 2264,
      "ĠBes": 2265,
      "ĠIhnen": 2266,
      "ĠMe": 2267,
      "Ġlik": 2268,
      "è¯´": 2269,
      "adt": 2270,
      "æŀĲ": 2271,
      "çİĭ": 2272,
      "æĶ¶": 2273,
      "è§£åĨ³": 2274,
      "Ġempf": 2275,
      "ĊĠĠĠĠĠĠĠĠĠĠĠ": 2276,
      "éĢīæĭ©": 2277,
      "Ja": 2278,
      "bot": 2279,
      "èı": 2280,
      "Ġ9": 2281,
      "itu": 2282,
      "oren": 2283,
      "Ġgleich": 2284,
      "ĠMon": 2285,
      "ĠRolle": 2286,
      "amp": 2287,
      "Ġalgorithm": 2288,
      "å¤ĩ": 2289,
      "ĠZw": 2290,
      "akt": 2291,
      "åº·": 2292,
      "Ġhealth": 2293,
      "ugh": 2294,
      "ĠGeb": 2295,
      "Ġpaar": 2296,
      "æıĲé«ĺ": 2297,
      "åĪĨæŀĲ": 2298,
      "åħ¶ä»ĸ": 2299,
      "å¥½çļĦ": 2300,
      "rateg": 2301,
      "ĠBedeutung": 2302,
      "ball": 2303,
      "èĥ": 2304,
      "rechen": 2305,
      "unde": 2306,
      "ission": 2307,
      "ĠSal": 2308,
      "Ġfre": 2309,
      "Ã¼ss": 2310,
      "ä¸ĸçķ": 2311,
      "tik": 2312,
      "gend": 2313,
      "Ġpass": 2314,
      "ric": 2315,
      "åıĬ": 2316,
      "ices": 2317,
      "ĠLand": 2318,
      "Ġstud": 2319,
      "ä½ķ": 2320,
      "Ġgeb": 2321,
      "ĠZit": 2322,
      "Ġ15": 2323,
      "ĠNo": 2324,
      "ĠVerwen": 2325,
      "ends": 2326,
      "ä¼ł": 2327,
      "Ġseiner": 2328,
      "ersÃ¶n": 2329,
      "Ġgener": 2330,
      "è¿ĻäºĽ": 2331,
      "é¢Ĩ": 2332,
      "Ġwaren": 2333,
      "ause": 2334,
      "ized": 2335,
      "ments": 2336,
      "éĢļå¸¸": 2337,
      "âĢĻ": 2338,
      "æĽ´å¤ļ": 2339,
      "ismus": 2340,
      "nahmen": 2341,
      "ipps": 2342,
      "å§ĭ": 2343,
      "åģ¥åº·": 2344,
      "ä¸ĸçķĮ": 2345,
      "),": 2346,
      "low": 2347,
      "net": 2348,
      "Ġdam": 2349,
      "ong": 2350,
      "Ġtime": 2351,
      "Ã¼h": 2352,
      "aly": 2353,
      "ĠzusÃ¤tz": 2354,
      "Ġplan": 2355,
      "Ġlo": 2356,
      "ĠverlÃ¤ss": 2357,
      "åħ±": 2358,
      "acht": 2359,
      "æĺŁ": 2360,
      "äººå·¥": 2361,
      "è§Ĩ": 2362,
      "æł·": 2363,
      "lagen": 2364,
      "ĠText": 2365,
      "æµ·": 2366,
      "rank": 2367,
      "reichen": 2368,
      "è´¨": 2369,
      "æĸ¹å¼ı": 2370,
      "ĠfÃ¼hren": 2371,
      "å»ºè®®": 2372,
      "Ġfolgen": 2373,
      "Ġverbessern": 2374,
      "è¨Ģ": 2375,
      "aum": 2376,
      "hin": 2377,
      "ire": 2378,
      "ues": 2379,
      "ven": 2380,
      "åĿ": 2381,
      "é¥": 2382,
      "Ġ`": 2383,
      "Ġra": 2384,
      "eing": 2385,
      "leit": 2386,
      "Ġbin": 2387,
      "tial": 2388,
      "gem": 2389,
      "ĠBib": 2390,
      "ĠBack": 2391,
      "Ġhier": 2392,
      "rix": 2393,
      "Ġbevor": 2394,
      "Ġgood": 2395,
      "ĠFleisch": 2396,
      "ĠPerson": 2397,
      "ĠHo": 2398,
      "äººä»¬": 2399,
      "ä¼ĺ": 2400,
      "Ġdiesen": 2401,
      "æłĳ": 2402,
      "è¿ĩç¨ĭ": 2403,
      "Ġcould": 2404,
      "Ġkonn": 2405,
      "Ġwebsite": 2406,
      "Ġwurden": 2407,
      "æĥ³": 2408,
      "ç«ĭ": 2409,
      "å¼Ģåıĳ": 2410,
      "trauen": 2411,
      "éĤ£": 2412,
      "ĠgroÃŁar": 2413,
      "èİ·": 2414,
      "ĠSchritte": 2415,
      "ĠverlÃ¤sslichen": 2416,
      "Pro": 2417,
      "aut": 2418,
      "app": 2419,
      "affen": 2420,
      "bt": 2421,
      "cial": 2422,
      "ften": 2423,
      "richt": 2424,
      "wor": 2425,
      "yn": 2426,
      "çĹ": 2427,
      "Ġze": 2428,
      "erst": 2429,
      "sta": 2430,
      "Ġtran": 2431,
      "ases": 2432,
      "ĠSym": 2433,
      "Ġfr": 2434,
      "ĠBl": 2435,
      "Ġclass": 2436,
      "Ġke": 2437,
      "ries": 2438,
      "sche": 2439,
      "ĠAnzahl": 2440,
      "ĠAntwort": 2441,
      "vers": 2442,
      "Ġdieses": 2443,
      "åĨĻ": 2444,
      "Ã¤hrle": 2445,
      "ĠReg": 2446,
      "æĢĿ": 2447,
      "Ġwho": 2448,
      "æıı": 2449,
      "aufgabe": 2450,
      "ç®Ģ": 2451,
      "çĲĥ": 2452,
      "Ġimport": 2453,
      "gestell": 2454,
      "åĪĹè¡¨": 2455,
      "zieh": 2456,
      "ĠHauptaufgabe": 2457,
      "Ġenergy": 2458,
      "Ein": 2459,
      "kommen": 2460,
      "æ®": 2461,
      "Ġ<": 2462,
      "inter": 2463,
      "ities": 2464,
      "isk": 2465,
      "asst": 2466,
      "gew": 2467,
      "Ġhand": 2468,
      "ĠTipps": 2469,
      "riff": 2470,
      "Ã¶st": 2471,
      "Ġbede": 2472,
      "Ġnie": 2473,
      "ä»·": 2474,
      "ĠFÃ¤higkeit": 2475,
      "ĠGed": 2476,
      "ĠPf": 2477,
      "ckt": 2478,
      "ischung": 2479,
      "å®Į": 2480,
      "åħĪ": 2481,
      "Ġstat": 2482,
      "Ġgegen": 2483,
      "Ġ18": 2484,
      "indung": 2485,
      "åĲĦ": 2486,
      "Ġwirk": 2487,
      "Ġcons": 2488,
      "ä¾¿": 2489,
      "zens": 2490,
      "ĠdarÃ¼ber": 2491,
      "æŃ¥": 2492,
      "åİĨ": 2493,
      "Ġinclude": 2494,
      "Ġperf": 2495,
      "å·¥ä½ľ": 2496,
      "æ´»åĬ¨": 2497,
      "telligen": 2498,
      "ĊĠĠĠĠĠĠĠĠĠĠĠĠ": 2499,
      "ombin": 2500,
      "ä¾ĭå¦Ĥ": 2501,
      "æ·±": 2502,
      "Ġbesteht": 2503,
      "Ġerneuer": 2504,
      "ĠZitron": 2505,
      "Er": 2506,
      "Es": 2507,
      "Name": 2508,
      "NatÃ¼rlich": 2509,
      "aff": 2510,
      "erm": 2511,
      "Ġset": 2512,
      "led": 2513,
      "ĠSk": 2514,
      "arch": 2515,
      "Ã¤m": 2516,
      "ĠAsp": 2517,
      "Ġhum": 2518,
      "ĠFe": 2519,
      "ĠFl": 2520,
      "ĠPar": 2521,
      "Ġgeh": 2522,
      "åľº": 2523,
      "ç»´": 2524,
      "ĠStadt": 2525,
      "ĠErfahr": 2526,
      "è§Ħ": 2527,
      "çĶŁæĪĲ": 2528,
      "å·±": 2529,
      "Ġyear": 2530,
      "ĠEnt": 2531,
      "ĠEntwick": 2532,
      "è½¯": 2533,
      "èĩªå·±": 2534,
      "åĨħå®¹": 2535,
      "ç¥ŀ": 2536,
      "50": 2537,
      "aur": 2538,
      "fit": 2539,
      "fte": 2540,
      "lient": 2541,
      "ution": 2542,
      "Ģä¹Ī": 2543,
      "esen": 2544,
      "Ġback": 2545,
      "ä¸ī": 2546,
      "Ġmod": 2547,
      "Ã¤ll": 2548,
      "tent": 2549,
      "Ġvom": 2550,
      "Ġpar": 2551,
      "Ġhis": 2552,
      "ragen": 2553,
      "ä»Ģä¹Ī": 2554,
      "ĠMed": 2555,
      "åı¸": 2556,
      "Ġlassen": 2557,
      "èĥ½åĬĽ": 2558,
      "ç§ĳ": 2559,
      "redic": 2560,
      "Ġusing": 2561,
      "åĳĬ": 2562,
      "èĩ´": 2563,
      "éĺ³": 2564,
      "æ¸©": 2565,
      "rint": 2566,
      "Ġzwischen": 2567,
      "ç¡®å®ļ": 2568,
      "é¦ĸ": 2569,
      "è®¾è®¡": 2570,
      "ĠMinuten": 2571,
      "Ġspezif": 2572,
      "KÃ¶nnen": 2573,
      "äººå·¥æĻºèĥ½": 2574,
      "cul": 2575,
      "Ġdann": 2576,
      "Ġbre": 2577,
      "ä¸Ķ": 2578,
      "tiert": 2579,
      "alitÃ¤t": 2580,
      "round": 2581,
      "Ġkomp": 2582,
      "Ġbec": 2583,
      "Ġbeein": 2584,
      "Ġbegin": 2585,
      "ĠnatÃ¼r": 2586,
      "ĠFamil": 2587,
      "åıª": 2588,
      "Ġverst": 2589,
      "ication": 2590,
      "ĠLÃ¤n": 2591,
      "ĠVerwendung": 2592,
      "æķħ": 2593,
      "ä¹Ĳ": 2594,
      "Ġletz": 2595,
      "ĠArbeit": 2596,
      "åĬ¨çī©": 2597,
      "ç®¡": 2598,
      "Ġaccur": 2599,
      "åĽłä¸º": 2600,
      "Ã¶ffel": 2601,
      "Ġjedoch": 2602,
      "Ġlearning": 2603,
      "ĠvollstÃ¤nd": 2604,
      "æııè¿°": 2605,
      "\".": 2606,
      "act": 2607,
      "bl": 2608,
      "druck": 2609,
      "fter": 2610,
      "glie": 2611,
      "hand": 2612,
      "ochen": 2613,
      "prÃ¼": 2614,
      "zieren": 2615,
      "è±": 2616,
      "itz": 2617,
      "Ġsehen": 2618,
      "arten": 2619,
      "Ġmain": 2620,
      "aler": 2621,
      "ĠBed": 2622,
      "Ġide": 2623,
      "Ġbef": 2624,
      "Ġbeg": 2625,
      "Ġbeim": 2626,
      "ä»»": 2627,
      "ĠKÃ¶n": 2628,
      "ĠKrÃ¤": 2629,
      "Ġerh": 2630,
      "å¤ª": 2631,
      "ĠLin": 2632,
      "Ġget": 2633,
      "Ġgegeben": 2634,
      "auce": 2635,
      "ç»Ń": 2636,
      "ulti": 2637,
      "è¯»": 2638,
      "è¯Ĩ": 2639,
      "ĠOne": 2640,
      "éĩĬ": 2641,
      "Ġdiesem": 2642,
      "iken": 2643,
      "Ġneue": 2644,
      "æķ°åŃĹ": 2645,
      "åĳ³": 2646,
      "ĠÃĦ": 2647,
      "åĵį": 2648,
      "Ã¤lt": 2649,
      "schied": 2650,
      "Ġ201": 2651,
      "åºĶçĶ¨ç¨ĭåºı": 2652,
      "æµĭè¯ķ": 2653,
      "Ġwould": 2654,
      "ç¤¾äº¤": 2655,
      "å®īåħ¨": 2656,
      "è½¯ä»¶": 2657,
      "AI": 2658,
      "She": 2659,
      "Um": 2660,
      "man": 2661,
      "ous": 2662,
      "son": 2663,
      "åĶ": 2664,
      "çĭ": 2665,
      "èį": 2666,
      "Ġsk": 2667,
      "arte": 2668,
      "Ġpat": 2669,
      "Ã¶ÃŁ": 2670,
      "Ġbetwe": 2671,
      "ĠEine": 2672,
      "ĠWahr": 2673,
      "ĠFahr": 2674,
      "etail": 2675,
      "igar": 2676,
      "schlieÃŁlich": 2677,
      "Ġerk": 2678,
      "ics": 2679,
      "Ġhast": 2680,
      "è§Ĥ": 2681,
      "æŀĹ": 2682,
      "Ġwhile": 2683,
      "Ġcost": 2684,
      "ç«Ļ": 2685,
      "ä¿ĿæĬ¤": 2686,
      "èµĦ": 2687,
      "Ġquick": 2688,
      "Ã¶ffent": 2689,
      "å½±åĵį": 2690,
      "uÃŁer": 2691,
      "éļı": 2692,
      "ä¸¤ä¸ª": 2693,
      "åĬŁèĥ½": 2694,
      "Ġsowie": 2695,
      "Explain": 2696,
      "ç¦»": 2697,
      "åķĨ": 2698,
      "Ġbetween": 2699,
      "gesch": 2700,
      "ption": 2701,
      "rand": 2702,
      "çĬ": 2703,
      "èĪ": 2704,
      "Ġend": 2705,
      "inn": 2706,
      "essen": 2707,
      "Ġsor": 2708,
      "Ġshe": 2709,
      "Ġsome": 2710,
      "Ġbest": 2711,
      "Ġbesch": 2712,
      "Ġfest": 2713,
      "Ã¤t": 2714,
      "ĠAll": 2715,
      "utaten": 2716,
      "ĠWissen": 2717,
      "ĠKannst": 2718,
      "åıĤ": 2719,
      "eth": 2720,
      "Ġoft": 2721,
      "Ġeigen": 2722,
      "ĠStruktur": 2723,
      "ĠVeran": 2724,
      "ĠSchl": 2725,
      "Ġschn": 2726,
      "åĨį": 2727,
      "ople": 2728,
      "halte": 2729,
      "lock": 2730,
      "Ġwhat": 2731,
      "ervice": 2732,
      "è¾¾": 2733,
      "æĸ¹æ³ķ": 2734,
      "Ġinformation": 2735,
      "gesamt": 2736,
      "ublic": 2737,
      "ringen": 2738,
      "åģļ": 2739,
      "chnologie": 2740,
      "è¯Ńè¨Ģ": 2741,
      "grund": 2742,
      "Ġverschiedenen": 2743,
      "ĠBeispiele": 2744,
      "åĪ©çĶ¨": 2745,
      "é©¬": 2746,
      "Ġfaktenbasierten": 2747,
      "èĲ¥": 2748,
      "æ»¡": 2749,
      "Ġselbst": 2750,
      "è®¸å¤ļ": 2751,
      "Sh": 2752,
      "Wie": 2753,
      "ai": 2754,
      "cing": 2755,
      "ium": 2756,
      "ost": 2757,
      "swÃ¼r": 2758,
      "ved": 2759,
      "åª": 2760,
      "èĦ": 2761,
      "Ġsec": 2762,
      "ish": 2763,
      "Ġbo": 2764,
      "ased": 2765,
      "Ġmy": 2766,
      "ĠIde": 2767,
      "Ġgreat": 2768,
      "ĠWein": 2769,
      "ierten": 2770,
      "ĠGra": 2771,
      "ĠPl": 2772,
      "åıĸ": 2773,
      "ically": 2774,
      "Ġstrateg": 2775,
      "ĠZug": 2776,
      "æĺĵ": 2777,
      "åĽ¢": 2778,
      "dust": 2779,
      "Ġdevelop": 2780,
      "opf": 2781,
      "åĮº": 2782,
      "Ġentwick": 2783,
      "Ġorder": 2784,
      "itÃ¤ten": 2785,
      "Ġ50": 2786,
      "Ġpoten": 2787,
      "ä¿ĿæĮģ": 2788,
      "ava": 2789,
      "èģĮ": 2790,
      "ĠZucker": 2791,
      "ç½ĳç«Ļ": 2792,
      "éªĮ": 2793,
      "Ġeinzigar": 2794,
      "æī¾åĪ°": 2795,
      "..": 2796,
      "25": 2797,
      "hÃ¤ng": 2798,
      "kehr": 2799,
      "llen": 2800,
      "nÃ¤hr": 2801,
      "ock": 2802,
      "ves": 2803,
      "Â·": 2804,
      "èĮ": 2805,
      "é¸": 2806,
      "erung": 2807,
      "cher": 2808,
      "ont": 2809,
      "aren": 2810,
      "Ġpol": 2811,
      "urz": 2812,
      "äºĴ": 2813,
      "Ġnot": 2814,
      "Ġthan": 2815,
      "ĠGo": 2816,
      "eting": 2817,
      "Ġverlei": 2818,
      "schw": 2819,
      "Ġerz": 2820,
      "rust": 2821,
      "ĠListe": 2822,
      "ehlen": 2823,
      "ĠStud": 2824,
      "ichts": 2825,
      "imp": 2826,
      "Ġneg": 2827,
      "Ã¶ren": 2828,
      "èĢĥ": 2829,
      "Ġteil": 2830,
      "ĠgroÃŁe": 2831,
      "Ġdeiner": 2832,
      "ç½®": 2833,
      "ĠChar": 2834,
      "é£İ": 2835,
      "çĽ®æłĩ": 2836,
      "ĠOptionen": 2837,
      "ĠgrÃ¶ÃŁ": 2838,
      "ĠAktiv": 2839,
      "ç©º": 2840,
      "é¢Ħæµĭ": 2841,
      "ĠMusik": 2842,
      "æľįåĬ¡": 2843,
      "Ġpeople": 2844,
      "Ġkonnte": 2845,
      "æ®µ": 2846,
      "åªĴ": 2847,
      "AP": 2848,
      "cy": 2849,
      "gest": 2850,
      "iden": 2851,
      "zent": 2852,
      "æĲ": 2853,
      "ieg": 2854,
      "onnen": 2855,
      "stoff": 2856,
      "Ġsu": 2857,
      "reis": 2858,
      "Ġwert": 2859,
      "Ġway": 2860,
      "tem": 2861,
      "Ã¤g": 2862,
      "Ã¤uf": 2863,
      "alys": 2864,
      "Ġcreat": 2865,
      "Ġcreate": 2866,
      "ierter": 2867,
      "ĠMark": 2868,
      "ĠGel": 2869,
      "ĠPh": 2870,
      "iron": 2871,
      "è¯Ħ": 2872,
      "Ġ11": 2873,
      "è®¤": 2874,
      "è®°": 2875,
      "Ġabzu": 2876,
      "ä¸įæĸŃ": 2877,
      "Ã¤hl": 2878,
      "Ġuse": 2879,
      "izieren": 2880,
      "æĭ¥": 2881,
      "å¦Ĥä½ķ": 2882,
      "éĺŁ": 2883,
      "ĠAls": 2884,
      "ĠgewÃ¤hrle": 2885,
      "ä¸»è¦ģ": 2886,
      "ultur": 2887,
      "åĪĽå»º": 2888,
      "ĠKlim": 2889,
      "æ£®": 2890,
      "ĠAddition": 2891,
      "ĠEnergie": 2892,
      "Ġelect": 2893,
      "Ġnumber": 2894,
      "Ġtechnology": 2895,
      "ython": 2896,
      "Ġlike": 2897,
      "èıľ": 2898,
      "Ġdamit": 2899,
      "çĹħ": 2900,
      "Ġhuman": 2901,
      "bol": 2902,
      "é»": 2903,
      "Ġdig": 2904,
      "itel": 2905,
      "Ġbut": 2906,
      "Ġbitte": 2907,
      "Ġind": 2908,
      "Ġcal": 2909,
      "Ġgest": 2910,
      "ĠFall": 2911,
      "ĠGr": 2912,
      "ĠGro": 2913,
      "amen": 2914,
      "own": 2915,
      "Ġstellen": 2916,
      "akter": 2917,
      "vert": 2918,
      "ogn": 2919,
      "Ġlead": 2920,
      "Ġ200": 2921,
      "Ġday": 2922,
      "Ġtext": 2923,
      "å¤§çļĦ": 2924,
      "ativen": 2925,
      "ects": 2926,
      "åĲĮæĹ¶": 2927,
      "asierend": 2928,
      "forder": 2929,
      "Ġdire": 2930,
      "Ġaccess": 2931,
      "æŁ¥": 2932,
      "Ġgemein": 2933,
      "å¿«éĢŁ": 2934,
      "éĽĨ": 2935,
      "Ġautom": 2936,
      "æ¡Ī": 2937,
      "ĠprÃ¤zise": 2938,
      "åĽ¢éĺŁ": 2939,
      "åªĴä½ĵ": 2940,
      "ĠAdditionally": 2941,
      "ais": 2942,
      "eich": 2943,
      "ian": 2944,
      "å¡": 2945,
      "Ġac": 2946,
      "ster": 2947,
      "Ã¼se": 2948,
      "Ġmil": 2949,
      "alle": 2950,
      "Ġthem": 2951,
      "ĠBem": 2952,
      "ĠButter": 2953,
      "Ġhow": 2954,
      "rieren": 2955,
      "Ġgel": 2956,
      "Ġlar": 2957,
      "ĠHa": 2958,
      "æľª": 2959,
      "Ġerle": 2960,
      "icial": 2961,
      "ĠLes": 2962,
      "Ġstory": 2963,
      "verlÃ¤ss": 2964,
      "å¸ĥ": 2965,
      "ible": 2966,
      "cribe": 2967,
      "åĨµ": 2968,
      "ĠReze": 2969,
      "fÃ¼hl": 2970,
      "å·²": 2971,
      "æµİ": 2972,
      "Ġmost": 2973,
      "çŃĸ": 2974,
      "éľĢæ±Ĥ": 2975,
      "è½¬": 2976,
      "ç»ıæµİ": 2977,
      "wertung": 2978,
      "æ¬¢": 2979,
      "lauch": 2980,
      "ĠOrganis": 2981,
      "ability": 2982,
      "Ġwords": 2983,
      "Describe": 2984,
      "ĠZusammenarbeit": 2985,
      "ĠSalz": 2986,
      "Ġwirklich": 2987,
      "ĠAspekte": 2988,
      "ĠgewÃ¤hrleisten": 2989,
      "æ£®æŀĹ": 2990,
      "Te": 2991,
      "min": 2992,
      "test": 2993,
      "ux": 2994,
      "Ġ//": 2995,
      "Ġdra": 2996,
      "stalt": 2997,
      "Ġwichtig": 2998,
      "lemen": 2999,
      "Ġmaking": 3000,
      "allen": 3001,
      "tens": 3002,
      "rough": 3003,
      "Ġhistor": 3004,
      "ĠDetail": 3005,
      "ĠTasse": 3006,
      "raft": 3007,
      "ĠWie": 3008,
      "Ġthere": 3009,
      "æľĽ": 3010,
      "rupp": 3011,
      "åĪĴ": 3012,
      "Ġdenen": 3013,
      "æĸ¯": 3014,
      "Ġschw": 3015,
      "æĹħ": 3016,
      "ertain": 3017,
      "ä¿ĥ": 3018,
      "åį³": 3019,
      "çİĩ": 3020,
      "illion": 3021,
      "åºĶè¯¥": 3022,
      "ccess": 3023,
      "å¼Ģå§ĭ": 3024,
      "forderungen": 3025,
      "ĠWebsite": 3026,
      "zeichen": 3027,
      "åħĥç´ł": 3028,
      "Ġengag": 3029,
      "ç²¾": 3030,
      "Ġexample": 3031,
      "ĠZitronen": 3032,
      "Ġschnell": 3033,
      "Write": 3034,
      "What": 3035,
      "fÃ¼r": 3036,
      "fort": 3037,
      "ration": 3038,
      "sichtig": 3039,
      "tin": 3040,
      "tter": 3041,
      "åĭ": 3042,
      "ĠY": 3043,
      "Ġakt": 3044,
      "unkt": 3045,
      "atch": 3046,
      "Ġsign": 3047,
      "Ġwell": 3048,
      "Ġbook": 3049,
      "Ġbusiness": 3050,
      "ĠSuch": 3051,
      "Ã¤ÃŁ": 3052,
      "ĠBel": 3053,
      "Ġclo": 3054,
      "Ġcommun": 3055,
      "Ġidentif": 3056,
      "äº«": 3057,
      "rache": 3058,
      "Ġgan": 3059,
      "Ġglob": 3060,
      "ĠForm": 3061,
      "ĠKultur": 3062,
      "igt": 3063,
      "Ġoff": 3064,
      "ĠverfÃ¼": 3065,
      "Ġvertrauen": 3066,
      "zeug": 3067,
      "ĠUhr": 3068,
      "ogle": 3069,
      "Ġleben": 3070,
      "ĠJe": 3071,
      "ĠErd": 3072,
      "ĠErnÃ¤hr": 3073,
      "opul": 3074,
      "timmen": 3075,
      "è½»": 3076,
      "Ġjeden": 3077,
      "Ġworld": 3078,
      "éĻį": 3079,
      "åħ³äºİ": 3080,
      "ä¹ĭéĹ´": 3081,
      "setzen": 3082,
      "èģĶ": 3083,
      "Ġadv": 3084,
      "åħ¬åı¸": 3085,
      "String": 3086,
      "Ġreduce": 3087,
      "ä¸įåĲĮçļĦ": 3088,
      "wirk": 3089,
      "Ġwelche": 3090,
      "å¯¼èĩ´": 3091,
      "å¤ªéĺ³": 3092,
      "Shir": 3093,
      "af": 3094,
      "cen": 3095,
      "kon": 3096,
      "ling": 3097,
      "such": 3098,
      "wahl": 3099,
      "æ¼": 3100,
      "ç¢": 3101,
      "ernen": 3102,
      "inner": 3103,
      "Ġdet": 3104,
      "Ġtief": 3105,
      "orts": 3106,
      "Ġbra": 3107,
      "ĠBer": 3108,
      "usste": 3109,
      "ĠEm": 3110,
      "Ġgra": 3111,
      "ĠKinder": 3112,
      "åı·": 3113,
      "etzt": 3114,
      "ĠViel": 3115,
      "ational": 3116,
      "Ġstark": 3117,
      "Ġstehen": 3118,
      "Ġext": 3119,
      "ielt": 3120,
      "ä¸ªäºº": 3121,
      "Ġauszu": 3122,
      "æĿĥ": 3123,
      "Ġcontent": 3124,
      "eiden": 3125,
      "othe": 3126,
      "çīĩ": 3127,
      "ĠThema": 3128,
      "åįĩ": 3129,
      "çĽ´": 3130,
      "ĠTeil": 3131,
      "Ã¤hn": 3132,
      "Ġentsch": 3133,
      "Ġentsp": 3134,
      "æĶ¿": 3135,
      "lieÃŁen": 3136,
      "è´¹": 3137,
      "ective": 3138,
      "ĠEssen": 3139,
      "folg": 3140,
      "ĠfÃ¼hr": 3141,
      "æīĢæľī": 3142,
      "ç®Ĺæ³ķ": 3143,
      "åĽłæŃ¤": 3144,
      "ĠUnterhalt": 3145,
      "åŁº": 3146,
      "åŁŁ": 3147,
      "é¡¹": 3148,
      "ĠGemÃ¼se": 3149,
      "æ£Ģ": 3150,
      "ç¬¦": 3151,
      "Ġservice": 3152,
      "å¤ĦçĲĨ": 3153,
      "Ġincrease": 3154,
      "ĠEnergien": 3155,
      "Ġliegt": 3156,
      "å¸¦æĿ¥": 3157,
      "çĪ±": 3158,
      "Ġpersonal": 3159,
      "Ã¼ssel": 3160,
      "leitung": 3161,
      "èİ·å¾Ĺ": 3162,
      "ĠEntwicklung": 3163,
      "æķħäºĭ": 3164,
      "Ġgemeinsam": 3165,
      "bare": 3166,
      "ftw": 3167,
      "lar": 3168,
      "lud": 3169,
      "ole": 3170,
      "viron": 3171,
      "¤Ĳ": 3172,
      "æĴ": 3173,
      "éĵ": 3174,
      "Ġ|": 3175,
      "ins": 3176,
      "ature": 3177,
      "Ġser": 3178,
      "Ġsom": 3179,
      "Ġsehr": 3180,
      "Ġwen": 3181,
      "ĠSm": 3182,
      "Ġfo": 3183,
      "Ġfri": 3184,
      "Ġintern": 3185,
      "arm": 3186,
      "Ġmulti": 3187,
      "Ã¤u": 3188,
      "ĠAt": 3189,
      "çļĦäºº": 3190,
      "Ġpla": 3191,
      "ingt": 3192,
      "ĠTre": 3193,
      "rik": 3194,
      "racht": 3195,
      "ĠWei": 3196,
      "ä»½": 3197,
      "Ġlook": 3198,
      "Ġreg": 3199,
      "Ã¼rf": 3200,
      "ams": 3201,
      "Ġerw": 3202,
      "åħį": 3203,
      "Ġeach": 3204,
      "ĠString": 3205,
      "ucher": 3206,
      "åĲ¸": 3207,
      "zeugen": 3208,
      "ĠSchritt": 3209,
      "ahne": 3210,
      "ĠBegin": 3211,
      "otos": 3212,
      "ĠUnited": 3213,
      "å¯¹äºİ": 3214,
      "Ġbesten": 3215,
      "æĽ´å¥½": 3216,
      "åİŁ": 3217,
      "éĻħ": 3218,
      "Ġmachine": 3219,
      "Ġunsere": 3220,
      "Ġberu": 3221,
      "äº§åĵģ": 3222,
      "æĥħåĨµ": 3223,
      "nov": 3224,
      "ĠVerbindung": 3225,
      "Ġgerne": 3226,
      "ĠFarben": 3227,
      "uppe": 3228,
      "ĠKunstwer": 3229,
      "ĠBewahre": 3230,
      "ĠVerwende": 3231,
      "ĠDetails": 3232,
      "ftware": 3233,
      "vironment": 3234,
      "()": 3235,
      "Client": 3236,
      "lungen": 3237,
      "nitt": 3238,
      "ount": 3239,
      "uck": 3240,
      "utet": 3241,
      "å¨": 3242,
      "èĳ": 3243,
      "é¤Ĳ": 3244,
      "Ġdrei": 3245,
      "unter": 3246,
      "itze": 3247,
      "rem": 3248,
      "Ġwahr": 3249,
      "Ġbl": 3250,
      "ĠShe": 3251,
      "Ã¼he": 3252,
      "Ġindust": 3253,
      "elche": 3254,
      "ĠzurÃ¼ck": 3255,
      "urs": 3256,
      "ingu": 3257,
      "ĠDes": 3258,
      "ded": 3259,
      "umm": 3260,
      "Ġbew": 3261,
      "äºĳ": 3262,
      "ĠWerk": 3263,
      "ufen": 3264,
      "ĠFin": 3265,
      "Ġthrough": 3266,
      "ĠGleich": 3267,
      "schein": 3268,
      "æľĪ": 3269,
      "åħħ": 3270,
      "è¯·": 3271,
      "quen": 3272,
      "idung": 3273,
      "ahlen": 3274,
      "æĿĤ": 3275,
      "è¿Ļç§į": 3276,
      "ctor": 3277,
      "æīĵ": 3278,
      "Ġexc": 3279,
      "locken": 3280,
      "äºĨè§£": 3281,
      "tigkeit": 3282,
      "ĠEng": 3283,
      "ĠGew": 3284,
      "è¾¹": 3285,
      "barkeit": 3286,
      "rieden": 3287,
      "Ġ2020": 3288,
      "oblauch": 3289,
      "resent": 3290,
      "ĠÃľbersetz": 3291,
      "äº§çĶŁ": 3292,
      "åĢĻ": 3293,
      "matrix": 3294,
      "ç»Ļå®ļ": 3295,
      "è¿ĲåĬ¨": 3296,
      "Ġfaktenbasierte": 3297,
      "ĠMÃ¶glichkeiten": 3298,
      "ĠLebensmittel": 3299,
      "é¢ĨåŁŁ": 3300,
      "Ġimportant": 3301,
      "Ġkomplex": 3302,
      "import": 3303,
      "ĠvertrauenswÃ¼r": 3304,
      "Create": 3305,
      "Re": 3306,
      "Rew": 3307,
      "cle": 3308,
      "fig": 3309,
      "frei": 3310,
      "mal": 3311,
      "nehmen": 3312,
      "sgesamt": 3313,
      "welt": 3314,
      "é¹": 3315,
      "ennen": 3316,
      "Ġaround": 3317,
      "Ġtake": 3318,
      "ats": 3319,
      "under": 3320,
      "ander": 3321,
      "ĠSe": 3322,
      "Ġfir": 3323,
      "Ġfind": 3324,
      "Ġinvol": 3325,
      "ĠzuverlÃ¤ss": 3326,
      "Ġpredic": 3327,
      "ĠBild": 3328,
      "ola": 3329,
      "Ġnutz": 3330,
      "ĠWind": 3331,
      "ĠFunktion": 3332,
      "ĠMischung": 3333,
      "Ġthen": 3334,
      "Ġlife": 3335,
      "Ġrel": 3336,
      "schen": 3337,
      "schlÃ¤": 3338,
      "Ġerg": 3339,
      "estaur": 3340,
      "Ġdesign": 3341,
      "ivid": 3342,
      "ivers": 3343,
      "ctions": 3344,
      "rittwe": 3345,
      "ĠVerfÃ¼": 3346,
      "ĠVersion": 3347,
      "Ġprof": 3348,
      "ĠSchw": 3349,
      "Ġlevel": 3350,
      "æĿ¡": 3351,
      "Ġschrittwe": 3352,
      "Ġneed": 3353,
      "Ġspec": 3354,
      "Ġdaran": 3355,
      "weis": 3356,
      "æĶ¯": 3357,
      "æĸĩæľ¬": 3358,
      "æĸ°çļĦ": 3359,
      "Ġheraus": 3360,
      "ulture": 3361,
      "ticle": 3362,
      "æŁĵ": 3363,
      "å¢ŀéķ¿": 3364,
      "ĠGerÃ¤": 3365,
      "liothe": 3366,
      "ĠBoden": 3367,
      "éĩįè¦ģçļĦ": 3368,
      "åĸľ": 3369,
      "Ġbelieb": 3370,
      "Ġveget": 3371,
      "Ġcharac": 3372,
      "ç¤¾äº¤åªĴä½ĵ": 3373,
      "Ġquickly": 3374,
      "ä¿ĥè¿Ľ": 3375,
      "(\"": 3376,
      "Comp": 3377,
      "az": 3378,
      "bau": 3379,
      "fts": 3380,
      "ix": 3381,
      "print": 3382,
      "¥¿": 3383,
      "æĵ": 3384,
      "è£": 3385,
      "è¥¿": 3386,
      "ĊĊĠĠĠ": 3387,
      "stall": 3388,
      "Ġwere": 3389,
      "Ġmay": 3390,
      "Ġange": 3391,
      "Ġpassen": 3392,
      "ĠpersÃ¶n": 3393,
      "usp": 3394,
      "ĠIhren": 3395,
      "umen": 3396,
      "liches": 3397,
      "Ã¶l": 3398,
      "äºĮ": 3399,
      "ĠEing": 3400,
      "uft": 3401,
      "ä»ħ": 3402,
      "ĠFran": 3403,
      "ĠKÃ¼": 3404,
      "ĠKar": 3405,
      "ĠPrÃ¤": 3406,
      "Ġtop": 3407,
      "edu": 3408,
      "Ġste": 3409,
      "Ġecon": 3410,
      "Ġaufre": 3411,
      "akes": 3412,
      "Ġ16": 3413,
      "aher": 3414,
      "Ġcompan": 3415,
      "ags": 3416,
      "Ġwieder": 3417,
      "ĠErw": 3418,
      "Ġtasks": 3419,
      "agement": 3420,
      "halb": 3421,
      "å½ķ": 3422,
      "ssistant": 3423,
      "merk": 3424,
      "Ġgrow": 3425,
      "Ġbesonder": 3426,
      "Ġenvironment": 3427,
      "ervor": 3428,
      "ergie": 3429,
      "Ġnachvoll": 3430,
      "è§£éĩĬ": 3431,
      "åıĳå±ķ": 3432,
      "çº¦": 3433,
      "Ġarticle": 3434,
      "Ġperform": 3435,
      "ä¸»é¢ĺ": 3436,
      "blem": 3437,
      "äº¤éĢļ": 3438,
      "ĠkÃ¶nnten": 3439,
      "Ġrecogn": 3440,
      "åı¯èĥ½ä¼ļ": 3441,
      "fÃ¼hrung": 3442,
      "æŃ¤å¤ĸ": 3443,
      "ç¬¬": 3444,
      "ĠProdukte": 3445,
      "èĻĳ": 3446,
      "telligence": 3447,
      "Ġverstehen": 3448,
      "Ġletzten": 3449,
      "Ġverleihen": 3450,
      "Ġdigit": 3451,
      "Ġeconom": 3452,
      ".\"": 3453,
      "Given": 3454,
      "Im": 3455,
      "bon": 3456,
      "mÃ¤ÃŁ": 3457,
      "rÃ¤n": 3458,
      "åĥ": 3459,
      "éĴ": 3460,
      "ĠtÃ¤g": 3461,
      "ites": 3462,
      "itter": 3463,
      "angen": 3464,
      "Ġwich": 3465,
      "Ġwei": 3466,
      "Ġwater": 3467,
      "Ġboth": 3468,
      "Ġfun": 3469,
      "Ġflow": 3470,
      "arb": 3471,
      "elÃ¶ffel": 3472,
      "Ġmax": 3473,
      "Ġmusst": 3474,
      "alk": 3475,
      "Ġanalys": 3476,
      "ille": 3477,
      "ility": 3478,
      "ĠKam": 3479,
      "ĠMen": 3480,
      "ird": 3481,
      "cke": 3482,
      "ĠHil": 3483,
      "etter": 3484,
      "achsen": 3485,
      "esting": 3486,
      "Ġstring": 3487,
      "Ġequ": 3488,
      "Ġever": 3489,
      "æĪĺ": 3490,
      "ffe": 3491,
      "ession": 3492,
      "Ġproblem": 3493,
      "sport": 3494,
      "Ġcomputer": 3495,
      "ages": 3496,
      "Ġschool": 3497,
      "ç§°": 3498,
      "çĶŁäº§": 3499,
      "åı¯ä»¥éĢļè¿ĩ": 3500,
      "tigt": 3501,
      "å·¨": 3502,
      "heiten": 3503,
      "icken": 3504,
      "ĠTeelÃ¶ffel": 3505,
      "æİ§": 3506,
      "ught": 3507,
      "gaben": 3508,
      "ĠÃĸ": 3509,
      "è´Ń": 3510,
      "Ġinclud": 3511,
      "Ġarbeit": 3512,
      "tificial": 3513,
      "Ã¼nst": 3514,
      "ĠUnterstÃ¼tz": 3515,
      "Ġobj": 3516,
      "å¢ŀåĬł": 3517,
      "Ġkorrekt": 3518,
      "Ġtreu": 3519,
      "å®ŀçİ°": 3520,
      "æľºåĻ¨åŃ¦ä¹ł": 3521,
      "è®¡ç®Ĺæľº": 3522,
      "åħ·æľī": 3523,
      "ç¤¾ä¼ļ": 3524,
      "æ¶Ī": 3525,
      "Ġjedes": 3526,
      "Ġtype": 3527,
      "ĠermÃ¶glich": 3528,
      "Ġdiffer": 3529,
      "Ġexperience": 3530,
      "æ³¨æĦı": 3531,
      "work": 3532,
      "ziehbar": 3533,
      "ĠErfahrung": 3534,
      "ĠnatÃ¼rlichen": 3535,
      "ĠVeranstalt": 3536,
      "èĲ¥éĶĢ": 3537,
      "Ġpolit": 3538,
      "ĠCharakter": 3539,
      "æĲľ": 3540,
      "Ġsuccess": 3541,
      "æĭ¥æľī": 3542,
      "ĠBemÃ¼he": 3543,
      "Rewrite": 3544,
      "Ġschrittweise": 3545,
      "Ġnachvollziehbar": 3546,
      "åĥı": 3547,
      "--": 3548,
      "Ver": 3549,
      "],": 3550,
      "bj": 3551,
      "ced": 3552,
      "freund": 3553,
      "lik": 3554,
      "po": 3555,
      "sst": 3556,
      "ually": 3557,
      "way": 3558,
      "çħ": 3559,
      "ina": 3560,
      "Ġsog": 3561,
      "ane": 3562,
      "Ġwissen": 3563,
      "Ġmon": 3564,
      "zug": 3565,
      "ĠBas": 3566,
      "ĠBau": 3567,
      "olf": 3568,
      "olz": 3569,
      "ĠTassen": 3570,
      "ĠEier": 3571,
      "ĠEss": 3572,
      "Ġgl": 3573,
      "ĠWÃ¤hrend": 3574,
      "ĠFuÃŁ": 3575,
      "ement": 3576,
      "ĠMom": 3577,
      "ĠGl": 3578,
      "ĠPal": 3579,
      "Ġlen": 3580,
      "schlagen": 3581,
      "Ġiss": 3582,
      "ĠLauf": 3583,
      "Ġdenke": 3584,
      "annen": 3585,
      "ĠComp": 3586,
      "æĸ½": 3587,
      "ĠNatur": 3588,
      "Ġunzens": 3589,
      "ienten": 3590,
      "çĶ¨äºİ": 3591,
      "ä¼Ĺ": 3592,
      "ĠBewertung": 3593,
      "Ġseinem": 3594,
      "è§ģ": 3595,
      "Ġneuen": 3596,
      "çīĽ": 3597,
      "æŃĮ": 3598,
      "unktionen": 3599,
      "ĠAuswirk": 3600,
      "peratur": 3601,
      "Ġmehrere": 3602,
      "çĶµå½±": 3603,
      "æ²¡": 3604,
      "ç»ĵæŀľ": 3605,
      "ç»ĵæŀĦ": 3606,
      "åħ¨çĲĥ": 3607,
      "çĽ®çļĦ": 3608,
      "æĮģç»Ń": 3609,
      "awand": 3610,
      "ĠmÃ¶glicher": 3611,
      "çľĭ": 3612,
      "æİĴåºı": 3613,
      "ĠKnoblauch": 3614,
      "ĠSeite": 3615,
      "ĠProbleme": 3616,
      "æĽ´å¤ļçļĦ": 3617,
      "Ġerneuerbar": 3618,
      "Ġeigenen": 3619,
      "ĠKlimawand": 3620,
      "æĽ´å¥½åľ°": 3621,
      "schlÃ¤ge": 3622,
      "Ġsogar": 3623,
      "30": 3624,
      "Find": 3625,
      "Kannst": 3626,
      "bie": 3627,
      "bra": 3628,
      "fÃ¤l": 3629,
      "hm": 3630,
      "val": 3631,
      "ws": 3632,
      "éŁ": 3633,
      "Ġåľ¨": 3634,
      "int": 3635,
      "Ġdist": 3636,
      "ree": 3637,
      "ante": 3638,
      "het": 3639,
      "Ġwider": 3640,
      "leicht": 3641,
      "ĠSÃ¼": 3642,
      "ä¸½": 3643,
      "Ġmuss": 3644,
      "Ġpre": 3645,
      "Ġpage": 3646,
      "Ġhervor": 3647,
      "Ġcom": 3648,
      "rill": 3649,
      "ĠMet": 3650,
      "sed": 3651,
      "ĠPat": 3652,
      "Ġliv": 3653,
      "Ġreach": 3654,
      "ĠVari": 3655,
      "Ġerreichen": 3656,
      "å¤±": 3657,
      "Ġstre": 3658,
      "Ġstep": 3659,
      "ä½İ": 3660,
      "ĠZutaten": 3661,
      "ehler": 3662,
      "ä»¥ä¾¿": 3663,
      "Ġausge": 3664,
      "å°½": 3665,
      "è§Ĵ": 3666,
      "Ġdev": 3667,
      "ĠProt": 3668,
      "weg": 3669,
      "Ġmovie": 3670,
      "ĠGefÃ¼hl": 3671,
      "Ã¶glichen": 3672,
      "æĤ¨åı¯ä»¥": 3673,
      "æ´²": 3674,
      "Ġchange": 3675,
      "Ġgenauen": 3676,
      "ĠJahrh": 3677,
      "åĪĽéĢł": 3678,
      "ç¡®ä¿Ŀ": 3679,
      "acy": 3680,
      "åĨ³çŃĸ": 3681,
      "ĠGemein": 3682,
      "finden": 3683,
      "aÃŁnahmen": 3684,
      "ĠFÃ¼ge": 3685,
      "Ġproduct": 3686,
      "çŁ¥": 3687,
      "icherheit": 3688,
      "éħį": 3689,
      "å¤įæĿĤ": 3690,
      "Ġimprove": 3691,
      "Ġkey": 3692,
      "ĠFamilie": 3693,
      "ĠGoogle": 3694,
      "ĠerzÃ¤hlen": 3695,
      "ĠAktivitÃ¤ten": 3696,
      "å¡ĳ": 3697,
      "Ġbesonders": 3698,
      "Ġdifferent": 3699,
      "æĲľç´¢": 3700,
      "Ġunzensierter": 3701,
      "PI": 3702,
      "dien": 3703,
      "daten": 3704,
      "flÃ¤": 3705,
      "hip": 3706,
      "mar": 3707,
      "num": 3708,
      "ober": 3709,
      "rends": 3710,
      "tain": 3711,
      "uelle": 3712,
      "æħ": 3713,
      "æļ": 3714,
      "çı": 3715,
      "ĠâĢ": 3716,
      "ĠauÃŁer": 3717,
      "stag": 3718,
      "Ġsag": 3719,
      "rech": 3720,
      "asen": 3721,
      "ĠSAP": 3722,
      "Ġeinge": 3723,
      "ĠeinschlieÃŁlich": 3724,
      "Ġinsp": 3725,
      "ãĢĬ": 3726,
      "ãĢĭ": 3727,
      "ĠBar": 3728,
      "Ġhoch": 3729,
      "Ġcomm": 3730,
      "ĠDi": 3731,
      "Ġbeit": 3732,
      "Ġnam": 3733,
      "Ġgram": 3734,
      "ĠPap": 3735,
      "Ġrecht": 3736,
      "ĠInhalte": 3737,
      "åħĭ": 3738,
      "Ġgef": 3739,
      "Ġaufzu": 3740,
      "Ġaufgrund": 3741,
      "åľŁ": 3742,
      "è¯ģ": 3743,
      "Ġ12": 3744,
      "Ġ100": 3745,
      "ollar": 3746,
      "ĠausfÃ¼hr": 3747,
      "éĩĳ": 3748,
      "ĠJack": 3749,
      "æľīæķĪ": 3750,
      "ä¸ŃåĽ½": 3751,
      "Ġbeiden": 3752,
      "ç§»": 3753,
      "æŀģ": 3754,
      "ohlen": 3755,
      "ĠProgramm": 3756,
      "ourcen": 3757,
      "ĠAufsatz": 3758,
      "Ġenthalten": 3759,
      "Ġunterschied": 3760,
      "ills": 3761,
      "å¤§éĩı": 3762,
      "Ġhilfreich": 3763,
      "å®ļä¹ī": 3764,
      "è¾ĥ": 3765,
      "ĠAuswahl": 3766,
      "åıĳçİ°": 3767,
      "èĩªçĦ¶": 3768,
      "æĻ¯": 3769,
      "åħ³ç³»": 3770,
      "ĠSprach": 3771,
      "Ġbleiben": 3772,
      "å¢ŀå¼º": 3773,
      "ĠMitglie": 3774,
      "zeichnet": 3775,
      "Ġreduzieren": 3776,
      "aterial": 3777,
      "Ġinteress": 3778,
      "çłģ": 3779,
      "Ġoptim": 3780,
      "Ġbekannt": 3781,
      "ĠIhrer": 3782,
      "ĠTourismus": 3783,
      "ĠNote": 3784,
      "Ġyears": 3785,
      "Ġerledigen": 3786,
      "Ġdeta": 3787,
      "ĠzuverlÃ¤ssigen": 3788,
      "ĠUnterstÃ¼tzung": 3789,
      "æ²¡æľī": 3790,
      "15": 3791,
      "App": 3792,
      "Deine": 3793,
      "En": 3794,
      "Ge": 3795,
      "He": 3796,
      "des": 3797,
      "fall": 3798,
      "kl": 3799,
      "mel": 3800,
      "sor": 3801,
      "uit": 3802,
      "uge": 3803,
      "uage": 3804,
      "wohl": 3805,
      "»çĤ": 3806,
      "ÙĦ": 3807,
      "åĤ¨": 3808,
      "é²": 3809,
      "Ġ*": 3810,
      "Ġdel": 3811,
      "Ġair": 3812,
      "Ġterm": 3813,
      "Ġsm": 3814,
      "ising": 3815,
      "isieren": 3816,
      "Ġbu": 3817,
      "ĠServ": 3818,
      "Ġfamil": 3819,
      "ä¸ĵ": 3820,
      "Ġint": 3821,
      "Ġinte": 3822,
      "Ġmensch": 3823,
      "Ġvo": 3824,
      "Ġvier": 3825,
      "ross": 3826,
      "Ġour": 3827,
      "çļĦçĶŁæ´»": 3828,
      "Ġpriv": 3829,
      "Ġpower": 3830,
      "ĠBr": 3831,
      "ĠBuch": 3832,
      "Ġcur": 3833,
      "Ġihm": 3834,
      "def": 3835,
      "riert": 3836,
      "licht": 3837,
      "äºĶ": 3838,
      "ĠnÃ¼tz": 3839,
      "Ġgre": 3840,
      "ĠWor": 3841,
      "ĠWar": 3842,
      "ĠWett": 3843,
      "enter": 3844,
      "ĠFre": 3845,
      "ĠKle": 3846,
      "ĠKomp": 3847,
      "ĠPe": 3848,
      "ĠRÃ¼": 3849,
      "ĠHum": 3850,
      "è¿ĳ": 3851,
      "Ġersten": 3852,
      "icient": 3853,
      "Ġstore": 3854,
      "iver": 3855,
      "Ġgek": 3856,
      "ç»Ĩ": 3857,
      "Ġuntil": 3858,
      "åĲ¦": 3859,
      "åĲĳ": 3860,
      "Ġhead": 3861,
      "éĩĩ": 3862,
      "Ġschaffen": 3863,
      "rÃ¤gt": 3864,
      "ĠdafÃ¼r": 3865,
      "Ġdefin": 3866,
      "çĶŁçī©": 3867,
      "ĠArtik": 3868,
      "ĠUnivers": 3869,
      "Ġwhy": 3870,
      "Ġwhen": 3871,
      "ource": 3872,
      "Ġmob": 3873,
      "Ġvorschlagen": 3874,
      "åĳ½": 3875,
      "æĽ´åĬł": 3876,
      "pfel": 3877,
      "Ġallowing": 3878,
      "Ġarea": 3879,
      "éĺħ": 3880,
      "ä½ľä¸º": 3881,
      "ç±³": 3882,
      "Ġunser": 3883,
      "æīĢä»¥": 3884,
      "bole": 3885,
      "åŁİ": 3886,
      "åıĺåĮĸ": 3887,
      "ä½įç½®": 3888,
      "æ°´æŀľ": 3889,
      "Ġtrees": 3890,
      "ĠHeraus": 3891,
      "ashion": 3892,
      "æĹłæ³ķ": 3893,
      "åĩĨå¤ĩ": 3894,
      "å£«": 3895,
      "ituation": 3896,
      "ĠSymbole": 3897,
      "gestellt": 3898,
      "åĲĦç§į": 3899,
      "èĩªå·±çļĦ": 3900,
      "Ġspezifische": 3901,
      "Ġpatient": 3902,
      "ĠIdeen": 3903,
      "å·²ç»ı": 3904,
      "åĲ¸å¼ķ": 3905,
      "Ġberuhen": 3906,
      "ĠAuswirkungen": 3907,
      "éŁ³": 3908,
      "ĠPatienten": 3909,
      "John": 3910,
      "aj": 3911,
      "ader": 3912,
      "aste": 3913,
      "bieren": 3914,
      "back": 3915,
      "bÃ¤ll": 3916,
      "eff": 3917,
      "gang": 3918,
      "nten": 3919,
      "nung": 3920,
      "tt": 3921,
      "yd": 3922,
      "zte": 3923,
      "åł": 3924,
      "Ġak": 3925,
      "ieÃŁen": 3926,
      "onen": 3927,
      "stelle": 3928,
      "Ġtri": 3929,
      "itten": 3930,
      "ĠsÃ¼": 3931,
      "Ġsur": 3932,
      "orn": 3933,
      "iche": 3934,
      "ichter": 3935,
      "Ġbeing": 3936,
      "Ġbasierend": 3937,
      "ĠSystem": 3938,
      "Ġeinzu": 3939,
      "ä¸¥": 3940,
      "Ġinnov": 3941,
      "ĠAssistant": 3942,
      "ĠAPI": 3943,
      "Ġpra": 3944,
      "ĠBi": 3945,
      "ĠhÃ¶": 3946,
      "Ġhigh": 3947,
      "Ġcorre": 3948,
      "Ġcertain": 3949,
      "Ġihnen": 3950,
      "ĠDa": 3951,
      "ĠDar": 3952,
      "ions": 3953,
      "raph": 3954,
      "ĠnÃ¤ch": 3955,
      "irm": 3956,
      "cks": 3957,
      "eite": 3958,
      "ĠHÃ¼": 3959,
      "ĠIntern": 3960,
      "Ġerforder": 3961,
      "ache": 3962,
      "achst": 3963,
      "esto": 3964,
      "ĠLie": 3965,
      "ĠLond": 3966,
      "Ġstand": 3967,
      "ĠĠĠĠĠĠĠ": 3968,
      "ç»ľ": 3969,
      "ĠStates": 3970,
      "ffer": 3971,
      "è¯¯": 3972,
      "ielle": 3973,
      "Ġunvor": 3974,
      "iding": 3975,
      "idest": 3976,
      "Ã¤nderungen": 3977,
      "æĿĲ": 3978,
      "asket": 3979,
      "ĠschÃ¤d": 3980,
      "ĠJohn": 3981,
      "ĠJahre": 3982,
      "Ġspielen": 3983,
      "Ġexplain": 3984,
      "ources": 3985,
      "ĠTechnologie": 3986,
      "uster": 3987,
      "å¾ĭ": 3988,
      "Ġonline": 3989,
      "aufen": 3990,
      "meric": 3991,
      "Ġteilen": 3992,
      "Ġsocial": 3993,
      "ĠHaust": 3994,
      "Ġjede": 3995,
      "éĻĲ": 3996,
      "obald": 3997,
      "éĶ»çĤ": 3998,
      "Ġtradition": 3999,
      "ĠJahren": 4000,
      "æ²»": 4001,
      "stellungen": 4002,
      "Ġsicherzustellen": 4003,
      "ĠwÃ¼rden": 4004,
      "arbeiten": 4005,
      "ĠSpieler": 4006,
      "ç½ĳç»ľ": 4007,
      "Ã¤chlich": 4008,
      "æĶ¹åıĺ": 4009,
      "åĸĦ": 4010,
      "Ġresult": 4011,
      "çģµ": 4012,
      "ĠSeiten": 4013,
      "Ġvalue": 4014,
      "Ġbestimmte": 4015,
      "çĥŃ": 4016,
      "Ġempfehlen": 4017,
      "Ġfolgenden": 4018,
      "ĠFleischbÃ¤ll": 4019,
      "ĠgroÃŁartig": 4020,
      "ä»·æł¼": 4021,
      "åĨįçĶŁ": 4022,
      "è®¤ä¸º": 4023,
      "Ġindivid": 4024,
      "lemente": 4025,
      "Ġmultiple": 4026,
      "ĠvertrauenswÃ¼rdigen": 4027,
      "Ġfirst": 4028,
      "ĠVerfÃ¼gung": 4029,
      "ĠermÃ¶glicht": 4030,
      "ĠmÃ¶glicherweise": 4031,
      "éĺħè¯»": 4032,
      "ĠLondon": 4033,
      "éĶ»çĤ¼": 4034,
      "ĠFleischbÃ¤llchen": 4035,
      "11": 4036,
      "Chat": 4037,
      "Th": 4038,
      "Wenn": 4039,
      "fÃ¤higkeit": 4040,
      "gth": 4041,
      "gleich": 4042,
      "lim": 4043,
      "pre": 4044,
      "wn": 4045,
      "æĳ": 4046,
      "ĠÃ¼": 4047,
      "inden": 4048,
      "Ġass": 4049,
      "its": 4050,
      "athe": 4051,
      "undert": 4052,
      "ĠwÃ¤re": 4053,
      "iss": 4054,
      "ĠSte": 4055,
      "ĠfrÃ¼": 4056,
      "Ġfood": 4057,
      "Ġinfl": 4058,
      "Ġmade": 4059,
      "Ġany": 4060,
      "Ġpart": 4061,
      "Ġpublic": 4062,
      "Ġpopul": 4063,
      "ĠBest": 4064,
      "ĠBere": 4065,
      "inger": 4066,
      "Ġkosten": 4067,
      "ume": 4068,
      "ĠTran": 4069,
      "rak": 4070,
      "ily": 4071,
      "Ġgame": 4072,
      "ĠKopf": 4073,
      "ĠPer": 4074,
      "Ġverme": 4075,
      "schlieÃŁen": 4076,
      "Ġerwar": 4077,
      "åħī": 4078,
      "ĠZum": 4079,
      "essourcen": 4080,
      "ield": 4081,
      "ä»¥åıĬ": 4082,
      "åı¯åĨįçĶŁ": 4083,
      "agand": 4084,
      "Ġconf": 4085,
      "Ġjob": 4086,
      "å¯Ĩ": 4087,
      "ç§¯": 4088,
      "åı¯ä»¥å¸®åĬ©": 4089,
      "Ġwerde": 4090,
      "Ã¶rter": 4091,
      "çĽĳ": 4092,
      "éĹ¨": 4093,
      "ranche": 4094,
      "Ġitem": 4095,
      "Ġhinaus": 4096,
      "åĳ¨": 4097,
      "ä¸ĭéĿ¢": 4098,
      "æĸ¹æ¡Ī": 4099,
      "Ġsollten": 4100,
      "samkeit": 4101,
      "ç½Ĺ": 4102,
      "rieben": 4103,
      "Ġpoem": 4104,
      "Ġposs": 4105,
      "chtest": 4106,
      "çĿ£": 4107,
      "Ġklein": 4108,
      "Ġfinan": 4109,
      "èīº": 4110,
      "Ġmean": 4111,
      "çĦ¶åĲİ": 4112,
      "ĠOrt": 4113,
      "é¦Ļ": 4114,
      "çĽ¸åħ³": 4115,
      "ä»İèĢĮ": 4116,
      "volution": 4117,
      "ĠmÃ¶chten": 4118,
      "æĢ»ä¹ĭ": 4119,
      "åĩĨç¡®": 4120,
      "ĠprÃ¤zisen": 4121,
      "çĶ±äºİ": 4122,
      "Ġapplications": 4123,
      "ĠzusÃ¤tzliche": 4124,
      "Ġtrans": 4125,
      "Ġbeeinfl": 4126,
      "prÃ¼fen": 4127,
      "Ġgegebenen": 4128,
      "è¯ĨåĪ«": 4129,
      "Ġgreater": 4130,
      "Ġstrategies": 4131,
      "èĢĥèĻĳ": 4132,
      "Ġelectric": 4133,
      "Ġlarge": 4134,
      "Ġcommunication": 4135,
      "ĠUnterhaltungen": 4136,
      "ĠKunstwerke": 4137,
      "Ġvermeidest": 4138,
      "21": 4139,
      "Con": 4140,
      "Class": 4141,
      "Hier": 4142,
      "day": 4143,
      "fassen": 4144,
      "hÃ¤lt": 4145,
      "imen": 4146,
      "mod": 4147,
      "ness": 4148,
      "pe": 4149,
      "par": 4150,
      "punkt": 4151,
      "suchen": 4152,
      "tschaft": 4153,
      "æ¿": 4154,
      "æ¦Ĥ": 4155,
      "é¾": 4156,
      "Ġel": 4157,
      "unch": 4158,
      "Ġsagen": 4159,
      "ants": 4160,
      "heb": 4161,
      "Ġwrit": 4162,
      "ley": 4163,
      "leben": 4164,
      "ĠSer": 4165,
      "alien": 4166,
      "ĠBil": 4167,
      "uren": 4168,
      "ures": 4169,
      "derung": 4170,
      "Ġkre": 4171,
      "olol": 4172,
      "Ġnorm": 4173,
      "Ġgar": 4174,
      "Ġgute": 4175,
      "ĠWetter": 4176,
      "ĠFrÃ¼": 4177,
      "ĠKat": 4178,
      "ember": 4179,
      "ĠMan": 4180,
      "ĠMuse": 4181,
      "ĠGen": 4182,
      "ĠPfe": 4183,
      "tional": 4184,
      "Ġlim": 4185,
      "igung": 4186,
      "ames": 4187,
      "Ġverl": 4188,
      "Ġverm": 4189,
      "schl": 4190,
      "ĠgefÃ¼hr": 4191,
      "ç»ĥ": 4192,
      "ĠStunden": 4193,
      "cept": 4194,
      "Ġ17": 4195,
      "åĲ«": 4196,
      "spiel": 4197,
      "ables": 4198,
      "ĠSpaÃŁ": 4199,
      "å¯Į": 4200,
      "ĠReise": 4201,
      "fÃ¼hren": 4202,
      "æī§": 4203,
      "æŃ¢": 4204,
      "æį¢": 4205,
      "Ġorgan": 4206,
      "ennt": 4207,
      "ĠGewÃ¼r": 4208,
      "reibe": 4209,
      "reifen": 4210,
      "trodu": 4211,
      "schaften": 4212,
      "éĺ²": 4213,
      "éĻ©": 4214,
      "lanzen": 4215,
      "æ±ĩ": 4216,
      "Ã¤lter": 4217,
      "æ¸¸": 4218,
      "èĩªåĬ¨": 4219,
      "ommt": 4220,
      "Ġaccount": 4221,
      "Ġmeisten": 4222,
      "ï¼īï¼ļ": 4223,
      "plemen": 4224,
      "çļĦç¬": 4225,
      "ĠKontext": 4226,
      "èĤ²": 4227,
      "axolol": 4228,
      "ĠAutor": 4229,
      "è·¯": 4230,
      "Ġevent": 4231,
      "ĠbenÃ¶": 4232,
      "ĠFarbe": 4233,
      "çłĶ": 4234,
      "è¶³": 4235,
      "ĠmÃ¶chtest": 4236,
      "èĭ±": 4237,
      "Ġphys": 4238,
      "Ġvegan": 4239,
      "Ġbestimmten": 4240,
      "ampag": 4241,
      "Ġstudent": 4242,
      "Ġhandelt": 4243,
      "Ġmodel": 4244,
      "è±¡": 4245,
      "èµĦæºĲ": 4246,
      "Ġwertfrei": 4247,
      "Ġengagiert": 4248,
      "ĠErnÃ¤hrung": 4249,
      "Ġentscheiden": 4250,
      "Ġindustry": 4251,
      "ĠDesign": 4252,
      "estaurant": 4253,
      "mÃ¤ÃŁig": 4254,
      "ĠLaufe": 4255,
      "flÃ¤che": 4256,
      "Ġdetaill": 4257,
      "asketball": 4258,
      "ĠschÃ¤dliche": 4259,
      "Chatbot": 4260,
      "))": 4261,
      "CL": 4262,
      "Eine": 4263,
      "ML": 4264,
      "SS": 4265,
      "feren": 4266,
      "na": 4267,
      "sel": 4268,
      "sol": 4269,
      "wasser": 4270,
      "¿åħį": 4271,
      "Ø§": 4272,
      "Ġri": 4273,
      "innen": 4274,
      "Ġtem": 4275,
      "itor": 4276,
      "ather": 4277,
      "Ġsub": 4278,
      "ana": 4279,
      "anden": 4280,
      "isse": 4281,
      "leep": 4282,
      "Ġbring": 4283,
      "Ġbringen": 4284,
      "ason": 4285,
      "arr": 4286,
      "arget": 4287,
      "Ã¤se": 4288,
      "ality": 4289,
      "Ġvielen": 4290,
      "ros": 4291,
      "roid": 4292,
      "Ġcare": 4293,
      "ĠkÃ¶st": 4294,
      "Ġnah": 4295,
      "Ġgesp": 4296,
      "ĠWort": 4297,
      "ĠProp": 4298,
      "Ġless": 4299,
      "schnitt": 4300,
      "ĠerfÃ¼": 4301,
      "Ġerste": 4302,
      "çĶ»": 4303,
      "annte": 4304,
      "åĬ±": 4305,
      "aup": 4306,
      "ç»ĩ": 4307,
      "ç»Ī": 4308,
      "è®Ń": 4309,
      "ĠSchÃ¼": 4310,
      "abl": 4311,
      "äººåĳĺ": 4312,
      "ĠJava": 4313,
      "eile": 4314,
      "ikan": 4315,
      "ada": 4316,
      "åįģ": 4317,
      "ĠUnd": 4318,
      "å¾ģ": 4319,
      "è¡Įä¸º": 4320,
      "ĠEnde": 4321,
      "Ġtechn": 4322,
      "Ġdeinem": 4323,
      "Ġkonzent": 4324,
      "ĠGeschÃ¤": 4325,
      "ç½²": 4326,
      "Ġmany": 4327,
      "å±Ĥ": 4328,
      "éģ¿åħį": 4329,
      "å»ºç«ĭ": 4330,
      "é«ĺçļĦ": 4331,
      "éĶĻ": 4332,
      "Ġkleine": 4333,
      "æ¬§": 4334,
      "æ²¹": 4335,
      "Ġrecent": 4336,
      "ĠProdukt": 4337,
      "Ġmeiner": 4338,
      "åĽŀæĶ¶": 4339,
      "Ġlanguage": 4340,
      "nahme": 4341,
      "Ġincreased": 4342,
      "è¿Ĳè¡Į": 4343,
      "mitteln": 4344,
      "Ġeven": 4345,
      "Ġmedia": 4346,
      "Ġrepresent": 4347,
      "Ġsystems": 4348,
      "iety": 4349,
      "ç»Ħç»ĩ": 4350,
      "æ¸ħåįķ": 4351,
      "Ġdecisions": 4352,
      "åŃĺåĤ¨": 4353,
      "Ġmarketing": 4354,
      "å¸Ĥåľº": 4355,
      "ĠGesamt": 4356,
      "aktoren": 4357,
      "Ġpassage": 4358,
      "è¿ĩç¨ĭä¸Ń": 4359,
      "ĠgroÃŁartige": 4360,
      "Ġzeigen": 4361,
      "æĢĿç»´": 4362,
      "Ġgehack": 4363,
      "é¦ĸåħĪ": 4364,
      "Ġbefore": 4365,
      "Ġskills": 4366,
      "Ã¤hlt": 4367,
      "ruppe": 4368,
      "Ġganzen": 4369,
      "ä¹ĭéĹ´çļĦ": 4370,
      "Ġfound": 4371,
      "Ġlooking": 4372,
      "Ġlevels": 4373,
      "weisungen": 4374,
      "é²ľ": 4375,
      "Ġfamily": 4376,
      "åŁİå¸Ĥ": 4377,
      "åı¯åĨįçĶŁèĥ½æºĲ": 4378,
      "Classify": 4379,
      "12": 4380,
      "40": 4381,
      "Identif": 4382,
      "Klar": 4383,
      "bed": 4384,
      "book": 4385,
      "dlich": 4386,
      "grÃ¼n": 4387,
      "ov": 4388,
      "passen": 4389,
      "rischen": 4390,
      "urop": 4391,
      "vide": 4392,
      "walt": 4393,
      "¡æŁĵ": 4394,
      "ªæĸ½": 4395,
      "ÙĬ": 4396,
      "é¼": 4397,
      "Ġung": 4398,
      "inge": 4399,
      "str": 4400,
      "stre": 4401,
      "einander": 4402,
      "Ġson": 4403,
      "Ġsim": 4404,
      "Ġsupp": 4405,
      "read": 4406,
      "isierte": 4407,
      "Ġbere": 4408,
      "Ġbesser": 4409,
      "ĠSol": 4410,
      "Ã¤den": 4411,
      "ĠAber": 4412,
      "çļĦæľĢ": 4413,
      "çļĦåı¥åŃĲ": 4414,
      "Ġpur": 4415,
      "ĠBÃ¼": 4416,
      "ĠBus": 4417,
      "ĠhÃ¤uf": 4418,
      "Ġir": 4419,
      "dex": 4420,
      "omaten": 4421,
      "ĠEmo": 4422,
      "ĠElemente": 4423,
      "ĠFehler": 4424,
      "ĠPlan": 4425,
      "ĠRo": 4426,
      "ĠRessourcen": 4427,
      "Ġread": 4428,
      "ĠVan": 4429,
      "ä¸Ģç§į": 4430,
      "Ġrisk": 4431,
      "struct": 4432,
      "ular": 4433,
      "ä¹¦": 4434,
      "Ġappro": 4435,
      "ĠBenutzern": 4436,
      "æĿ¾": 4437,
      "å¸Į": 4438,
      "Ġconc": 4439,
      "eller": 4440,
      "Ġable": 4441,
      "ç§ģ": 4442,
      "è¿Ļæł·": 4443,
      "ä¿®": 4444,
      "lose": 4445,
      "Ã¶rt": 4446,
      "Ġuser": 4447,
      "æİªæĸ½": 4448,
      "å¿Ĺ": 4449,
      "lÃ¤tz": 4450,
      "apt": 4451,
      "æĭī": 4452,
      "æĪĲåĬŁ": 4453,
      "ĠLeist": 4454,
      "Ġweb": 4455,
      "æĢ§çļĦ": 4456,
      "Ġihrem": 4457,
      "bsites": 4458,
      "Ġalles": 4459,
      "ĠQualitÃ¤t": 4460,
      "bereiten": 4461,
      "æ±¡æŁĵ": 4462,
      "mosphÃ¤re": 4463,
      "Ġmacht": 4464,
      "å±Ģ": 4465,
      "åħ³æ³¨": 4466,
      "Ġtrain": 4467,
      "ç±»åŀĭ": 4468,
      "æŁĲ": 4469,
      "matik": 4470,
      "ä»ĸä»¬çļĦ": 4471,
      "zeiten": 4472,
      "zeitig": 4473,
      "abilitÃ¤t": 4474,
      "Ġbene": 4475,
      "çŁŃ": 4476,
      "Design": 4477,
      "éĢłæĪĲ": 4478,
      "Ġminim": 4479,
      "ä¼ĺåĮĸ": 4480,
      "ç®Ģåįķ": 4481,
      "Ġbedeutet": 4482,
      "å®ĮæĪĲ": 4483,
      "ĊĠĠĠĠĠĠĠĠĠĠĠĠĠĠĠ": 4484,
      "ĠvollstÃ¤ndige": 4485,
      "blick": 4486,
      "ĠKrÃ¤uter": 4487,
      "çĬ¶": 4488,
      "ĠGraf": 4489,
      "Ġpotential": 4490,
      "stoffe": 4491,
      "Ġcalcul": 4492,
      "ĠRezept": 4493,
      "å¨ģ": 4494,
      "Ġnutzen": 4495,
      "ĠMoment": 4496,
      "ĠKlimawandel": 4497,
      "Ġinteg": 4498,
      "ĠnÃ¼tzliche": 4499,
      "achstum": 4500,
      "Ġunvoreingenommen": 4501,
      "aganda": 4502,
      "é¾Ļ": 4503,
      "ĠSchÃ¼ler": 4504,
      "So": 4505,
      "Welche": 4506,
      "butter": 4507,
      "cm": 4508,
      "cti": 4509,
      "com": 4510,
      "cts": 4511,
      "gs": 4512,
      "gbar": 4513,
      "hor": 4514,
      "kun": 4515,
      "kosten": 4516,
      "now": 4517,
      "uellen": 4518,
      "von": 4519,
      "zer": 4520,
      "¹æŀľ": 4521,
      "æ½": 4522,
      "Ġ>": 4523,
      "ĳæĪĺ": 4524,
      "chit": 4525,
      "Ġag": 4526,
      "unehmen": 4527,
      "stand": 4528,
      "stungs": 4529,
      "stieg": 4530,
      "Ġtro": 4531,
      "Ġsa": 4532,
      "orage": 4533,
      "Ġwalk": 4534,
      "ĠSQ": 4535,
      "ĠSh": 4536,
      "ĠSicherheit": 4537,
      "Ġfru": 4538,
      "Ġfunktion": 4539,
      "Ġintelligence": 4540,
      "Ġment": 4541,
      "zufÃ¼gen": 4542,
      "ĠAs": 4543,
      "Ġhig": 4544,
      "Ġhome": 4545,
      "ĠhÃ¶ren": 4546,
      "Ġcell": 4547,
      "ĠDollar": 4548,
      "dert": 4549,
      "Ġkulture": 4550,
      "umb": 4551,
      "rib": 4552,
      "ĠEff": 4553,
      "Ġnight": 4554,
      "ĠWas": 4555,
      "ĠFaktoren": 4556,
      "ĠMo": 4557,
      "ĠMod": 4558,
      "irus": 4559,
      "Ġlau": 4560,
      "isches": 4561,
      "Ġreich": 4562,
      "ĠVe": 4563,
      "è¿ľ": 4564,
      "è¿ŀ": 4565,
      "Ġerfolg": 4566,
      "å®¤": 4567,
      "achen": 4568,
      "achten": 4569,
      "bew": 4570,
      "ĠAnwendung": 4571,
      "Ġstay": 4572,
      "anner": 4573,
      "ä¸Ģèµ·": 4574,
      "æĪ¿": 4575,
      "ĠStra": 4576,
      "ĠStÃ¼ck": 4577,
      "ĠStrand": 4578,
      "æĺ¾": 4579,
      "ulver": 4580,
      "uchten": 4581,
      "iellen": 4582,
      "æĺ¯åĲ¦": 4583,
      "spro": 4584,
      "åĽ´": 4585,
      "ahren": 4586,
      "Ġconne": 4587,
      "ĠSport": 4588,
      "Ġdeut": 4589,
      "ohnen": 4590,
      "ĠThey": 4591,
      "é¢ĳ": 4592,
      "æ³¢": 4593,
      "çĽĬ": 4594,
      "Ġusers": 4595,
      "æİ¢": 4596,
      "çŃĶ": 4597,
      "çŃĸçķ": 4598,
      "Ġteam": 4599,
      "ommend": 4600,
      "æĪĲä¸º": 4601,
      "æĮĳæĪĺ": 4602,
      "ĠDieser": 4603,
      "chniken": 4604,
      "æ±½": 4605,
      "åħ¶ä¸Ń": 4606,
      "å·¥åħ·": 4607,
      "Ġkleinen": 4608,
      "Ġsearch": 4609,
      "åĪĽæĸ°": 4610,
      "Ġrelevant": 4611,
      "äº¤æµģ": 4612,
      "Ġques": 4613,
      "çĦ¶èĢĮ": 4614,
      "åĨ³å®ļ": 4615,
      "hafte": 4616,
      "Ġetwa": 4617,
      "èĤī": 4618,
      "ymbol": 4619,
      "Ġefficient": 4620,
      "æ°ĶåĢĻ": 4621,
      "éĥ¨ç½²": 4622,
      "Ġmeinen": 4623,
      "Ġprocessing": 4624,
      "probieren": 4625,
      "rÃ¼nde": 4626,
      "Ġcarbon": 4627,
      "Ġweltw": 4628,
      "Ġsowohl": 4629,
      "Ġknow": 4630,
      "èĭ¹æŀľ": 4631,
      "çģ«": 4632,
      "å¹¿åĳĬ": 4633,
      "åŃĺåľ¨": 4634,
      "Diese": 4635,
      "Ġcountry": 4636,
      "ĠGebÃ¤u": 4637,
      "issions": 4638,
      "è´¨éĩı": 4639,
      "ĠHouse": 4640,
      "ĠRegion": 4641,
      "Ġperfekte": 4642,
      "ĠerhÃ¶": 4643,
      "ething": 4644,
      "ĠZugang": 4645,
      "é¸¡": 4646,
      "ĠGrund": 4647,
      "ĠLeser": 4648,
      "æĹħè¡Į": 4649,
      "Ġsomething": 4650,
      "liothek": 4651,
      "Ġincluding": 4652,
      "Ġerneuerbarer": 4653,
      "å¡ĳæĸĻ": 4654,
      "æļĸ": 4655,
      "ĠHummer": 4656,
      "ĠArtikel": 4657,
      "Ġcorrect": 4658,
      "Ġindividual": 4659,
      "ĠPfeffer": 4660,
      "ĠEmotionen": 4661,
      "Ġunvoreingenommener": 4662,
      "çŃĸçķ¥": 4663,
      "200": 4664,
      "Ar": 4665,
      "De": 4666,
      "ER": 4667,
      "Ne": 4668,
      "Sicher": 4669,
      "TML": 4670,
      "bsen": 4671,
      "cis": 4672,
      "frieden": 4673,
      "ging": 4674,
      "iqu": 4675,
      "kre": 4676,
      "ktion": 4677,
      "mehl": 4678,
      "nuss": 4679,
      "nitten": 4680,
      "pass": 4681,
      "pfen": 4682,
      "richten": 4683,
      "tre": 4684,
      "vest": 4685,
      "zial": 4686,
      "¸æĺĵ": 4687,
      "Ã©": 4688,
      "æ¤": 4689,
      "ç¿": 4690,
      "éŃ": 4691,
      "Ġru": 4692,
      "ĺç±³": 4693,
      "ches": 4694,
      "Ġdat": 4695,
      "esten": 4696,
      "unn": 4697,
      "iti": 4698,
      "itch": 4699,
      "eint": 4700,
      "Ġseit": 4701,
      "reie": 4702,
      "reit": 4703,
      "reib": 4704,
      "anada": 4705,
      "left": 4706,
      "asch": 4707,
      "ĠSamm": 4708,
      "ĠSuppe": 4709,
      "Ġfra": 4710,
      "Ġfive": 4711,
      "Ġfashion": 4712,
      "ä¸²": 4713,
      "ä¸ĸ": 4714,
      "Ġmus": 4715,
      "Ġmaj": 4716,
      "Ġansp": 4717,
      "ĠAm": 4718,
      "ĠAud": 4719,
      "Ġoper": 4720,
      "ĠBro": 4721,
      "Ġcle": 4722,
      "uring": 4723,
      "ĠDinge": 4724,
      "ĠkÃ¼nst": 4725,
      "ĠTod": 4726,
      "Ġbehand": 4727,
      "ĠWachstum": 4728,
      "entwick": 4729,
      "ĠFort": 4730,
      "ĠKombin": 4731,
      "ĠMann": 4732,
      "ĠMehl": 4733,
      "ĠMillion": 4734,
      "ĠPol": 4735,
      "ĠPla": 4736,
      "ĠPark": 4737,
      "ĠRaum": 4738,
      "eiten": 4739,
      "ĠHall": 4740,
      "Ġversch": 4741,
      "ĠLÃ¶": 4742,
      "ĠLÃ¶s": 4743,
      "Ġstru": 4744,
      "auen": 4745,
      "Ġrange": 4746,
      "ĠCol": 4747,
      "ĠVerein": 4748,
      "ĠVerÃ¤nderungen": 4749,
      "Ġpromo": 4750,
      "Ġprogram": 4751,
      "verage": 4752,
      "åºŁ": 4753,
      "ä¹°": 4754,
      "zeuge": 4755,
      "åŃ©": 4756,
      "åı¯æĮģç»Ń": 4757,
      "sprache": 4758,
      "ident": 4759,
      "cript": 4760,
      "ĠSpe": 4761,
      "eiben": 4762,
      "ĠÃ¼berw": 4763,
      "ekten": 4764,
      "ektiv": 4765,
      "Ġjem": 4766,
      "llung": 4767,
      "ä¸įä»ħ": 4768,
      "zene": 4769,
      "å½Ĵ": 4770,
      "ĠAufmerk": 4771,
      "ĠVorschlÃ¤ge": 4772,
      "æµª": 4773,
      "uggest": 4774,
      "æĬ¥": 4775,
      "ĠEinige": 4776,
      "ĠEinfl": 4777,
      "å®ĥçļĦ": 4778,
      "æ°ĳ": 4779,
      "èĩ³": 4780,
      "æĽ´æĸ°": 4781,
      "è´¸æĺĵ": 4782,
      "æĮī": 4783,
      "ĠAuss": 4784,
      "åİĺç±³": 4785,
      "Ġ30": 4786,
      "Ġchines": 4787,
      "Insgesamt": 4788,
      "werk": 4789,
      "mosph": 4790,
      "å¥½å¤Ħ": 4791,
      "è¡¨ç¤º": 4792,
      "Ġverbunden": 4793,
      "è°¢": 4794,
      "ypoth": 4795,
      "Ġatmosph": 4796,
      "laub": 4797,
      "ĠStreet": 4798,
      "tics": 4799,
      "plify": 4800,
      "æĥħæĦŁ": 4801,
      "Ġadd": 4802,
      "é¡µ": 4803,
      "Ġhelps": 4804,
      "Ġgrand": 4805,
      "aws": 4806,
      "Ġvielleicht": 4807,
      "ç©¶": 4808,
      "Ġvisual": 4809,
      "æĸĩç«łçļĦ": 4810,
      "ç¼ĸ": 4811,
      "ĠProblem": 4812,
      "lossen": 4813,
      "ersÃ¶nlichkeit": 4814,
      "ledge": 4815,
      "ĠEntsche": 4816,
      "ä»»åĬ¡": 4817,
      "ĠLinux": 4818,
      "Ġsomeone": 4819,
      "Ġnegativ": 4820,
      "ĠGroÃŁ": 4821,
      "ĠOrganisationen": 4822,
      "kontro": 4823,
      "æ¼Ķ": 4824,
      "ĠVielzahl": 4825,
      "ĠAtmosphÃ¤re": 4826,
      "Ġkomplexe": 4827,
      "Ġcharacter": 4828,
      "Ġgrowth": 4829,
      "ĠweiÃŁ": 4830,
      "ĠMetho": 4831,
      "Ġbeitragen": 4832,
      "ĠMitglieder": 4833,
      "ĠKleidung": 4834,
      "limate": 4835,
      "è®Ńç»ĥ": 4836,
      "Ġpurp": 4837,
      "ĠVanille": 4838,
      "å¸ĮæľĽ": 4839,
      "æ±½è½¦": 4840,
      "ĠAufmerksamkeit": 4841,
      "ypothese": 4842,
      "AR": 4843,
      "EC": 4844,
      "Form": 4845,
      "ST": 4846,
      "We": 4847,
      "Zus": 4848,
      "].": 4849,
      "bwohl": 4850,
      "date": 4851,
      "gten": 4852,
      "here": 4853,
      "por": 4854,
      "rang": 4855,
      "the": 4856,
      "ye": 4857,
      "ªåĬĽ": 4858,
      "½æķ°": 4859,
      "æĤ": 4860,
      "Ġ/": 4861,
      "ĠçļĦ": 4862,
      "inen": 4863,
      "Ġdre": 4864,
      "Ġdri": 4865,
      "Ġdaher": 4866,
      "iegel": 4867,
      "Ġten": 4868,
      "Ġtarget": 4869,
      "Ġsing": 4870,
      "Ġsort": 4871,
      "Ġsyn": 4872,
      "Ġsleep": 4873,
      "ichtet": 4874,
      "ichtigen": 4875,
      "lege": 4876,
      "Ġblock": 4877,
      "asing": 4878,
      "aspo": 4879,
      "ĠStimmen": 4880,
      "ĠSobald": 4881,
      "Ġeinigen": 4882,
      "Ġmis": 4883,
      "tierung": 4884,
      "alf": 4885,
      "ĠAbs": 4886,
      "ĠAfter": 4887,
      "gehen": 4888,
      "Ġvari": 4889,
      "Ġpres": 4890,
      "ĠBusiness": 4891,
      "Ġcir": 4892,
      "Ġcall": 4893,
      "Ġcap": 4894,
      "ĠDien": 4895,
      "ĠDank": 4896,
      "ĠIs": 4897,
      "ĠTo": 4898,
      "Ã¶sen": 4899,
      "ĠEli": 4900,
      "ĠWerte": 4901,
      "ĠFen": 4902,
      "ĠFol": 4903,
      "ĠFÃ¼r": 4904,
      "ĠFunktionen": 4905,
      "term": 4906,
      "ĠPython": 4907,
      "ĠPesto": 4908,
      "åı°": 4909,
      "åıį": 4910,
      "ĠlÃ¤": 4911,
      "Ġline": 4912,
      "Ġlange": 4913,
      "Ġlesen": 4914,
      "Ġlernen": 4915,
      "ĠHar": 4916,
      "ĠHinter": 4917,
      "ĠHCL": 4918,
      "ĠHypothese": 4919,
      "Ġtool": 4920,
      "owed": 4921,
      "ĠAngst": 4922,
      "Ġeas": 4923,
      "åĬªåĬĽ": 4924,
      "ĠZiele": 4925,
      "ĠZeich": 4926,
      "æĪı": 4927,
      "aul": 4928,
      "eht": 4929,
      "Ġren": 4930,
      "struktur": 4931,
      "ç»§": 4932,
      "ĠChr": 4933,
      "Ġ13": 4934,
      "ĠNutz": 4935,
      "ĠNap": 4936,
      "Ġprot": 4937,
      "ending": 4938,
      "æĺ¯æĮĩ": 4939,
      "ĠSchne": 4940,
      "ĠSchÃ¼ssel": 4941,
      "immer": 4942,
      "çĶ¨æĿ¥": 4943,
      "Ġdue": 4944,
      "ager": 4945,
      "ĠOfen": 4946,
      "Ġconcept": 4947,
      "ĠJed": 4948,
      "ĠErgeb": 4949,
      "ekor": 4950,
      "ado": 4951,
      "Ġrequire": 4952,
      "Ġbeide": 4953,
      "åĩ½æķ°": 4954,
      "Ġdavon": 4955,
      "æīį": 4956,
      "Ġdep": 4957,
      "ĠArten": 4958,
      "åįļ": 4959,
      "redit": 4960,
      "Ġwhere": 4961,
      "çĽĸ": 4962,
      "å¾®": 4963,
      "å¾Ģ": 4964,
      "Ġzie": 4965,
      "Ġmotiv": 4966,
      "izien": 4967,
      "Ġask": 4968,
      "å¿µ": 4969,
      "Ġteaspo": 4970,
      "æĬķ": 4971,
      "Ã¼tzen": 4972,
      "ideos": 4973,
      "åĪ°äºĨ": 4974,
      "åİħ": 4975,
      "æĸ¹éĿ¢": 4976,
      "ĠDieses": 4977,
      "å¹¶ä¸Ķ": 4978,
      "æĸĩåĮĸ": 4979,
      "Ġimpact": 4980,
      "igkeiten": 4981,
      "ĠThese": 4982,
      "çĲĨè§£": 4983,
      "ringe": 4984,
      "åĽ½å®¶": 4985,
      "çĶµåŃĲ": 4986,
      "Ġemissions": 4987,
      "èĬ±": 4988,
      "oney": 4989,
      "Ġrecommend": 4990,
      "frage": 4991,
      "åĮħåĲ«": 4992,
      "åŃĹç¬¦": 4993,
      "æłĩå¿Ĺ": 4994,
      "å®ŀéĻħ": 4995,
      "Ġservices": 4996,
      "ĠImplemen": 4997,
      "é©¶": 4998,
      "Ġopen": 4999,
      "ĠmÃ¶chte": 5000,
      "éħ¸": 5001,
      "ä½Ĩæĺ¯": 5002,
      "rown": 5003,
      "ĠermÃ¶glichen": 5004,
      "Ġbereits": 5005,
      "æŀĦå»º": 5006,
      "æİ¨å¹¿": 5007,
      "éĶĢåĶ": 5008,
      "ratus": 5009,
      "ĠFormen": 5010,
      "å°±æĺ¯": 5011,
      "ĠNext": 5012,
      "Ġcountries": 5013,
      "è§£åĨ³æĸ¹æ¡Ī": 5014,
      "staben": 5015,
      "Ġfrisch": 5016,
      "Ġkeep": 5017,
      "Ġbedeuten": 5018,
      "Ġerneuerbare": 5019,
      "ç§ĳæĬĢ": 5020,
      "Ġbecome": 5021,
      "Ġbecause": 5022,
      "Ġbeginnen": 5023,
      "ĠLÃ¤nder": 5024,
      "Ġaccuracy": 5025,
      "ĠvollstÃ¤ndig": 5026,
      "Ġidea": 5027,
      "Ġsecure": 5028,
      "Ġentwickeln": 5029,
      "Ġentwickelt": 5030,
      "Ġleading": 5031,
      "ĠWieder": 5032,
      "tinu": 5033,
      "Shirt": 5034,
      "ĠfÃ¼hrt": 5035,
      "Ġfriends": 5036,
      "ĠerwÃ¤h": 5037,
      "Ġwichtige": 5038,
      "Ġanalysieren": 5039,
      "æİ§åĪ¶": 5040,
      "ĠCharaktere": 5041,
      "çħ§": 5042,
      "ĠFuÃŁball": 5043,
      "Ġdevices": 5044,
      "ĠJahrhundert": 5045,
      "Ġrechtfer": 5046,
      "ä¸ĵä¸ļ": 5047,
      "Ġgreen": 5048,
      "Ġpracti": 5049,
      "Ġinfluen": 5050,
      "ĠMuseum": 5051,
      "çļĦç¬¬": 5052,
      "ĠPropaganda": 5053,
      "ĠHummerschw": 5054,
      "Ġmajor": 5055,
      "Ġteaspoon": 5056,
      "éĶĢåĶ®": 5057,
      "'t": 5058,
      "Ch": 5059,
      "Sp": 5060,
      "Script": 5061,
      "aden": 5062,
      "bank": 5063,
      "cation": 5064,
      "dit": 5065,
      "dig": 5066,
      "fang": 5067,
      "face": 5068,
      "gn": 5069,
      "gal": 5070,
      "iff": 5071,
      "lust": 5072,
      "other": 5073,
      "plan": 5074,
      "rufen": 5075,
      "ule": 5076,
      "vent": 5077,
      "zess": 5078,
      "ziele": 5079,
      "¾çĹħ": 5080,
      "Â°": 5081,
      "å¦": 5082,
      "çª": 5083,
      "çĻ": 5084,
      "Ġu": 5085,
      "Ġess": 5086,
      "Ġdown": 5087,
      "stein": 5088,
      "statt": 5089,
      "iter": 5090,
      "Ġsw": 5091,
      "reg": 5092,
      "undes": 5093,
      "leist": 5094,
      "ĠSel": 5095,
      "ĠSonnen": 5096,
      "ĠSahne": 5097,
      "Ġmet": 5098,
      "ï¼Ľ": 5099,
      "Ġanges": 5100,
      "ĠAben": 5101,
      "ĠAust": 5102,
      "ĠAugen": 5103,
      "ĠApfel": 5104,
      "Ġpasst": 5105,
      "ĠBot": 5106,
      "Ġhalten": 5107,
      "urm": 5108,
      "Ġkochen": 5109,
      "ollen": 5110,
      "rid": 5111,
      "Ġnatur": 5112,
      "Ġganz": 5113,
      "ĠWer": 5114,
      "ä»¤": 5115,
      "ĠKauf": 5116,
      "ĠMay": 5117,
      "ĠMahl": 5118,
      "ĠMuster": 5119,
      "sequen": 5120,
      "ĠPan": 5121,
      "ĠPersÃ¶nlichkeit": 5122,
      "åı²": 5123,
      "Ġla": 5124,
      "ĠHin": 5125,
      "ĠHimm": 5126,
      "ette": 5127,
      "Ġrevie": 5128,
      "Ġrevolution": 5129,
      "Ã¼rz": 5130,
      "edback": 5131,
      "amell": 5132,
      "Ġverring": 5133,
      "ĠverÃ¶ffent": 5134,
      "bert": 5135,
      "Ġerf": 5136,
      "ister": 5137,
      "åħ´": 5138,
      "ĠLicht": 5139,
      "ĠLook": 5140,
      "ĠLuft": 5141,
      "Ġstill": 5142,
      "iving": 5143,
      "è¯ī": 5144,
      "quellen": 5145,
      "ĠNor": 5146,
      "ĠNahr": 5147,
      "indust": 5148,
      "åºŃ": 5149,
      "nete": 5150,
      "abol": 5151,
      "Ã¤ndern": 5152,
      "çĶ¨çļĦ": 5153,
      "æĿİ": 5154,
      "ĠOn": 5155,
      "ä¼ģ": 5156,
      "Ġschwar": 5157,
      "ĠErk": 5158,
      "è§¦": 5159,
      "ĠkÃ¶nig": 5160,
      "æľīåĬ©": 5161,
      "è¿ĻéĩĮ": 5162,
      "Ġdeb": 5163,
      "Ġ==": 5164,
      "Ġexakten": 5165,
      "Ġwarum": 5166,
      "Ġdarunter": 5167,
      "weisen": 5168,
      "ĠVorteile": 5169,
      "Ġvorsichtig": 5170,
      "ific": 5171,
      "æĭŁ": 5172,
      "ĠGegen": 5173,
      "åĪĨäº«": 5174,
      "å¤ļç§į": 5175,
      "ä½ĵéªĮ": 5176,
      "rieb": 5177,
      "folgen": 5178,
      "ignet": 5179,
      "Ġgewonnen": 5180,
      "ä¹ĭä¸Ģ": 5181,
      "stellt": 5182,
      "Ã¼nsch": 5183,
      "ĠkÃ¶nntest": 5184,
      "gren": 5185,
      "åĪĹåĩº": 5186,
      "Schreibe": 5187,
      "ĠZukun": 5188,
      "arize": 5189,
      "ĠVerbesser": 5190,
      "Ġwobei": 5191,
      "ĠOpus": 5192,
      "ç¾İåĽ½": 5193,
      "è¾ĵåĩº": 5194,
      "å®¹åĻ¨": 5195,
      "ziehen": 5196,
      "ools": 5197,
      "éĢŁåº¦": 5198,
      "æĢ»ç»ĵ": 5199,
      "ights": 5200,
      "çĮ«": 5201,
      "Ġfeel": 5202,
      "ĠDenke": 5203,
      "Ġprice": 5204,
      "Ġprices": 5205,
      "ĠZwei": 5206,
      "ĠVerwenden": 5207,
      "Ġgenerieren": 5208,
      "alyze": 5209,
      "åħ±åĲĮ": 5210,
      "ĠBibel": 5211,
      "éĤ£ä¹Ī": 5212,
      "Ġzeigt": 5213,
      "Ġtransport": 5214,
      "rifft": 5215,
      "Ġperfekt": 5216,
      "Ã¤mpf": 5217,
      "fits": 5218,
      "Ġideas": 5219,
      "çĬ¯": 5220,
      "è®°å½ķ": 5221,
      "ĠOrganisation": 5222,
      "ĠverfÃ¼gbar": 5223,
      "Ġweniger": 5224,
      "ĠWeihn": 5225,
      "é¤Ĳåİħ": 5226,
      "ummarize": 5227,
      "ĠGleichung": 5228,
      "åĸľæ¬¢": 5229,
      "ĠEingab": 5230,
      "Ġcompany": 5231,
      "ĠHilfe": 5232,
      "ĠHÃ¼hn": 5233,
      "ĠBilder": 5234,
      "æī§è¡Į": 5235,
      "çłĶç©¶": 5236,
      "Ġapproach": 5237,
      "Ġbenefits": 5238,
      "æ½ľ": 5239,
      "ĠMillionen": 5240,
      "Ġnatural": 5241,
      "industrie": 5242,
      "æľīåĬ©äºİ": 5243,
      "**": 5244,
      "16": 5245,
      "EO": 5246,
      "It": 5247,
      "Mit": 5248,
      "Mail": 5249,
      "Obj": 5250,
      "System": 5251,
      "Summarize": 5252,
      "Un": 5253,
      "canner": 5254,
      "do": 5255,
      "gred": 5256,
      "jekt": 5257,
      "mig": 5258,
      "name": 5259,
      "ote": 5260,
      "ris": 5261,
      "rische": 5262,
      "sicht": 5263,
      "uted": 5264,
      "zel": 5265,
      "ãģ": 5266,
      "ç¯": 5267,
      "ĠÃ¶ffent": 5268,
      "ĠÃ¤hn": 5269,
      "ĵåĬ±": 5270,
      "enten": 5271,
      "ery": 5272,
      "chie": 5273,
      "chnen": 5274,
      "Ġachie": 5275,
      "ones": 5276,
      "stic": 5277,
      "steine": 5278,
      "itation": 5279,
      "atbot": 5280,
      "atrix": 5281,
      "reise": 5282,
      "reme": 5283,
      "reibt": 5284,
      "orten": 5285,
      "orgen": 5286,
      "orted": 5287,
      "Ġbro": 5288,
      "tete": 5289,
      "Ġfew": 5290,
      "Ġmind": 5291,
      "Ġmeth": 5292,
      "ged": 5293,
      "gether": 5294,
      "Ġvar": 5295,
      "Ġoil": 5296,
      "çļĦæĸ¹æ³ķ": 5297,
      "Ġpie": 5298,
      "ĠBur": 5299,
      "Ġhard": 5300,
      "ingungen": 5301,
      "deten": 5302,
      "hrase": 5303,
      "ĠTomaten": 5304,
      "riere": 5305,
      "äº²": 5306,
      "äºī": 5307,
      "äºļ": 5308,
      "ray": 5309,
      "rach": 5310,
      "raum": 5311,
      "Ġna": 5312,
      "ĠFakten": 5313,
      "ĠFrank": 5314,
      "ĠKir": 5315,
      "ĠKind": 5316,
      "ĠMot": 5317,
      "sehen": 5318,
      "etz": 5319,
      "Ġrem": 5320,
      "Ġtogether": 5321,
      "ĠInc": 5322,
      "Ġoffer": 5323,
      "schrank": 5324,
      "è¿Ķ": 5325,
      "rue": 5326,
      "å®³": 5327,
      "estring": 5328,
      "ĠLi": 5329,
      "ĠAnweisungen": 5330,
      "Ġstatt": 5331,
      "Ġgee": 5332,
      "Ġrate": 5333,
      "ĠStabilitÃ¤t": 5334,
      "ucht": 5335,
      "ĠNamen": 5336,
      "ategor": 5337,
      "éĢĴ": 5338,
      "imal": 5339,
      "ney": 5340,
      "abhÃ¤ng": 5341,
      "Ã¤nde": 5342,
      "Ġfort": 5343,
      "äººåı£": 5344,
      "ĠOber": 5345,
      "Ġschreiben": 5346,
      "Ġwithout": 5347,
      "ellschaft": 5348,
      "åĨ²": 5349,
      "è§ī": 5350,
      "Ġneues": 5351,
      "Ġjava": 5352,
      "åĩł": 5353,
      "ĠspÃ¼r": 5354,
      "Ġspiel": 5355,
      "Ġsprechen": 5356,
      "Ġdebt": 5357,
      "ope": 5358,
      "çĶŁæĢģ": 5359,
      "rÃ¼cken": 5360,
      "åį±": 5361,
      "angle": 5362,
      "loud": 5363,
      "ĠTeams": 5364,
      "å¥ĩ": 5365,
      "ĠenthÃ¤lt": 5366,
      "ization": 5367,
      "ays": 5368,
      "ĠEinsatz": 5369,
      "apan": 5370,
      "æ´ĭ": 5371,
      "å¤§åĪ©": 5372,
      "Ġumfang": 5373,
      "åİĭ": 5374,
      "æĥ¯": 5375,
      "Ġallgem": 5376,
      "æĸĩä»¶": 5377,
      "ä¾ĽåºĶ": 5378,
      "éĻ¤": 5379,
      "è¡¨çİ°": 5380,
      "çº¢": 5381,
      "Ġhoffe": 5382,
      "ĠfÃ¼hl": 5383,
      "éģĹ": 5384,
      "åĬ©æīĭ": 5385,
      "ients": 5386,
      "ĠgewÃ¼nsch": 5387,
      "resh": 5388,
      "ĠSprachen": 5389,
      "éĶ®": 5390,
      "Ġtrack": 5391,
      "æģ©": 5392,
      "çĿ¡": 5393,
      "Ġklar": 5394,
      "Ġklass": 5395,
      "èī¯": 5396,
      "å®¶åºŃ": 5397,
      "ä½łçļĦ": 5398,
      "ĠWeise": 5399,
      "Ġspeich": 5400,
      "Ġbased": 5401,
      "basierten": 5402,
      "Ġdoctor": 5403,
      "ĠUmwelt": 5404,
      "Ġeffective": 5405,
      "ĠGericht": 5406,
      "éļ¾": 5407,
      "ĠAutos": 5408,
      "ä¾ĭåŃĲ": 5409,
      "Ġlangsam": 5410,
      "Ġnums": 5411,
      "è¯įæ±ĩ": 5412,
      "çĸ¾çĹħ": 5413,
      "Ġweiterhin": 5414,
      "Ġermu": 5415,
      "ĠDevelop": 5416,
      "ĠExper": 5417,
      "èº«ä½ĵ": 5418,
      "Ġalgorithms": 5419,
      "ĠZwieb": 5420,
      "Ã¼hlen": 5421,
      "Ġplants": 5422,
      "è§Ĩé¢ĳ": 5423,
      "Provide": 5424,
      "ĠSymbol": 5425,
      "ĠFÃ¤higkeiten": 5426,
      "ĠPflanzen": 5427,
      "åİĨåı²": 5428,
      "ĠFamilien": 5429,
      "ç®¡çĲĨ": 5430,
      "alerweise": 5431,
      "ĠBedÃ¼rf": 5432,
      "Ġ2018": 5433,
      "çĭ¬": 5434,
      "Ġpattern": 5435,
      "ĠWahrheit": 5436,
      "åģļåĩº": 5437,
      "Ġbought": 5438,
      "ĠPlatz": 5439,
      "Ġeinzigartige": 5440,
      "Ġeinzigartigen": 5441,
      "Ġnumbers": 5442,
      "é»ĳ": 5443,
      "Ġschwier": 5444,
      "ĠverfÃ¼gt": 5445,
      "èģĶç³»": 5446,
      "Shirts": 5447,
      "Ġextra": 5448,
      "æ£ĢæŁ¥": 5449,
      "ĠSmart": 5450,
      "Ġinternet": 5451,
      "armon": 5452,
      "èĳĹ": 5453,
      "ĠÃľbersetzung": 5454,
      "Ġinvolves": 5455,
      "æĶ¯æĮģ": 5456,
      "ĠtÃ¤glichen": 5457,
      "Ġfunction": 5458,
      "Ġequation": 5459,
      "Ġarbeiten": 5460,
      "ĠGlÃ¼ck": 5461,
      "Ġsteps": 5462,
      "çıĬ": 5463,
      "klus": 5464,
      "Ġsmall": 5465,
      "Ġprivate": 5466,
      "Ġpossible": 5467,
      "Ġfinancial": 5468,
      "èīºæľ¯": 5469,
      "æ¿Ģ": 5470,
      "Ġelse": 5471,
      "æ¸¸æĪı": 5472,
      "Ġdetaillierte": 5473,
      "ĠJavaScript": 5474,
      "é¼ĵåĬ±": 5475,
      "ributed": 5476,
      "Ġknowledge": 5477,
      "ĠSammlung": 5478,
      "ĠFortsch": 5479,
      "åŃ©åŃĲ": 5480,
      "ĠEinfluss": 5481,
      "Ġsingle": 5482,
      "termine": 5483,
      "åŃĹç¬¦ä¸²": 5484,
      "Ġmetabol": 5485,
      "ä¼ģä¸ļ": 5486,
      "ĠEingabestring": 5487,
      "gredients": 5488,
      "$.": 5489,
      "List": 5490,
      "Sie": 5491,
      "aben": 5492,
      "acc": 5493,
      "bel": 5494,
      "ding": 5495,
      "fri": 5496,
      "fern": 5497,
      "file": 5498,
      "hÃ¶r": 5499,
      "haus": 5500,
      "kÃ¼": 5501,
      "less": 5502,
      "lang": 5503,
      "mals": 5504,
      "misse": 5505,
      "ps": 5506,
      "pri": 5507,
      "raten": 5508,
      "ton": 5509,
      "tte": 5510,
      "yc": 5511,
      "zin": 5512,
      "zunehmen": 5513,
      "èħ": 5514,
      "Ġå¦Ĥæŀľ": 5515,
      "ĩĥ": 5516,
      "enk": 5517,
      "ini": 5518,
      "inal": 5519,
      "inken": 5520,
      "chtz": 5521,
      "Ġdiv": 5522,
      "Ġaud": 5523,
      "stil": 5524,
      "Ġtim": 5525,
      "Ġtrust": 5526,
      "atform": 5527,
      "Ġsqu": 5528,
      "Ġbran": 5529,
      "asm": 5530,
      "Ġfas": 5531,
      "ä¸ĩ": 5532,
      "arth": 5533,
      "eld": 5534,
      "elte": 5535,
      "Ġmess": 5536,
      "Ã¤ter": 5537,
      "ĠAff": 5538,
      "Ġzuvor": 5539,
      "ĠBesch": 5540,
      "ĠBrown": 5541,
      "utes": 5542,
      "deck": 5543,
      "Ġkombin": 5544,
      "ĠTem": 5545,
      "ĠTier": 5546,
      "ĠTower": 5547,
      "ĠTitel": 5548,
      "omet": 5549,
      "Ġbeh": 5550,
      "rad": 5551,
      "raf": 5552,
      "ilt": 5553,
      "ĠWert": 5554,
      "ĠWald": 5555,
      "ĠWÃ¶rter": 5556,
      "ĠFÃ¶r": 5557,
      "ĠKom": 5558,
      "emb": 5559,
      "ierst": 5560,
      "ĠMa": 5561,
      "ĠMal": 5562,
      "ĠMach": 5563,
      "ĠMaÃŁnahmen": 5564,
      "Ġthree": 5565,
      "ĠGanz": 5566,
      "ĠPad": 5567,
      "ĠRei": 5568,
      "ĠRÃ¼ck": 5569,
      "åıĭ": 5570,
      "Ġlust": 5571,
      "Ġlast": 5572,
      "Ġlink": 5573,
      "ĠHistor": 5574,
      "ĠHitze": 5575,
      "bene": 5576,
      "ĠInte": 5577,
      "Ġveran": 5578,
      "Ġvermitteln": 5579,
      "Ġerr": 5580,
      "Ġerre": 5581,
      "å®£": 5582,
      "achk": 5583,
      "achts": 5584,
      "Ġumge": 5585,
      "ĠAnge": 5586,
      "Ġstart": 5587,
      "anne": 5588,
      "ä¸Ģæ¬¡": 5589,
      "Ġrespon": 5590,
      "ĠCook": 5591,
      "ĠCreate": 5592,
      "ĠCanada": 5593,
      "ĠCloud": 5594,
      "Ġ14": 5595,
      "ĠNÃ¤": 5596,
      "iell": 5597,
      "ĠVerstÃ¤nd": 5598,
      "ienen": 5599,
      "ssystem": 5600,
      "åºĵ": 5601,
      "åºľ": 5602,
      "Ã¶ne": 5603,
      "åŃ£": 5604,
      "éĢĶ": 5605,
      "testen": 5606,
      "Ã¤nze": 5607,
      "Ġleb": 5608,
      "aging": 5609,
      "aghet": 5610,
      "ä¼°": 5611,
      "Ġcontain": 5612,
      "ĠschÃ¼tzen": 5613,
      "ĠSpiele": 5614,
      "ĠSpaghet": 5615,
      "eigen": 5616,
      "åĨ»": 5617,
      "ĠErstellung": 5618,
      "ĠÃ¼berprÃ¼fen": 5619,
      "çīĪ": 5620,
      "rÃ¤sen": 5621,
      "llt": 5622,
      "Ġability": 5623,
      "ĠgenieÃŁen": 5624,
      "ctors": 5625,
      "æķ°éĩı": 5626,
      "htt": 5627,
      "halts": 5628,
      "ä¾Ŀ": 5629,
      "å¾ħ": 5630,
      "æĿ¥æºĲ": 5631,
      "æĿ¥è¯´": 5632,
      "ennung": 5633,
      "ä»ĸçļĦ": 5634,
      "Ġteach": 5635,
      "æĬ±": 5636,
      "ĠEinzel": 5637,
      "nissen": 5638,
      "æ´Ĺ": 5639,
      "å®ļæľŁ": 5640,
      "è¾ĳ": 5641,
      "ĠAusland": 5642,
      "æ³ķå¾ĭ": 5643,
      "Ġjedem": 5644,
      "iox": 5645,
      "mooth": 5646,
      "å¸¸è§ģ": 5647,
      "Ġpost": 5648,
      "åħ³éĶ®": 5649,
      "ĠThai": 5650,
      "Ã¤tzen": 5651,
      "åºıåĪĹ": 5652,
      "å°Ĩåħ¶": 5653,
      "reative": 5654,
      "ä¹łæĥ¯": 5655,
      "tellt": 5656,
      "Ġemo": 5657,
      "bote": 5658,
      "ĠWeg": 5659,
      "hlt": 5660,
      "ç¾¤": 5661,
      "Ã¤nger": 5662,
      "æĬĢèĥ½": 5663,
      "Ġcustomers": 5664,
      "Ġgemacht": 5665,
      "åħ·ä½ĵ": 5666,
      "ä¸¤ç§į": 5667,
      "çī¹å¾ģ": 5668,
      "éªĳ": 5669,
      "Ġscience": 5670,
      "æ¶¦": 5671,
      "æµģè¡Į": 5672,
      "çľŁ": 5673,
      "çĸ«": 5674,
      "acebook": 5675,
      "æ¡£": 5676,
      "å±ķç¤º": 5677,
      "å¹³åı°": 5678,
      "rÃ¼cke": 5679,
      "ĠFreunde": 5680,
      "Ġdiffic": 5681,
      "å£°": 5682,
      "ĠMeilen": 5683,
      "Ġgleichzeitig": 5684,
      "ä¼łç»Ł": 5685,
      "ĠzusÃ¤tzlichen": 5686,
      "ĠTextur": 5687,
      "é¥®": 5688,
      "ĠHotel": 5689,
      "auty": 5690,
      "åĨĻä¸Ģ": 5691,
      "ĠgegenÃ¼ber": 5692,
      "Ã¤mpfen": 5693,
      "çĶŁæĪĲä¸Ģä¸ª": 5694,
      "ç¥ŀç»ı": 5695,
      "Ġspezifischen": 5696,
      "ĠerklÃ¤": 5697,
      "Ġdevelopment": 5698,
      "Ġpotenz": 5699,
      "èĮĥ": 5700,
      "é¸Ł": 5701,
      "äºĴåĬ¨": 5702,
      "ĠGrÃ¶": 5703,
      "Ġdirekt": 5704,
      "Ġautomat": 5705,
      "ĠRezep": 5706,
      "Ġhistorische": 5707,
      "åĭĩ": 5708,
      "Ġaktual": 5709,
      "ĠSuche": 5710,
      "ĠErdbe": 5711,
      "ĠEmpf": 5712,
      "æĶ¿åºľ": 5713,
      "ĠWindows": 5714,
      "ĠGerÃ¤us": 5715,
      "ĠKaramell": 5716,
      "ĠPrÃ¤misse": 5717,
      "Ġaufrecht": 5718,
      "agsahne": 5719,
      "éĴŁ": 5720,
      "ĠMenge": 5721,
      "Ġsagte": 5722,
      "ĠServieren": 5723,
      "ĠHerausforderungen": 5724,
      "ĠDarÃ¼ber": 5725,
      "ĠInternet": 5726,
      "æĿĲæĸĻ": 5727,
      "Ġsondern": 5728,
      "ĠhÃ¤ufig": 5729,
      "ĠGrafik": 5730,
      "chitekt": 5731,
      "Ġweltweit": 5732,
      "Ġchinesischen": 5733,
      "Ġpurpose": 5734,
      "è¿ĶåĽŀ": 5735,
      "chtzeit": 5736,
      "!=": 5737,
      "',": 5738,
      "18": 5739,
      "90": 5740,
      "Blob": 5741,
      "Cal": 5742,
      "Edit": 5743,
      "IM": 5744,
      "abe": 5745,
      "aign": 5746,
      "buch": 5747,
      "cour": 5748,
      "dung": 5749,
      "ever": 5750,
      "fÃ¤ll": 5751,
      "gon": 5752,
      "hol": 5753,
      "joy": 5754,
      "kÃ¼n": 5755,
      "ogen": 5756,
      "rent": 5757,
      "ses": 5758,
      "tle": 5759,
      "ward": 5760,
      "wÃ¤hlen": 5761,
      "zahlen": 5762,
      "çĩĥ": 5763,
      "Ġur": 5764,
      "Ġeit": 5765,
      "ĠåĴĮ": 5766,
      "Ġ!=": 5767,
      "Ġdinner": 5768,
      "Ġav": 5769,
      "Ġamo": 5770,
      "este": 5771,
      "estens": 5772,
      "onym": 5773,
      "stes": 5774,
      "Ġtesting": 5775,
      "Ġsum": 5776,
      "Ġsod": 5777,
      "Ġsame": 5778,
      "Ġsauce": 5779,
      "Ġsituation": 5780,
      "hed": 5781,
      "head": 5782,
      "Ġwunder": 5783,
      "letz": 5784,
      "Ġbow": 5785,
      "tect": 5786,
      "teilen": 5787,
      "ĠStimm": 5788,
      "ĠStil": 5789,
      "ĠService": 5790,
      "Ġfield": 5791,
      "Ã¼l": 5792,
      "Ġinstall": 5793,
      "Ġintrodu": 5794,
      "Ġmuch": 5795,
      "Ġmaterial": 5796,
      "ï¼ģ": 5797,
      "zubereiten": 5798,
      "tist": 5799,
      "ĠAuÃŁer": 5800,
      "ĠAmeric": 5801,
      "Ġzug": 5802,
      "Ġown": 5803,
      "çļĦå·¥ä½ľ": 5804,
      "Ġprin": 5805,
      "ĠBand": 5806,
      "ĠBab": 5807,
      "ĠBundes": 5808,
      "Ġhaup": 5809,
      "Ġcol": 5810,
      "Ġcaus": 5811,
      "Ġcup": 5812,
      "Ġclimate": 5813,
      "Ġcredit": 5814,
      "uts": 5815,
      "urt": 5816,
      "ury": 5817,
      "ĠDir": 5818,
      "umente": 5819,
      "ĠTau": 5820,
      "Ã¶ch": 5821,
      "Ã¶nen": 5822,
      "Ġbeauty": 5823,
      "ĠEchtzeit": 5824,
      "Ġnet": 5825,
      "Ġnature": 5826,
      "ĠWhat": 5827,
      "ufe": 5828,
      "ĠKur": 5829,
      "ĠKek": 5830,
      "ĠKraft": 5831,
      "ĠMer": 5832,
      "ĠGar": 5833,
      "seite": 5834,
      "ĠRu": 5835,
      "ĠRis": 5836,
      "ĠHaus": 5837,
      "ĠHado": 5838,
      "iges": 5839,
      "igten": 5840,
      "ĠVier": 5841,
      "Ġoften": 5842,
      "Ġverw": 5843,
      "schlieÃŁ": 5844,
      "Ġerinn": 5845,
      "Ġallen": 5846,
      "åħ»": 5847,
      "å¤´": 5848,
      "ĠLieb": 5849,
      "ĠAnim": 5850,
      "Ġstell": 5851,
      "Ġstruktur": 5852,
      "Ġdenk": 5853,
      "annung": 5854,
      "Ġgeht": 5855,
      "Ġgehen": 5856,
      "åĬ¿": 5857,
      "ä¸Ģå¤©": 5858,
      "auer": 5859,
      "Ġrestaurant": 5860,
      "ĠSta": 5861,
      "ull": 5862,
      "ĠCor": 5863,
      "ĠCub": 5864,
      "ĠVerhalten": 5865,
      "Ġprogramm": 5866,
      "åĲĹ": 5867,
      "sprÃ¼n": 5868,
      "ĠSchok": 5869,
      "ĠScheiben": 5870,
      "Ġcomput": 5871,
      "Ġhapp": 5872,
      "ĠObwohl": 5873,
      "å°Ķ": 5874,
      "å°Ŀ": 5875,
      "ä¼¼": 5876,
      "ĠBezug": 5877,
      "Ġschwer": 5878,
      "ä¸ºæĤ¨": 5879,
      "elling": 5880,
      "ĠErbsen": 5881,
      "adurch": 5882,
      "Ġcomplex": 5883,
      "è¿Ļä¸Ģ": 5884,
      "cture": 5885,
      "æł¸": 5886,
      "åįĹ": 5887,
      "åĮ»": 5888,
      "tiger": 5889,
      "ĠAufgaben": 5890,
      "å¾·": 5891,
      "weil": 5892,
      "weck": 5893,
      "weet": 5894,
      "udeln": 5895,
      "udget": 5896,
      "izin": 5897,
      "å¿Ĩ": 5898,
      "æĬĬ": 5899,
      "ĠEinheiten": 5900,
      "lÃ¤tter": 5901,
      "æĪĳçļĦ": 5902,
      "Ġhinter": 5903,
      "Ġcook": 5904,
      "æ´ģ": 5905,
      "åºĶå½ĵ": 5906,
      "è´§": 5907,
      "ç¨³": 5908,
      "timme": 5909,
      "åĵª": 5910,
      "å¹¶ä¸į": 5911,
      "artner": 5912,
      "artoff": 5913,
      "Ġethical": 5914,
      "Ġmehreren": 5915,
      "æĪĸèĢħ": 5916,
      "è®¡åĪĴ": 5917,
      "Ã¤lle": 5918,
      "è¡¨è¾¾": 5919,
      "Ġherum": 5920,
      "éģµ": 5921,
      "Ġzweiten": 5922,
      "ressed": 5923,
      "Ġsuchen": 5924,
      "Ġklingt": 5925,
      "Ġseason": 5926,
      "asta": 5927,
      "ĊĠĠĠĠĠĠĠĠĊĠĠĠĠĠĠĠ": 5928,
      "setzung": 5929,
      "gression": 5930,
      "ä¹Łåı¯ä»¥": 5931,
      "Analyze": 5932,
      "Ġoutput": 5933,
      "ocus": 5934,
      "ocument": 5935,
      "Ġgesam": 5936,
      "åıĺéĩı": 5937,
      "åĪ¶ä½ľ": 5938,
      "ĠSpiels": 5939,
      "Ġeffects": 5940,
      "è®¾å¤ĩ": 5941,
      "éĥ¨åĪĨ": 5942,
      "Ġ60": 5943,
      "produ": 5944,
      "é©¾": 5945,
      "å¼ķæĵ": 5946,
      "è¶£": 5947,
      "è¶ħ": 5948,
      "å½¢å¼ı": 5949,
      "æİĴæĶ¾": 5950,
      "æĤ¨çļĦç½ĳç«Ļ": 5951,
      "ĠreprÃ¤sen": 5952,
      "Ġresources": 5953,
      "Ġtypically": 5954,
      "èĲ½": 5955,
      "Ġbelie": 5956,
      "æŃ£åľ¨": 5957,
      "Ġdisco": 5958,
      "Ġminutes": 5959,
      "Ġgoing": 5960,
      "Ġmarket": 5961,
      "ĠBetaxolol": 5962,
      "ĠTrain": 5963,
      "Ġapplicant": 5964,
      "ĠBesucher": 5965,
      "ĠMeer": 5966,
      "è§£åĨ³éĹ®é¢ĺ": 5967,
      "Ġgleiche": 5968,
      "ampaign": 5969,
      "Ġgebracht": 5970,
      "Ġstatic": 5971,
      "Ġstatement": 5972,
      "ĠErfahrungen": 5973,
      "è®¾è®¡æĢĿç»´": 5974,
      "ĠbegrÃ¼nde": 5975,
      "ĠSchlagsahne": 5976,
      "èĮ¨": 5977,
      "ĠStudie": 5978,
      "ĠStudio": 5979,
      "Ġcreating": 5980,
      "Ġactiv": 5981,
      "Ġacross": 5982,
      "ĠHafer": 5983,
      "éĻįä½İ": 5984,
      "çĽ´æİ¥": 5985,
      "æ£Ģç´¢": 5986,
      "éĵģ": 5987,
      "Ġfriend": 5988,
      "inguine": 5989,
      "scheinlich": 5990,
      "figur": 5991,
      "Ġneeds": 5992,
      "Ġspecial": 5993,
      "è£ħ": 5994,
      "Ġperformance": 5995,
      "Ġeconomy": 5996,
      "ĠKammer": 5997,
      "Ġevery": 5998,
      "è´Ńä¹°": 5999,
      "Ġobject": 6000,
      "Ġpolitical": 6001,
      "Ġsuccessful": 6002,
      "ĠBasil": 6003,
      "Ġissues": 6004,
      "ĠWettk": 6005,
      "Ġmobile": 6006,
      "fÃ¤higkeiten": 6007,
      "ĠBereich": 6008,
      "çĽĳçĿ£": 6009,
      "Ġirgend": 6010,
      "Ġkulturelle": 6011,
      "ĠGebÃ¤ude": 6012,
      "Ġbehandeln": 6013,
      "ĠlÃ¤sst": 6014,
      "æīįèĥ½": 6015,
      "ĠerwÃ¤hnt": 6016,
      "çªģ": 6017,
      "ĠBotschaft": 6018,
      "Ġverringern": 6019,
      "Ġtransportation": 6020,
      "ĠWeihnachts": 6021,
      "ĠHÃ¼hnchen": 6022,
      "ç¯ĩ": 6023,
      "Ġmetabolism": 6024,
      "Ġfaszin": 6025,
      "ĠVerstÃ¤ndnis": 6026,
      "ĠSpaghetti": 6027,
      "Ġeither": 6028,
      "Ġsodass": 6029,
      "ĠAuÃŁerdem": 6030,
      "Ġhaupts": 6031,
      "ĠHadoop": 6032,
      "å¼ķæĵİ": 6033,
      "\")": 6034,
      ".,": 6035,
      "17": 6036,
      "://": 6037,
      "EM": 6038,
      "For": 6039,
      "On": 6040,
      "Ph": 6041,
      "WÃ¤hrend": 6042,
      "Zutaten": 6043,
      "ared": 6044,
      "cer": 6045,
      "data": 6046,
      "dings": 6047,
      "gte": 6048,
      "ham": 6049,
      "hio": 6050,
      "iod": 6051,
      "kauf": 6052,
      "liven": 6053,
      "lings": 6054,
      "ml": 6055,
      "mp": 6056,
      "mischung": 6057,
      "nam": 6058,
      "oche": 6059,
      "ough": 6060,
      "person": 6061,
      "rÃ¶": 6062,
      "sons": 6063,
      "witter": 6064,
      "zÃ¤h": 6065,
      "±ä¹Ĳ": 6066,
      "çĨ": 6067,
      "ĊĊĠ": 6068,
      "ĠÃ¤": 6069,
      "Ġå¹´": 6070,
      "Ġedu": 6071,
      "ende": 6072,
      "inst": 6073,
      "Ġdort": 6074,
      "itle": 6075,
      "Ġsure": 6076,
      "Ġsymbol": 6077,
      "orial": 6078,
      "heim": 6079,
      "Ġwoll": 6080,
      "teuer": 6081,
      "ĠSon": 6082,
      "ĠSÃ¤": 6083,
      "ĠSum": 6084,
      "ĠSet": 6085,
      "Ġfal": 6086,
      "Ġfil": 6087,
      "Ġfig": 6088,
      "Ġfok": 6089,
      "ä¸°": 6090,
      "ä¸¾": 6091,
      "ars": 6092,
      "arah": 6093,
      "Ġmag": 6094,
      "rotz": 6095,
      "çļĦç»ı": 6096,
      "çļĦå½±åĵį": 6097,
      "ush": 6098,
      "urst": 6099,
      "ĠDate": 6100,
      "ĠDunk": 6101,
      "Ġkommen": 6102,
      "Ġkurz": 6103,
      "hrasen": 6104,
      "rift": 6105,
      "riffen": 6106,
      "Ġgold": 6107,
      "ä»į": 6108,
      "ĠFein": 6109,
      "ĠKosten": 6110,
      "ĠKohlen": 6111,
      "ĠMission": 6112,
      "ĠMiss": 6113,
      "Ġthese": 6114,
      "ĠGet": 6115,
      "ĠGib": 6116,
      "ĠPass": 6117,
      "ĠPort": 6118,
      "irl": 6119,
      "ĠRes": 6120,
      "åıī": 6121,
      "Ġlow": 6122,
      "Ġloc": 6123,
      "Ġlong": 6124,
      "ĠInsp": 6125,
      "ĠViet": 6126,
      "Ġvermei": 6127,
      "Ġverhin": 6128,
      "Ġversuch": 6129,
      "çĶľ": 6130,
      "Ġaltern": 6131,
      "åĪĩ": 6132,
      "ĠLage": 6133,
      "bewer": 6134,
      "ĠAnaly": 6135,
      "Ġmitt": 6136,
      "ç»Ŀ": 6137,
      "ĠStarb": 6138,
      "ulieren": 6139,
      "utzt": 6140,
      "ĠCO": 6141,
      "uchs": 6142,
      "Ġessen": 6143,
      "ĠVerkehr": 6144,
      "ĠVerlust": 6145,
      "Ġuner": 6146,
      "è®¨": 6147,
      "åºĹ": 6148,
      "ĠUr": 6149,
      "agno": 6150,
      "ĠausschlieÃŁlich": 6151,
      "ĠObst": 6152,
      "ĠOliven": 6153,
      "åĽĽ": 6154,
      "ä¼¦": 6155,
      "éĩİ": 6156,
      "å¼ĥ": 6157,
      "Ġ25": 6158,
      "ä¸ºäºĨ": 6159,
      "ĠErlebnis": 6160,
      "Ġnecess": 6161,
      "ĠRegel": 6162,
      "ody": 6163,
      "åį«": 6164,
      "Ġhatten": 6165,
      "Ã¶rper": 6166,
      "äºĨä¸Ģ": 6167,
      "ĠTex": 6168,
      "ĠAufsÃ¤tz": 6169,
      "wegung": 6170,
      "æŃī": 6171,
      "ĊĠĠĠĠĠ": 6172,
      "è¿ĩåİ»": 6173,
      "merikan": 6174,
      "Ġpast": 6175,
      "Ġens": 6176,
      "ungsm": 6177,
      "åľ°åĮº": 6178,
      "å®ļçļĦ": 6179,
      "ideo": 6180,
      "è´£": 6181,
      "Ġweather": 6182,
      "baren": 6183,
      "Ġallow": 6184,
      "ç¨ĭåº¦": 6185,
      "æĸĩæ¡£": 6186,
      "bereitet": 6187,
      "æ¯Ľ": 6188,
      "ä¸Ĭåįĩ": 6189,
      "éĺ¶": 6190,
      "werten": 6191,
      "ublik": 6192,
      "Ġ2019": 6193,
      "Ġ2021": 6194,
      "osition": 6195,
      "Ġmanage": 6196,
      "ĠChurch": 6197,
      "ĠChina": 6198,
      "ologie": 6199,
      "ĠunterstÃ¼tzt": 6200,
      "æıĲä¾ĽäºĨ": 6201,
      "ĠAlb": 6202,
      "Ġperiod": 6203,
      "Ġtravel": 6204,
      "ĠberÃ¼h": 6205,
      "avig": 6206,
      "åĪĽæĦı": 6207,
      "æĦŁåĪ°": 6208,
      "æĦŁåıĹ": 6209,
      "æĦŁæģ©": 6210,
      "ips": 6211,
      "èĥ½å¤Łå¸®åĬ©": 6212,
      "setzt": 6213,
      "åĽłç´ł": 6214,
      "ĠwÃ¼rz": 6215,
      "éĥ½æĺ¯": 6216,
      "Anleitung": 6217,
      "plos": 6218,
      "arbeitung": 6219,
      "å½ĵåľ°": 6220,
      "åıĺå¾Ĺ": 6221,
      "é¡º": 6222,
      "ĠMitte": 6223,
      "æłĩé¢ĺ": 6224,
      "ollege": 6225,
      "ĠUmgeb": 6226,
      "åºĶçĶ¨çļĦ": 6227,
      "Ġgeschnitten": 6228,
      "ĠprÃ¤sen": 6229,
      "éļľ": 6230,
      "ĠAdd": 6231,
      "ĠNachrichten": 6232,
      "èĬĤçĤ¹": 6233,
      "Ġbetter": 6234,
      "Ġbetrifft": 6235,
      "æ·»": 6236,
      "èī²çļĦ": 6237,
      "Ġeinzel": 6238,
      "æī¾åĩº": 6239,
      "æĶ¹åĸĦ": 6240,
      "Ġupon": 6241,
      "ittle": 6242,
      "çº¿æĢ§": 6243,
      "æĮĩæķ°": 6244,
      "KÃ¶nnten": 6245,
      "æ¯ıä¸ª": 6246,
      "ç¼ĵ": 6247,
      "è°ĥæķ´": 6248,
      "Ġplatform": 6249,
      "immt": 6250,
      "____": 6251,
      "èĥĮ": 6252,
      "ç§ĳåŃ¦": 6253,
      "redict": 6254,
      "culate": 6255,
      "Ġbreak": 6256,
      "ĠLÃ¤nge": 6257,
      "çĭĹ": 6258,
      "èįī": 6259,
      "éļıçĿĢ": 6260,
      "ĠIdee": 6261,
      "èģĮä½į": 6262,
      "é£İéĻ©": 6263,
      "ĠgrÃ¶ÃŁte": 6264,
      "idenz": 6265,
      "Ġidentify": 6266,
      "å¤ªéĺ³ç³»": 6267,
      "ĠfÃ¼hrte": 6268,
      "å¸¦æĿ¥äºĨ": 6269,
      "ĠEngl": 6270,
      "ĠFrancis": 6271,
      "ĠVeranstaltung": 6272,
      "braun": 6273,
      "ĠProtein": 6274,
      "stagram": 6275,
      "Ġinspi": 6276,
      "Ġcommon": 6277,
      "ĠPaprik": 6278,
      "ĠJackson": 6279,
      "Ġunserer": 6280,
      "irmationen": 6281,
      "This": 6282,
      "Ġerwarten": 6283,
      "Ġnormalerweise": 6284,
      "èĩªåĬ¨åĮĸ": 6285,
      "ampagnen": 6286,
      "self": 6287,
      "stungskontro": 6288,
      "Ġfunktioniert": 6289,
      "Ġmental": 6290,
      "è¿ŀæİ¥": 6291,
      "ĠStraÃŁen": 6292,
      "nussbutter": 6293,
      "ĠNapole": 6294,
      "Ġrechtfertige": 6295,
      "ĠHummerschwÃ¤nze": 6296,
      "ĠSelbst": 6297,
      "æ½ľåľ¨": 6298,
      "Ġmindestens": 6299,
      "ĠfÃ¼hlte": 6300,
      "ĠAffirmationen": 6301,
      "ĠNÃ¤he": 6302,
      "sprÃ¼ng": 6303,
      "ĠBasilik": 6304,
      "çĽĳçĿ£åŃ¦ä¹ł": 6305,
      "ĠhauptsÃ¤chlich": 6306,
      "Ġfokuss": 6307,
      "ĠVietnam": 6308,
      "Ġvermeiden": 6309,
      "Ġverhindern": 6310,
      "ĠOlivenÃ¶l": 6311,
      "ĠberÃ¼hm": 6312,
      "æĦŁæģ©èĬĤ": 6313,
      "$,": 6314,
      "+\\": 6315,
      "</": 6316,
      "Be": 6317,
      "Bitte": 6318,
      "Cash": 6319,
      "EG": 6320,
      "EL": 6321,
      "Give": 6322,
      "HI": 6323,
      "NN": 6324,
      "No": 6325,
      "Suggest": 6326,
      "Wow": 6327,
      "aft": 6328,
      "care": 6329,
      "die": 6330,
      "driv": 6331,
      "funktion": 6332,
      "flocken": 6333,
      "gh": 6334,
      "gfÃ¤l": 6335,
      "hil": 6336,
      "hop": 6337,
      "handen": 6338,
      "iance": 6339,
      "kten": 6340,
      "ktiv": 6341,
      "list": 6342,
      "lassen": 6343,
      "lage": 6344,
      "lÃ¶ffel": 6345,
      "ming": 6346,
      "nehm": 6347,
      "oons": 6348,
      "pi": 6349,
      "python": 6350,
      "plÃ¤tz": 6351,
      "sein": 6352,
      "service": 6353,
      "suppe": 6354,
      "tÃ¤": 6355,
      "ting": 6356,
      "utions": 6357,
      "volle": 6358,
      "wÃ¤r": 6359,
      "yle": 6360,
      "zw": 6361,
      "zz": 6362,
      "zÃ¶s": 6363,
      "zogen": 6364,
      "¦é¹": 6365,
      "âĺ": 6366,
      "çĳ": 6367,
      "è¸": 6368,
      "èĽ": 6369,
      "éŀĭ": 6370,
      "ĠX": 6371,
      "enet": 6372,
      "energie": 6373,
      "erdings": 6374,
      "ino": 6375,
      "chmal": 6376,
      "Ġdiox": 6377,
      "Ġaff": 6378,
      "Ġafter": 6379,
      "Ġaway": 6380,
      "esis": 6381,
      "esse": 6382,
      "unts": 6383,
      "ied": 6384,
      "Ġtun": 6385,
      "Ġtabl": 6386,
      "atis": 6387,
      "Ġsun": 6388,
      "Ġsides": 6389,
      "Ġsha": 6390,
      "Ġsachk": 6391,
      "reig": 6392,
      "undiger": 6393,
      "Ġwent": 6394,
      "Ġwusste": 6395,
      "Ġwachsen": 6396,
      "Ġwaste": 6397,
      "isiert": 6398,
      "Ġbi": 6399,
      "Ġbein": 6400,
      "Ġblo": 6401,
      "Ġbright": 6402,
      "Ġbillion": 6403,
      "ĠSoc": 6404,
      "ĠSlow": 6405,
      "ĠSeller": 6406,
      "Ġflo": 6407,
      "Ġfocus": 6408,
      "timent": 6409,
      "tiken": 6410,
      "Ġzuzubereiten": 6411,
      "çļĦè¡Į": 6412,
      "çļĦä¿¡æģ¯": 6413,
      "çļĦç»ıæµİ": 6414,
      "Ġhim": 6415,
      "Ġhoh": 6416,
      "Ġhalf": 6417,
      "Ġharmon": 6418,
      "Ġcm": 6419,
      "Ġcampaign": 6420,
      "uture": 6421,
      "ĠDra": 6422,
      "ĠDrache": 6423,
      "ĠIdentif": 6424,
      "ders": 6425,
      "ĠTopf": 6426,
      "ĠTrends": 6427,
      "ungsp": 6428,
      "Ã¶se": 6429,
      "Ġbele": 6430,
      "Ġbeau": 6431,
      "ĠEis": 6432,
      "Ġnun": 6433,
      "Ġnation": 6434,
      "Ġnehmen": 6435,
      "Ġgu": 6436,
      "Ġgab": 6437,
      "ĠWÃ¤hr": 6438,
      "ĠWaffen": 6439,
      "ĠWurz": 6440,
      "ĠKÃ¤tz": 6441,
      "ĠKochen": 6442,
      "ĠMil": 6443,
      "Ġthird": 6444,
      "ĠGener": 6445,
      "ĠGruppe": 6446,
      "ĠPil": 6447,
      "ĠRob": 6448,
      "ĠRedu": 6449,
      "Ġlate": 6450,
      "ĠlÃ¶st": 6451,
      "etit": 6452,
      "Ġref": 6453,
      "Ġtoday": 6454,
      "Ġvertra": 6455,
      "æľ¨": 6456,
      "è¿İ": 6457,
      "è¿Ń": 6458,
      "Ġerheb": 6459,
      "espoons": 6460,
      "Ġumwelt": 6461,
      "ĠAnforderungen": 6462,
      "ĠstÃ¤r": 6463,
      "andom": 6464,
      "åĬ³": 6465,
      "åľ£": 6466,
      "auber": 6467,
      "ĠStu": 6468,
      "ĠStÃ¤t": 6469,
      "ception": 6470,
      "ĠCity": 6471,
      "è¯¢": 6472,
      "ĠNational": 6473,
      "ĠVergleich": 6474,
      "Ġunbe": 6475,
      "è®²": 6476,
      "verse": 6477,
      "æķ¢": 6478,
      "æĺ¯ä»Ģä¹Ī": 6479,
      "zep": 6480,
      "zept": 6481,
      "Ã¤ngen": 6482,
      "Ã¤nder": 6483,
      "çĶ¨çĶµ": 6484,
      "Ġwirtschaft": 6485,
      "Ġhaving": 6486,
      "agraph": 6487,
      "Ġausgew": 6488,
      "Ġausprobieren": 6489,
      "ĠOut": 6490,
      "ĠOhio": 6491,
      "å¸Ī": 6492,
      "ĠBeg": 6493,
      "Ġscheint": 6494,
      "ellent": 6495,
      "ĠErstellen": 6496,
      "Ġjust": 6497,
      "ott": 6498,
      "å¯»": 6499,
      "xtra": 6500,
      "ä¸Ńä½į": 6501,
      "Ġinstructions": 6502,
      "æīĺ": 6503,
      "æķ°ç»Ħ": 6504,
      "ä¸įè¦ģ": 6505,
      "åį°": 6506,
      "åĮĹ": 6507,
      "ĠUnzen": 6508,
      "Ã¶rsen": 6509,
      "lauf": 6510,
      "å¥¶": 6511,
      "range": 6512,
      "Ġentfer": 6513,
      "Ġmole": 6514,
      "izing": 6515,
      "iziert": 6516,
      "å¿ħ": 6517,
      "ĠEinblick": 6518,
      "æĪĳæĹłæ³ķ": 6519,
      "ape": 6520,
      "æĽ¿": 6521,
      "âĢ¢": 6522,
      "æĪĲæľ¬": 6523,
      "ided": 6524,
      "åĪĨç±»": 6525,
      "æĢ§åĴĮ": 6526,
      "Ġchatbot": 6527,
      "Ã¤rm": 6528,
      "Ġincome": 6529,
      "troffen": 6530,
      "Ġallows": 6531,
      "æ¯Ĵ": 6532,
      "yster": 6533,
      "å±±": 6534,
      "å±ŀ": 6535,
      "æĻļ": 6536,
      "Ġartificial": 6537,
      "æľĢç»Ī": 6538,
      "Ġherz": 6539,
      "ĠBehÃ¤lter": 6540,
      "åĽ½çİĭ": 6541,
      "tiful": 6542,
      "ultant": 6543,
      "aves": 6544,
      "Ġmeal": 6545,
      "ï¼īï¼Į": 6546,
      "ĠÃľberleben": 6547,
      "çļĦçŁ": 6548,
      "ĠUnterschied": 6549,
      "fragen": 6550,
      "å¾ĹåĪ°": 6551,
      "Ġadvert": 6552,
      "åı¥è¯Ŀ": 6553,
      "wendungen": 6554,
      "ĠMittel": 6555,
      "Ġdoes": 6556,
      "ĠKundenservice": 6557,
      "æ¨¡å¼ı": 6558,
      "Ġtree": 6559,
      "åħ¬åħ±": 6560,
      "åĲĪä½ľ": 6561,
      "erkennung": 6562,
      "ĠGemÃ¤l": 6563,
      "ç½ĳé¡µ": 6564,
      "é¦Ĩ": 6565,
      "Ġ199": 6566,
      "çİ¯ä¿Ŀ": 6567,
      "zieht": 6568,
      "Ġincreases": 6569,
      "è·ĳ": 6570,
      "çī¹çĤ¹": 6571,
      "é£Łçī©": 6572,
      "é£Łåĵģ": 6573,
      "ç³»ç»ŁçļĦ": 6574,
      "Ġoptions": 6575,
      "è¶Ĭ": 6576,
      "æ¯Ķå¦Ĥ": 6577,
      "wirken": 6578,
      "æķĪçİĩ": 6579,
      "teilung": 6580,
      "ĠExam": 6581,
      "è¯Ŀé¢ĺ": 6582,
      "éĢĤå½ĵ": 6583,
      "Ġdifferen": 6584,
      "ç¼º": 6585,
      "Ġplant": 6586,
      "ĠForsch": 6587,
      "ĠCount": 6588,
      "æķ´ä¸ª": 6589,
      "Ġfreuen": 6590,
      "Ġgeboren": 6591,
      "Ġfolgende": 6592,
      "åĿı": 6593,
      "ĠBackp": 6594,
      "erstand": 6595,
      "Ġ<<": 6596,
      "ĠGedicht": 6597,
      "Ġparagraph": 6598,
      "Ġaccurate": 6599,
      "Ġaccurately": 6600,
      "itzer": 6601,
      "ĠKÃ¶nnen": 6602,
      "éļıæľº": 6603,
      "ĠsorgfÃ¤l": 6604,
      "åıĤä¸İ": 6605,
      "é©¬æĸ¯": 6606,
      "æ»¡æĦı": 6607,
      "airo": 6608,
      "è¯Ħä¼°": 6609,
      "Ġautomate": 6610,
      "æľªæĿ¥": 6611,
      "è½¬æį¢": 6612,
      "Ġwichtigsten": 6613,
      "Ġbusinesses": 6614,
      "Ġganze": 6615,
      "Ġglobal": 6616,
      "Ġadvant": 6617,
      "Ġadvice": 6618,
      "Ġwahrscheinlich": 6619,
      "ĠWerkzeug": 6620,
      "é¹¦é¹": 6621,
      "Ġpredictions": 6622,
      "ĠergÃ¤n": 6623,
      "Ġprofession": 6624,
      "Ġvegetar": 6625,
      "æĵį": 6626,
      "ĠpersÃ¶nlichen": 6627,
      "uspen": 6628,
      "äºĮåıī": 6629,
      "ĠKÃ¼hl": 6630,
      "Ġrecognition": 6631,
      "freundliche": 6632,
      "Ġdistributed": 6633,
      "Ġwidersp": 6634,
      "Ġcomfort": 6635,
      "Ġlived": 6636,
      "åĨ³çŃĸæłĳ": 6637,
      "æĲľç´¢å¼ķæĵİ": 6638,
      "ĠâĢĵ": 6639,
      "Ġnamens": 6640,
      "Ġgrammar": 6641,
      "ĠausfÃ¼hrst": 6642,
      "ĠausfÃ¼hrliche": 6643,
      "ç§»åĬ¨": 6644,
      "Geben": 6645,
      "Ġbuild": 6646,
      "Ġvoice": 6647,
      "Ġcurrent": 6648,
      "äºĶä¸ª": 6649,
      "ĠRÃ¼stungskontro": 6650,
      "effizien": 6651,
      "Ġtriangle": 6652,
      "ĠBias": 6653,
      "ĠTrans": 6654,
      "Ġconflic": 6655,
      "æ¦Ĥå¿µ": 6656,
      "Ġwriting": 6657,
      "ĠKatze": 6658,
      "Ġeventually": 6659,
      "ĠGeschÃ¤fts": 6660,
      "Identify": 6661,
      "aptop": 6662,
      "ĠLeistung": 6663,
      "ĠSQS": 6664,
      "Ġlautet": 6665,
      "Ġerfolgreich": 6666,
      "Ġquestion": 6667,
      "ĠKombination": 6668,
      "ĠVereinigten": 6669,
      "Ġatmosphere": 6670,
      "ĠEntscheid": 6671,
      "ĠJedes": 6672,
      "ĠErgebnisse": 6673,
      "ĠImplementierung": 6674,
      "Ġpractice": 6675,
      "çĻ½": 6676,
      "leistungen": 6677,
      "Ġangesehen": 6678,
      "Ġlaunch": 6679,
      "Ġreview": 6680,
      "ĠNahrungs": 6681,
      "risis": 6682,
      "Ġmethod": 6683,
      "Ġnahe": 6684,
      "Ġumfangreiche": 6685,
      "Ġpatterns": 6686,
      "Ġsquare": 6687,
      "æĬ±æŃī": 6688,
      "Calculate": 6689,
      "ĠStimmung": 6690,
      "ĠBabys": 6691,
      "ĠBundessta": 6692,
      "Ġnetwork": 6693,
      "schlieÃŁend": 6694,
      "Ġdenkst": 6695,
      "é©¾é©¶": 6696,
      "zÃ¤hlung": 6697,
      "Ġfigure": 6698,
      "Ġgoldbraun": 6699,
      "ä»įçĦ¶": 6700,
      "Ġdioxide": 6701,
      "Ġtablespoons": 6702,
      "Ġbeautiful": 6703,
      "ĠKÃ¤tzchen": 6704,
      "ä¸Ńä½įæķ°": 6705,
      "é¹¦é¹ī": 6706,
      "\";": 6707,
      "')": 6708,
      "13": 6709,
      "45": 6710,
      "80": 6711,
      "83": 6712,
      "AS": 6713,
      "All": 6714,
      "Daten": 6715,
      "Ste": 6716,
      "TP": 6717,
      "Wir": 6718,
      "ave": 6719,
      "bas": 6720,
      "cted": 6721,
      "eb": 6722,
      "gre": 6723,
      "hÃ¶": 6724,
      "hlen": 6725,
      "hause": 6726,
      "ject": 6727,
      "kom": 6728,
      "kommt": 6729,
      "log": 6730,
      "lern": 6731,
      "mm": 6732,
      "med": 6733,
      "py": 6734,
      "plo": 6735,
      "punkte": 6736,
      "public": 6737,
      "rum": 6738,
      "risch": 6739,
      "sber": 6740,
      "side": 6741,
      "uell": 6742,
      "wein": 6743,
      "zÃ¼": 6744,
      "zierung": 6745,
      "çĵ": 6746,
      "èĶ": 6747,
      "ĊĠĠ": 6748,
      "Ġ%": 6749,
      "ĠâĢľ": 6750,
      "Ĭå¤©": 6751,
      "ŀäºī": 6752,
      "erve": 6753,
      "eria": 6754,
      "ination": 6755,
      "index": 6756,
      "ĠdÃ¼n": 6757,
      "Ġaim": 6758,
      "Ġaverage": 6759,
      "iete": 6760,
      "ieben": 6761,
      "ieÃŁe": 6762,
      "stleistungen": 6763,
      "Ġtaking": 6764,
      "itzen": 6765,
      "atory": 6766,
      "Ġsett": 6767,
      "reden": 6768,
      "andem": 6769,
      "anana": 6770,
      "heben": 6771,
      "Ġwant": 6772,
      "Ġwild": 6773,
      "Ġbat": 6774,
      "Ġble": 6775,
      "Ġbody": 6776,
      "ĠSauce": 6777,
      "ĠSarah": 6778,
      "Ġfl": 6779,
      "Ġfer": 6780,
      "Ġfar": 6781,
      "Ġfrei": 6782,
      "eland": 6783,
      "Ġmust": 6784,
      "Ġmight": 6785,
      "alif": 6786,
      "alorien": 6787,
      "Ġans": 6788,
      "room": 6789,
      "genp": 6790,
      "gens": 6791,
      "çļ®": 6792,
      "çļĦæĺ¯": 6793,
      "Ġphrase": 6794,
      "ĠBu": 6795,
      "ĠBall": 6796,
      "ĠBaum": 6797,
      "ĠBrid": 6798,
      "Ġcor": 6799,
      "Ġcrem": 6800,
      "utsch": 6801,
      "utern": 6802,
      "ĠDok": 6803,
      "ĠDadurch": 6804,
      "ĠTiere": 6805,
      "rier": 6806,
      "rizen": 6807,
      "omor": 6808,
      "ĠEl": 6809,
      "ĠEle": 6810,
      "Ġnow": 6811,
      "iler": 6812,
      "ĠgrÃ¼": 6813,
      "Ġglau": 6814,
      "entuck": 6815,
      "ä»ĭ": 6816,
      "ĠFuchs": 6817,
      "ĠKÃ¤se": 6818,
      "ĠKentuck": 6819,
      "ĠMy": 6820,
      "ĠMess": 6821,
      "ĠMax": 6822,
      "ĠGÃ¶": 6823,
      "ĠGolf": 6824,
      "set": 6825,
      "ĠPa": 6826,
      "ĠPhrasen": 6827,
      "ĠRed": 6828,
      "ĠRos": 6829,
      "åı¶": 6830,
      "Ġlern": 6831,
      "Ġlok": 6832,
      "Ġlasse": 6833,
      "ĠHÃ¶r": 6834,
      "ĠHigh": 6835,
      "ĠHolz": 6836,
      "Ġrele": 6837,
      "Ġregel": 6838,
      "ĠInsgesamt": 6839,
      "ampf": 6840,
      "Ġverste": 6841,
      "Ġverfolgen": 6842,
      "Ġersch": 6843,
      "Ġerzeugen": 6844,
      "istory": 6845,
      "åĪĿ": 6846,
      "icros": 6847,
      "ĠLink": 6848,
      "Ġsteht": 6849,
      "ä½ı": 6850,
      "ä¸Ģä½į": 6851,
      "ä¸ĢæĿ¡": 6852,
      "ç»¿": 6853,
      "ĠStat": 6854,
      "ĠStart": 6855,
      "ults": 6856,
      "aktionen": 6857,
      "verb": 6858,
      "iences": 6859,
      "æĺ¯çļĦ": 6860,
      "ograf": 6861,
      "ĠSche": 6862,
      "ĠSchinken": 6863,
      "imt": 6864,
      "Ã¤ngt": 6865,
      "ahn": 6866,
      "ĠBenutzers": 6867,
      "åľ¨è¿Ļä¸ª": 6868,
      "åľ¨çº¿": 6869,
      "agram": 6870,
      "æĿ°": 6871,
      "ĠObj": 6872,
      "å°¾": 6873,
      "è¡¡": 6874,
      "ĠBezieh": 6875,
      "å¼ł": 6876,
      "Ġcontro": 6877,
      "Ġschon": 6878,
      "ĠJio": 6879,
      "ĠJapan": 6880,
      "ĠSpalten": 6881,
      "åĨ·": 6882,
      "ĠErfolg": 6883,
      "otten": 6884,
      "ĠRegen": 6885,
      "ĠRezens": 6886,
      "çīĮ": 6887,
      "æľīä¸Ģä¸ª": 6888,
      "æľīæīĢ": 6889,
      "åĩ»": 6890,
      "odes": 6891,
      "ĠArchitekt": 6892,
      "haltigkeit": 6893,
      "ä¾µ": 6894,
      "åįİ": 6895,
      "Ġexklus": 6896,
      "æ³Ľ": 6897,
      "laden": 6898,
      "ourney": 6899,
      "ĠTele": 6900,
      "ĠTeam": 6901,
      "ĠTechniken": 6902,
      "Ã¤hler": 6903,
      "weder": 6904,
      "æŃ»": 6905,
      "æįķ": 6906,
      "Ġentweder": 6907,
      "Ġmoder": 6908,
      "Ġvorhanden": 6909,
      "Ġproviding": 6910,
      "æĭħ": 6911,
      "Ġdurchge": 6912,
      "Ġbesuchen": 6913,
      "arding": 6914,
      "Ã¶gliche": 6915,
      "lieben": 6916,
      "Ġkontinu": 6917,
      "Ġumfasst": 6918,
      "è´Ł": 6919,
      "altet": 6920,
      "Ġweich": 6921,
      "ĠGeschw": 6922,
      "ĠGeschichten": 6923,
      "Ġcho": 6924,
      "ected": 6925,
      "schafts": 6926,
      "ç«ŀäºī": 6927,
      "riebs": 6928,
      "ä½ľçĶ¨": 6929,
      "æ±¤": 6930,
      "gesetzt": 6931,
      "æ¸Ĳ": 6932,
      "Ġfaktenbas": 6933,
      "ĠChin": 6934,
      "æķ°æį®çļĦ": 6935,
      "æĻ°": 6936,
      "Ġarrang": 6937,
      "æľĢåĲİ": 6938,
      "éģį": 6939,
      "ĠInteressen": 6940,
      "å·¥ç¨ĭ": 6941,
      "Ġtragen": 6942,
      "åģĩ": 6943,
      "getragen": 6944,
      "åĪĽä½ľ": 6945,
      "Ġrecyc": 6946,
      "gress": 6947,
      "flik": 6948,
      "ĠBehandlung": 6949,
      "åĵģçīĮ": 6950,
      "ĠKont": 6951,
      "plor": 6952,
      "å½ĵåīį": 6953,
      "atures": 6954,
      "Ġrote": 6955,
      "åĪ¶å®ļ": 6956,
      "å¤©æ°Ķ": 6957,
      "Ġtreffen": 6958,
      "ombies": 6959,
      "config": 6960,
      "place": 6961,
      "Ã¼sse": 6962,
      "è¢ĭ": 6963,
      "çĽ¸å¯¹": 6964,
      "åĽŀå½Ĵ": 6965,
      "Ġserviert": 6966,
      "Ġnews": 6967,
      "Ġzusammenzu": 6968,
      "ç¥¨": 6969,
      "è·Ł": 6970,
      "ĠFÃ¼llung": 6971,
      "rennen": 6972,
      "Ġbenutzer": 6973,
      "ĠFarb": 6974,
      "æ±ĤèģĮ": 6975,
      "ression": 6976,
      "çľł": 6977,
      "ĠProduktions": 6978,
      "çŁ³": 6979,
      "çĸĹ": 6980,
      "åĲįç§°": 6981,
      "ä»£çłģ": 6982,
      "ĠSoftware": 6983,
      "ĠDefin": 6984,
      "teilt": 6985,
      "oyal": 6986,
      "æŃ£ç¡®": 6987,
      "æ¸ħæĻ°": 6988,
      "ç¦ı": 6989,
      "èĭı": 6990,
      "èĻļ": 6991,
      "ĠFreunden": 6992,
      "ĠFreundlichkeit": 6993,
      "å¹¿æ³Ľ": 6994,
      "Ġexperiences": 6995,
      "åķ¡": 6996,
      "ĠKnapp": 6997,
      "ĠUSA": 6998,
      "ntest": 6999,
      "athol": 7000,
      "å¾Īå¤ļ": 7001,
      "Ã¼ssigkeit": 7002,
      "Ġrap": 7003,
      "Ġfrische": 7004,
      "ä»·åĢ¼": 7005,
      "ĠGedichts": 7006,
      "ĊĠĠĠĠĠĠĠĠĠĠĠĠĠĠĠĠĠĠĠ": 7007,
      "affe": 7008,
      "ĠFeedback": 7009,
      "Ġpartic": 7010,
      "åĳĬè¯ī": 7011,
      "Ġbreit": 7012,
      "ĠLÃ¤ndern": 7013,
      "Ġbegann": 7014,
      "ĠKÃ¶nig": 7015,
      "ĠerhÃ¤lt": 7016,
      "ĠÃĦr": 7017,
      "management": 7018,
      "ĠFahren": 7019,
      "Ġbeschreiben": 7020,
      "ĠVerantwort": 7021,
      "ĠGrad": 7022,
      "ĠGelbau": 7023,
      "ĠPhil": 7024,
      "åĪĽå»ºä¸Ģä¸ª": 7025,
      "aiser": 7026,
      "æ¬¢è¿İ": 7027,
      "Ġhistorischen": 7028,
      "ruppen": 7029,
      "Ġcloud": 7030,
      "Ġidentifizieren": 7031,
      "ĠErnÃ¤hrungs": 7032,
      "Ġextreme": 7033,
      "æĶ¿æ²»": 7034,
      "ĠSmith": 7035,
      "Ġplay": 7036,
      "Ġplace": 7037,
      "otoshop": 7038,
      "inguin": 7039,
      "Ġexcellent": 7040,
      "Ġcharacters": 7041,
      "Ġdigitalen": 7042,
      "Ġeconomic": 7043,
      "rÃ¤nk": 7044,
      "ĠMengen": 7045,
      "ĠHilf": 7046,
      "è´Ńçī©": 7047,
      "ĠVeranstaltungen": 7048,
      "ĠEsslÃ¶ffel": 7049,
      "ĠPalace": 7050,
      "ĠComputer": 7051,
      "bieten": 7052,
      "æľīæķĪçļĦ": 7053,
      "å¤§éĩıçļĦ": 7054,
      "ĠBuchstaben": 7055,
      "éĩĩåıĸ": 7056,
      "ĠUniversitÃ¤t": 7057,
      "ĠsÃ¼ÃŁen": 7058,
      "ä¸¥éĩį": 7059,
      "Ġerfordert": 7060,
      "ĠHaustier": 7061,
      "éĻĲåĪ¶": 7062,
      "athemat": 7063,
      "ĠfrÃ¼hen": 7064,
      "ç§¯æŀģ": 7065,
      "fassend": 7066,
      "Ġvermischen": 7067,
      "ĠgefÃ¼hrt": 7068,
      "enntnisse": 7069,
      "Ġtechniqu": 7070,
      "éĶĻè¯¯": 7071,
      "Ġunglaub": 7072,
      "æİ¢ç´¢": 7073,
      "æ°ĶåĢĻåıĺåĮĸ": 7074,
      "Ġdatab": 7075,
      "ĠAudio": 7076,
      "Ġprograms": 7077,
      "ĠAussage": 7078,
      "ĠVanillee": 7079,
      "Zusammen": 7080,
      "Ġsynonym": 7081,
      "ĠAbsatz": 7082,
      "ĠDienstleistungen": 7083,
      "ĠNutzung": 7084,
      "ĠMahlzeit": 7085,
      "ĠZukunft": 7086,
      "sichtlich": 7087,
      "ĠKirche": 7088,
      "Ġgeeignet": 7089,
      "Ġspielte": 7090,
      "ĠFÃ¶rderung": 7091,
      "ĠMachine": 7092,
      "Ġteacher": 7093,
      "Ġdifficult": 7094,
      "ĠGrÃ¶ÃŁe": 7095,
      "åĭĩæķ¢": 7096,
      "çĩĥæĸĻ": 7097,
      "ĠAmerican": 7098,
      "Ġstrukturierte": 7099,
      "å°Ŀè¯ķ": 7100,
      "Once": 7101,
      "ĠSumme": 7102,
      "ä¸°å¯Į": 7103,
      "Ġnecessary": 7104,
      "åį«çĶŁ": 7105,
      "ĠAlbum": 7106,
      "ĠBasilikum": 7107,
      "è¿Ńä»£": 7108,
      "ĠStÃ¤tten": 7109,
      "æĵįä½ľ": 7110,
      "ĠBridge": 7111,
      "ĠRezensent": 7112,
      "Ġkontinuier": 7113,
      "Ġfaktenbasiert": 7114,
      "ĠKnappheit": 7115,
      "ĠGelbaugenp": 7116,
      ")^": 7117,
      "22": 7118,
      "Auf": 7119,
      "Do": 7120,
      "Ges": 7121,
      "II": 7122,
      "Is": 7123,
      "Service": 7124,
      "Tra": 7125,
      "WS": 7126,
      "air": 7127,
      "aos": 7128,
      "adem": 7129,
      "bi": 7130,
      "bis": 7131,
      "branche": 7132,
      "drÃ¼cken": 7133,
      "fÃ¤h": 7134,
      "gro": 7135,
      "ift": 7136,
      "kÃ¼hlen": 7137,
      "ln": 7138,
      "lst": 7139,
      "lungs": 7140,
      "lub": 7141,
      "life": 7142,
      "mus": 7143,
      "pack": 7144,
      "rated": 7145,
      "sq": 7146,
      "ser": 7147,
      "sum": 7148,
      "sver": 7149,
      "uro": 7150,
      "ziert": 7151,
      "Ġright": 7152,
      "Ġdocument": 7153,
      "Ġamerikan": 7154,
      "unternehmen": 7155,
      "stratus": 7156,
      "Ġtry": 7157,
      "Ġtats": 7158,
      "Ġtrends": 7159,
      "ato": 7160,
      "atte": 7161,
      "aters": 7162,
      "Ġsal": 7163,
      "Ġsmooth": 7164,
      "reite": 7165,
      "Ġwid": 7166,
      "Ġwide": 7167,
      "let": 7168,
      "Ġbus": 7169,
      "Ġbil": 7170,
      "Ġbrit": 7171,
      "Ġbelow": 7172,
      "Ġbrand": 7173,
      "asite": 7174,
      "ĠSti": 7175,
      "ĠStimme": 7176,
      "Ġfess": 7177,
      "Ġfran": 7178,
      "Ġfehlen": 7179,
      "Ġfuture": 7180,
      "Ġinves": 7181,
      "Ġingredients": 7182,
      "elten": 7183,
      "Ġmar": 7184,
      "Ġmyster": 7185,
      "Ġmathemat": 7186,
      "alist": 7187,
      "Ġanaly": 7188,
      "ĠAro": 7189,
      "ĠAlex": 7190,
      "ĠAWS": 7191,
      "rot": 7192,
      "rosen": 7193,
      "Ġtheme": 7194,
      "genden": 7195,
      "çļĦåľ°": 7196,
      "çļĦåĨħå®¹": 7197,
      "Ġpow": 7198,
      "Ġpoll": 7199,
      "Ġpay": 7200,
      "Ġpark": 7201,
      "ĠBÃ¤": 7202,
      "ĠBasketball": 7203,
      "ĠBlÃ¤tter": 7204,
      "Ġhope": 7205,
      "Ġhistory": 7206,
      "Ġcut": 7207,
      "Ġcrit": 7208,
      "Ġcop": 7209,
      "uth": 7210,
      "urity": 7211,
      "ĠDial": 7212,
      "ĠDekor": 7213,
      "deckt": 7214,
      "ĠTa": 7215,
      "ommer": 7216,
      "Ġbeher": 7217,
      "Ġbetroffen": 7218,
      "Ġbezieht": 7219,
      "äº¡": 7220,
      "ĠEind": 7221,
      "ĠEurop": 7222,
      "ĠEreig": 7223,
      "Ġnu": 7224,
      "Ġglu": 7225,
      "ĠWh": 7226,
      "ĠWhen": 7227,
      "ĠWohn": 7228,
      "ĠFour": 7229,
      "ĠKalorien": 7230,
      "eme": 7231,
      "ierungen": 7232,
      "ĠMacht": 7233,
      "ĠMatch": 7234,
      "Ġthink": 7235,
      "ĠGlau": 7236,
      "ĠPi": 7237,
      "ĠPres": 7238,
      "ĠPreis": 7239,
      "denken": 7240,
      "ĠRot": 7241,
      "Ġland": 7242,
      "Ġlaptop": 7243,
      "ĠHÃ¶": 7244,
      "ĠHinder": 7245,
      "Ġremo": 7246,
      "ĠInd": 7247,
      "ĠIng": 7248,
      "ĠInstagram": 7249,
      "ĠVol": 7250,
      "ĠViele": 7251,
      "ama": 7252,
      "Ġvery": 7253,
      "Ġverurs": 7254,
      "ists": 7255,
      "åĪ¤": 7256,
      "å®Ĺ": 7257,
      "iction": 7258,
      "pping": 7259,
      "ĠAnna": 7260,
      "ĠAnpass": 7261,
      "Ġstock": 7262,
      "Ġdenn": 7263,
      "ĠĠĠĠĠ": 7264,
      "Ġaufge": 7265,
      "ĠZahl": 7266,
      "ĠZimt": 7267,
      "åľĪ": 7268,
      "ehn": 7269,
      "ehic": 7270,
      "ç»¼": 7271,
      "ĠStÃ¤r": 7272,
      "ffic": 7273,
      "è¯Ĺ": 7274,
      "ĠNationen": 7275,
      "ĠNord": 7276,
      "è®¿": 7277,
      "vern": 7278,
      "endes": 7279,
      "åĲ¬": 7280,
      "æķĳ": 7281,
      "zeigen": 7282,
      "ĠSchÃ¤den": 7283,
      "Ġapples": 7284,
      "ids": 7285,
      "Ġforest": 7286,
      "Ġcompon": 7287,
      "åľ¨ä¸Ģä¸ª": 7288,
      "agon": 7289,
      "agieren": 7290,
      "æĿĳ": 7291,
      "ĠOver": 7292,
      "Ġheat": 7293,
      "Ġheart": 7294,
      "ĠBei": 7295,
      "ĠBeil": 7296,
      "Ġschl": 7297,
      "Ġschar": 7298,
      "ĠschlieÃŁlich": 7299,
      "æĹı": 7300,
      "åĨľ": 7301,
      "ikation": 7302,
      "Ġneu": 7303,
      "ĠjÃ¤hr": 7304,
      "Ġjoy": 7305,
      "Ġjourney": 7306,
      "rÃ¤ch": 7307,
      "rÃ¤ume": 7308,
      "duct": 7309,
      "Ġdef": 7310,
      "oph": 7311,
      "çĶŁéķ¿": 7312,
      "çĶŁåĳ½": 7313,
      "åı¯ä»¥åľ¨": 7314,
      "åı¯ä»¥ä¸º": 7315,
      "åı¯ä»¥ä½¿çĶ¨": 7316,
      "html": 7317,
      "ä¸įä¼ļ": 7318,
      "å½©": 7319,
      "åįı": 7320,
      "é¢Ŀ": 7321,
      "äºĨä¸Ģä¸ª": 7322,
      "å·®": 7323,
      "lay": 7324,
      "heitliche": 7325,
      "å¾ª": 7326,
      "Ġzer": 7327,
      "æįŁ": 7328,
      "Ġentertain": 7329,
      "Ġorig": 7330,
      "èĢĹ": 7331,
      "ausp": 7332,
      "izes": 7333,
      "å¯¹è¯Ŀ": 7334,
      "ĠEnd": 7335,
      "éĿ©": 7336,
      "apitel": 7337,
      "ĠFragestell": 7338,
      "Ġcover": 7339,
      "Ġdeines": 7340,
      "æĹ¶æľŁ": 7341,
      "Ġenjoy": 7342,
      "çī©ç§į": 7343,
      "çī©è´¨": 7344,
      "æĽ´å¥½çļĦ": 7345,
      "ĠAusgaben": 7346,
      "ĠAusstellungen": 7347,
      "erges": 7348,
      "itÃ¤ts": 7349,
      "Ġweg": 7350,
      "Ġweil": 7351,
      "Ġnachhal": 7352,
      "æĢ§èĥ½": 7353,
      "perature": 7354,
      "Ġchang": 7355,
      "æľºä¼ļ": 7356,
      "æĥĬ": 7357,
      "Ġfail": 7358,
      "times": 7359,
      "chnet": 7360,
      "schale": 7361,
      "ĠQuiche": 7362,
      "Ġjeweil": 7363,
      "ried": 7364,
      "åĬĽéĩı": 7365,
      "bereitung": 7366,
      "ä½ľåĵģ": 7367,
      "kennen": 7368,
      "çº§": 7369,
      "Ġmachte": 7370,
      "ĠhinzuzufÃ¼gen": 7371,
      "Ġunsorted": 7372,
      "åĽ½éĻħ": 7373,
      "Ġgewinnen": 7374,
      "èµĸ": 7375,
      "Ġpositiv": 7376,
      "éĩįå¤į": 7377,
      "Ġfinanz": 7378,
      "rong": 7379,
      "Ġsea": 7380,
      "Ġsepar": 7381,
      "Ġsicherstellen": 7382,
      "ĠHandlung": 7383,
      "ĠDurchfÃ¼hrung": 7384,
      "çķĻ": 7385,
      "Ġrecord": 7386,
      "ĠWebsites": 7387,
      "éĥ½æľī": 7388,
      "åı¯èĥ½å¯¼èĩ´": 7389,
      "fÃ¼hrt": 7390,
      "ustomers": 7391,
      "ĠApple": 7392,
      "æĺ¯ä¸ĢäºĽ": 7393,
      "Ġspeed": 7394,
      "haften": 7395,
      "hafter": 7396,
      "ĠKonflik": 7397,
      "èĤ¤": 7398,
      "ç»Łè®¡": 7399,
      "Ġroad": 7400,
      "Ã¤nglich": 7401,
      "ĠOrte": 7402,
      "Ġeffektiv": 7403,
      "Ġdecre": 7404,
      "omball": 7405,
      "å¿ĥçĲĨ": 7406,
      "cose": 7407,
      "åī¯": 7408,
      "Ġreducing": 7409,
      "ĠOption": 7410,
      "å°ıæĹ¶": 7411,
      "æ°Ķä½ĵ": 7412,
      "ewable": 7413,
      "Ġmeinem": 7414,
      "ä»¥ä¸ĭåı¥åŃĲ": 7415,
      "åĽŀçŃĶ": 7416,
      "profit": 7417,
      "Ã¶glichkeiten": 7418,
      "Ġevents": 7419,
      "éĤ®": 7420,
      "æµģéĩı": 7421,
      "Ġshort": 7422,
      "Ġnovel": 7423,
      "çł´": 7424,
      "ĠProdukten": 7425,
      "çĸ²": 7426,
      "ĠlieÃŁ": 7427,
      "å½¢æĪĲ": 7428,
      "æİĴåĪĹ": 7429,
      "æĶ¹è¿Ľ": 7430,
      "Ġcars": 7431,
      "éħĴ": 7432,
      "Ġmedic": 7433,
      "Ġmedizin": 7434,
      "æķĪæŀľ": 7435,
      "Ġtypes": 7436,
      "Ġbekommen": 7437,
      "usstsein": 7438,
      "Ġauthor": 7439,
      "Ġvoller": 7440,
      "legenheit": 7441,
      "éĢĤçļĦ": 7442,
      "æİ¨èį": 7443,
      "Ġtechnologies": 7444,
      "Ġself": 7445,
      "çĮ®": 7446,
      "Ġdish": 7447,
      "Ġgoals": 7448,
      "åĽ¾çīĩ": 7449,
      "æīĭæľº": 7450,
      "Ġimproving": 7451,
      "Ġimproved": 7452,
      "çĪ¶": 7453,
      "Ġworking": 7454,
      "ĠFilms": 7455,
      "Ġapplication": 7456,
      "çİĭåŃĲ": 7457,
      "Ġhealthcare": 7458,
      "èĥģ": 7459,
      "Ġstudents": 7460,
      "é¢Ĩå¯¼": 7461,
      "æµ·æ´ĭ": 7462,
      "åĿĩ": 7463,
      "é¥Ń": 7464,
      "ĠBibliothek": 7465,
      "Ġgoods": 7466,
      "ĠPersonen": 7467,
      "appen": 7468,
      "worth": 7469,
      "ynam": 7470,
      "Ġfrischen": 7471,
      "åĨĻä¸Ģä¸ª": 7472,
      "Ġnied": 7473,
      "Ġconsider": 7474,
      "Ġconsultant": 7475,
      "ĠFeuer": 7476,
      "è§ĦåĪĻ": 7477,
      "ĠMedia": 7478,
      "è±Ĩ": 7479,
      "ĠÃĦn": 7480,
      "åĶ±": 7481,
      "ĠWahrzeichen": 7482,
      "Ġsorted": 7483,
      "ĠAllerdings": 7484,
      "ĠSchlÃ¼ssel": 7485,
      "Ġsecond": 7486,
      "ĠZugriff": 7487,
      "åĮºåĪ«": 7488,
      "Ġteilzunehmen": 7489,
      "ç©ºæ°Ķ": 7490,
      "iegelt": 7491,
      "temperatur": 7492,
      "è¯Ħè®º": 7493,
      "çĹħæ¯Ĵ": 7494,
      "forderung": 7495,
      "ĠmilitÃ¤": 7496,
      "Ġbooks": 7497,
      "Ġglobalen": 7498,
      "Ġoffiz": 7499,
      "Ġpersonalized": 7500,
      "Ġregul": 7501,
      "ĠFinally": 7502,
      "Ġspecies": 7503,
      "liotheken": 7504,
      "Ġbeliebte": 7505,
      "Ġvegetables": 7506,
      "Compose": 7507,
      "println": 7508,
      "Ġwichtigen": 7509,
      "ĠÃĸff": 7510,
      "æ¶Īè´¹": 7511,
      "å°½ç®¡": 7512,
      "å¤įæĿĤåº¦": 7513,
      "ĠauÃŁerdem": 7514,
      "Ġsagt": 7515,
      "rechend": 7516,
      "ĠgefÃ¤hr": 7517,
      "falls": 7518,
      "Ġintuit": 7519,
      "Ġmobilen": 7520,
      "Ġinnovative": 7521,
      "ĠnÃ¤chsten": 7522,
      "Ġresulting": 7523,
      "Ġpopular": 7524,
      "Ġkostenlose": 7525,
      "raktiken": 7526,
      "åĳ¨åĽ´": 7527,
      "Ġmeaning": 7528,
      "Ġbeeinflusst": 7529,
      "Ġelectricity": 7530,
      "imentieren": 7531,
      "Ġgarlic": 7532,
      "Ġtemperature": 7533,
      "Ġrecently": 7534,
      "Ġsupport": 7535,
      "Ġberechnen": 7536,
      "å¨ģèĥģ": 7537,
      "Ġhigher": 7538,
      "ĠerhÃ¶hen": 7539,
      "æ¤į": 7540,
      "Ġruh": 7541,
      "ĠLÃ¶sung": 7542,
      "Ġstructure": 7543,
      "æĬ¥åĳĬ": 7544,
      "ĠFenster": 7545,
      "ç»§ç»Ń": 7546,
      "Ġprotein": 7547,
      "Ġinfluence": 7548,
      "Ġessay": 7549,
      "Ġswitch": 7550,
      "ĠverÃ¶ffentlicht": 7551,
      "ĠNorth": 7552,
      "Ġfeeling": 7553,
      "migration": 7554,
      "Ġvariety": 7555,
      "èī¯å¥½çļĦ": 7556,
      "Ġspeichern": 7557,
      "price": 7558,
      "Ġmessage": 7559,
      "ĠGanzzahlen": 7560,
      "ĠIntegr": 7561,
      "Ġumgekehr": 7562,
      "ĠAngebote": 7563,
      "ĠerklÃ¤ren": 7564,
      "ĠursprÃ¼ng": 7565,
      "Ġamount": 7566,
      "Ġwundersch": 7567,
      "Ġcolor": 7568,
      "ĠLieblings": 7569,
      "Ġcomputers": 7570,
      "ĠErbsensuppe": 7571,
      "ç¨³å®ļ": 7572,
      "èĮ¨æ¯Ķ": 7573,
      "Ġactivities": 7574,
      "Ġeducation": 7575,
      "Ġwollte": 7576,
      "ĠDunkel": 7577,
      "Ġfokussierst": 7578,
      "hilfe": 7579,
      "èĽĭ": 7580,
      "Ġsachkundiger": 7581,
      "ĠDrachen": 7582,
      "ĠMilch": 7583,
      "æīĺé©¬æĸ¯": 7584,
      "Ġentfernen": 7585,
      "ĠExample": 7586,
      "ĠKÃ¼hlschrank": 7587,
      "Step": 7588,
      "Ġbleibt": 7589,
      "omorrow": 7590,
      "ĠArchitektur": 7591,
      "Ġrapid": 7592,
      "Zusammenfassend": 7593,
      "ĠAromen": 7594,
      "Ġpowder": 7595,
      "Ġpollution": 7596,
      "Ġglucose": 7597,
      "ĠMatcha": 7598,
      "ĠFragestellungen": 7599,
      "æİ¨èįĲ": 7600,
      "'m": 7601,
      "100": 7602,
      "35": 7603,
      "60": 7604,
      "?\"": 7605,
      "Aber": 7606,
      "Bat": 7607,
      "FÃ¼r": 7608,
      "Jul": 7609,
      "Karte": 7610,
      "Man": 7611,
      "Op": 7612,
      "PT": 7613,
      "SQ": 7614,
      "War": 7615,
      "blob": 7616,
      "cent": 7617,
      "cuss": 7618,
      "come": 7619,
      "diger": 7620,
      "ex": 7621,
      "ey": 7622,
      "fangen": 7623,
      "gere": 7624,
      "ior": 7625,
      "iar": 7626,
      "izen": 7627,
      "kreis": 7628,
      "nf": 7629,
      "oss": 7630,
      "oft": 7631,
      "passt": 7632,
      "rt": 7633,
      "rung": 7634,
      "sg": 7635,
      "sk": 7636,
      "sweise": 7637,
      "tlich": 7638,
      "ww": 7639,
      "word": 7640,
      "¹ģ": 7641,
      "Ùħ": 7642,
      "ãĤ": 7643,
      "å´": 7644,
      "åĦ": 7645,
      "è²": 7646,
      "èŀ": 7647,
      "Ġ&": 7648,
      "Ġæķ°æį®": 7649,
      "ĠæıĲé«ĺ": 7650,
      "ħåĬĽ": 7651,
      "ĭåıĭ": 7652,
      "įä¼": 7653,
      "Ķæ³ķ": 7654,
      "ĸåķ¡": 7655,
      "ļç¤": 7656,
      "ŁéĢļ": 7657,
      "ence": 7658,
      "ering": 7659,
      "input": 7660,
      "Ġdom": 7661,
      "Ġdest": 7662,
      "Ġdienen": 7663,
      "Ġap": 7664,
      "Ġaction": 7665,
      "Ġaws": 7666,
      "onav": 7667,
      "stung": 7668,
      "stra": 7669,
      "stehen": 7670,
      "stÃ¼ck": 7671,
      "Ġtest": 7672,
      "Ġtall": 7673,
      "itiv": 7674,
      "einst": 7675,
      "Ġsah": 7676,
      "Ġsei": 7677,
      "Ġsamm": 7678,
      "Ġsaf": 7679,
      "Ġsources": 7680,
      "aner": 7681,
      "anken": 7682,
      "Ġwonder": 7683,
      "Ġbir": 7684,
      "asche": 7685,
      "asons": 7686,
      "teten": 7687,
      "ĠSil": 7688,
      "ĠSam": 7689,
      "ĠSau": 7690,
      "ĠSeh": 7691,
      "ĠSituation": 7692,
      "Ġfand": 7693,
      "Ġfant": 7694,
      "Ã¼cken": 7695,
      "Ġinner": 7696,
      "ara": 7697,
      "zucker": 7698,
      "zufrieden": 7699,
      "ĠAEG": 7700,
      "gef": 7701,
      "geist": 7702,
      "gelegen": 7703,
      "Ġvehic": 7704,
      "roh": 7705,
      "Ġzubereitet": 7706,
      "çļĦéĩįè¦ģ": 7707,
      "çļĦä¾ĭåŃĲ": 7708,
      "Ġpurch": 7709,
      "ĠBranche": 7710,
      "Ġhyd": 7711,
      "Ġid": 7712,
      "Ġill": 7713,
      "ĠDo": 7714,
      "ĠDep": 7715,
      "ĠDruck": 7716,
      "ĠDaher": 7717,
      "Ġkein": 7718,
      "Ġkur": 7719,
      "Ġkommun": 7720,
      "Ġkreative": 7721,
      "ĠTat": 7722,
      "ĠTÃ¼r": 7723,
      "ĠTage": 7724,
      "ĠTurn": 7725,
      "ĠTeile": 7726,
      "ĠTwitter": 7727,
      "rigen": 7728,
      "Ġbefin": 7729,
      "raucher": 7730,
      "Ġnon": 7731,
      "Ġname": 7732,
      "Ġgas": 7733,
      "Ġgere": 7734,
      "ĠWass": 7735,
      "ĠWill": 7736,
      "ĠWho": 7737,
      "ĠWinter": 7738,
      "ĠFab": 7739,
      "ĠKol": 7740,
      "ĠKoch": 7741,
      "ĠKreis": 7742,
      "ĠKairo": 7743,
      "ĠMein": 7744,
      "ĠMik": 7745,
      "ĠMaÃŁ": 7746,
      "ĠMaterial": 7747,
      "ĠMicros": 7748,
      "ĠGu": 7749,
      "ĠGre": 7750,
      "ĠGrÃ¼n": 7751,
      "ĠGarten": 7752,
      "seh": 7753,
      "ĠPo": 7754,
      "ĠRuss": 7755,
      "ĠRennen": 7756,
      "cket": 7757,
      "ĠHÃ¤hn": 7758,
      "ĠHTML": 7759,
      "etten": 7760,
      "Ġtot": 7761,
      "ĠIntelligence": 7762,
      "ĠInvest": 7763,
      "Ġoffen": 7764,
      "Ġversuchen": 7765,
      "bers": 7766,
      "æľĭåıĭ": 7767,
      "Ġerfor": 7768,
      "åĪ»": 7769,
      "å®Ī": 7770,
      "åħ°": 7771,
      "achr": 7772,
      "achte": 7773,
      "ĠAnhÃ¤ng": 7774,
      "ĠAnleitung": 7775,
      "ĠAnfang": 7776,
      "ĠAnwendungen": 7777,
      "Ġstates": 7778,
      "Ġeben": 7779,
      "Ġgeg": 7780,
      "Ġgetro": 7781,
      "ĠZweck": 7782,
      "ĠZombies": 7783,
      "iesen": 7784,
      "ÃŁt": 7785,
      "Ġmithilfe": 7786,
      "åĴĸåķ¡": 7787,
      "auigkeit": 7788,
      "ehmer": 7789,
      "åĴĮåħ¶ä»ĸ": 7790,
      "æĺ¥": 7791,
      "ĠCy": 7792,
      "ĠCSS": 7793,
      "riting": 7794,
      "è¯ļ": 7795,
      "queria": 7796,
      "ĠNÃ¤hr": 7797,
      "ĠNew": 7798,
      "thers": 7799,
      "Ġunver": 7800,
      "åĲĥ": 7801,
      "Ġimages": 7802,
      "æĺ¯å¤ªéĺ³ç³»": 7803,
      "ĠSchmer": 7804,
      "ĠSchlieÃŁlich": 7805,
      "ĠSchnitt": 7806,
      "ĠSchrift": 7807,
      "abit": 7808,
      "absatz": 7809,
      "Ġlegen": 7810,
      "ĠBenutzerober": 7811,
      "äººçļĦ": 7812,
      "agt": 7813,
      "formation": 7814,
      "å°ļ": 7815,
      "Ġhell": 7816,
      "ä¼´": 7817,
      "ĠJo": 7818,
      "ä¸ºä»Ģä¹Ī": 7819,
      "ĠErinner": 7820,
      "ĠÃ¼bern": 7821,
      "ĠÃ¼bersetzen": 7822,
      "Ġneben": 7823,
      "ĠReaktion": 7824,
      "çīĻ": 7825,
      "æĢĢ": 7826,
      "rÃ¤ger": 7827,
      "Ġdescription": 7828,
      "ä¸ŃæľĢ": 7829,
      "ĠabkÃ¼hlen": 7830,
      "åı¯ä»¥æł¹æį®": 7831,
      "ohner": 7832,
      "rÃ¼hren": 7833,
      "åįĬ": 7834,
      "acke": 7835,
      "é¢ľ": 7836,
      "tigungen": 7837,
      "ourismus": 7838,
      "ustain": 7839,
      "Ã¤hle": 7840,
      "Ġentfern": 7841,
      "Ġorganis": 7842,
      "Ġsentiment": 7843,
      "è¡Įä¸ļ": 7844,
      "Ġvoraus": 7845,
      "ä»ĸäºº": 7846,
      "éĿĻ": 7847,
      "éĿł": 7848,
      "apit": 7849,
      "æĽ²": 7850,
      "Ġbestimmen": 7851,
      "lied": 7852,
      "æĪĲåĳĺ": 7853,
      "ĠinputString": 7854,
      "Ġwebsites": 7855,
      "åĪĨåĪ«": 7856,
      "åĪĨå¸ĥ": 7857,
      "Ġchallen": 7858,
      "æĥł": 7859,
      "Ġaller": 7860,
      "è§£åĨ»": 7861,
      "åıĳçĶŁ": 7862,
      "Ġjeg": 7863,
      "rieg": 7864,
      "åĩºçİ°": 7865,
      "Ġverwende": 7866,
      "éĻĪ": 7867,
      "tivitÃ¤t": 7868,
      "most": 7869,
      "æķ°æį®åºĵ": 7870,
      "ç»ıåİĨ": 7871,
      "æĻ®": 7872,
      "Ġinsgesamt": 7873,
      "éĿ¢ç§¯": 7874,
      "ĠfÃ¼nf": 7875,
      "çĲĨè®º": 7876,
      "Ġunseren": 7877,
      "æıĲä¾Ľä¸Ģä¸ª": 7878,
      "ups": 7879,
      "ç´§": 7880,
      "ispiel": 7881,
      "formen": 7882,
      "æ²ŁéĢļ": 7883,
      "ĠÃľberprÃ¼": 7884,
      "äº¤äºĴ": 7885,
      "è°Ī": 7886,
      "Ġquality": 7887,
      "ĠRechtecks": 7888,
      "ocation": 7889,
      "èĤ¡": 7890,
      "éķ¿åº¦": 7891,
      "Ġgesehen": 7892,
      "Ġgesunde": 7893,
      "èģĬå¤©": 7894,
      "Ġroot": 7895,
      "é¡¾": 7896,
      "arianz": 7897,
      "ĠIhrem": 7898,
      "Ġgeschm": 7899,
      "code": 7900,
      "ĠKlang": 7901,
      "å°ıæĿİ": 7902,
      "Ġgerade": 7903,
      "äºĭä»¶": 7904,
      "ĠNachteile": 7905,
      "ĠNachhaltigkeit": 7906,
      "åįķè¯į": 7907,
      "å¿«ä¹Ĳ": 7908,
      "Ġinterface": 7909,
      "ĠTages": 7910,
      "è¿ĲçĶ¨": 7911,
      "Ġnote": 7912,
      "çłįä¼": 7913,
      "æķĻèĤ²": 7914,
      "Ġformul": 7915,
      "åı£æĦŁ": 7916,
      "Ġknusp": 7917,
      "ehlungen": 7918,
      "éĢĤåĲĪ": 7919,
      "Ġanzupassen": 7920,
      "Ġanzubieten": 7921,
      "ĠMarkt": 7922,
      "æľºåĻ¨äººçļĦ": 7923,
      "åĽ¾åĥı": 7924,
      "Ġvalues": 7925,
      "Ġprim": 7926,
      "Ġlikely": 7927,
      "ĠgleichmÃ¤ÃŁig": 7928,
      "ĠMonate": 7929,
      "ĠLandschaft": 7930,
      "venue": 7931,
      "ĠPersonal": 7932,
      "å¼Ģåıĳäººåĳĺ": 7933,
      "richtung": 7934,
      "Ġwirksam": 7935,
      "ĊĠĠĠĠĠĠĠĠĠĠĠĠĠĠĠĠ": 7936,
      "Erstellen": 7937,
      "è§ĦåĪĴ": 7938,
      "Ġmodels": 7939,
      "æ¸©å®¤": 7940,
      "æ¸©æļĸ": 7941,
      "ä»»ä½ķ": 7942,
      "æķ°åŃĹçļĦ": 7943,
      "ĠWissens": 7944,
      "ĠStrukturen": 7945,
      "æ»¡è¶³": 7946,
      "èģĮä¸ļ": 7947,
      "Ġnegative": 7948,
      "ĠgrÃ¶ÃŁer": 7949,
      "ç©ºéĹ´": 7950,
      "ĠMarketing": 7951,
      "ĠGeld": 7952,
      "é»Ħ": 7953,
      "aison": 7954,
      "Ġaktuelle": 7955,
      "å¤ªéĺ³èĥ½": 7956,
      "ĠauszuwÃ¤hlen": 7957,
      "åŁºäºİ": 7958,
      "æĴŃ": 7959,
      "Ġserver": 7960,
      "Ġsomit": 7961,
      "ington": 7962,
      "Ġblog": 7963,
      "åħħæ»¡": 7964,
      "ç»Ļå®ļçļĦ": 7965,
      "oladen": 7966,
      "ĠErwachsen": 7967,
      "çº¦ä¸º": 7968,
      "Ġdigital": 7969,
      "ĠKampf": 7970,
      "å·¨å¤§çļĦ": 7971,
      "Ġissue": 7972,
      "ĠSÃ¼ÃŁe": 7973,
      "åĪĽéĢłä¸Ģä¸ª": 7974,
      "Ġeingegeben": 7975,
      "ĠDiagno": 7976,
      "ĠPapier": 7977,
      "ĠJacksons": 7978,
      "Ġhilfreicher": 7979,
      "Ġmenschlichen": 7980,
      "ĠPeters": 7981,
      "Ġdefinitiv": 7982,
      "ĠHerausforderung": 7983,
      "ĠHaustiere": 7984,
      "pret": 7985,
      "æĳĦ": 7986,
      "ĠÃ¼b": 7987,
      "ĠPersp": 7988,
      "riebenen": 7989,
      "Ġbeeinflus": 7990,
      "modell": 7991,
      "Ġlimit": 7992,
      "ĠGewÃ¼rze": 7993,
      "Ġvegane": 7994,
      "ĠkÃ¶stliche": 7995,
      "ĠerfÃ¼llen": 7996,
      "ovarianz": 7997,
      "ĠVeget": 7998,
      "treten": 7999
    },
    "merges": [
      [
        "e",
        "n"
      ],
      [
        "e",
        "r"
      ],
      [
        "i",
        "n"
      ],
      [
        "c",
        "h"
      ],
      [
        "Ġ",
        "d"
      ],
      [
        "Ġ",
        "a"
      ],
      [
        "e",
        "s"
      ],
      [
        "u",
        "n"
      ],
      [
        "i",
        "e"
      ],
      [
        "o",
        "n"
      ],
      [
        "s",
        "t"
      ],
      [
        "Ġ",
        "t"
      ],
      [
        "i",
        "t"
      ],
      [
        "a",
        "t"
      ],
      [
        "e",
        "in"
      ],
      [
        "Ġ",
        "s"
      ],
      [
        "r",
        "e"
      ],
      [
        "un",
        "d"
      ],
      [
        "a",
        "n"
      ],
      [
        "o",
        "r"
      ],
      [
        "h",
        "e"
      ],
      [
        "Ġ",
        "w"
      ],
      [
        "i",
        "s"
      ],
      [
        "i",
        "ch"
      ],
      [
        "l",
        "e"
      ],
      [
        "Ġ",
        "und"
      ],
      [
        "Ġ",
        "b"
      ],
      [
        "a",
        "s"
      ],
      [
        "t",
        "e"
      ],
      [
        "Ġ",
        "S"
      ],
      [
        "Ġ",
        "f"
      ],
      [
        "Ã",
        "¼"
      ],
      [
        "Ġ",
        "ein"
      ],
      [
        "ä",
        "¸"
      ],
      [
        "Ġ",
        "in"
      ],
      [
        "a",
        "r"
      ],
      [
        "e",
        "l"
      ],
      [
        "Ġ",
        "m"
      ],
      [
        "ï",
        "¼"
      ],
      [
        "z",
        "u"
      ],
      [
        "Ã",
        "¤"
      ],
      [
        "t",
        "i"
      ],
      [
        "a",
        "l"
      ],
      [
        "Ġa",
        "n"
      ],
      [
        "Ġ",
        "A"
      ],
      [
        "t",
        "en"
      ],
      [
        "g",
        "e"
      ],
      [
        "Ġd",
        "ie"
      ],
      [
        "Ġ",
        "v"
      ],
      [
        "r",
        "o"
      ],
      [
        "Ġ",
        "zu"
      ],
      [
        "Ġ",
        "Ġ"
      ],
      [
        "Ġt",
        "he"
      ],
      [
        "g",
        "en"
      ],
      [
        "Ġ",
        "o"
      ],
      [
        "ç",
        "ļ"
      ],
      [
        "çļ",
        "Ħ"
      ],
      [
        "ï¼",
        "Į"
      ],
      [
        "ã",
        "Ģ"
      ],
      [
        "Ġ",
        "p"
      ],
      [
        "Ġ",
        "B"
      ],
      [
        "Ġ",
        "h"
      ],
      [
        "Ġ",
        "c"
      ],
      [
        "Ġ",
        "i"
      ],
      [
        "u",
        "t"
      ],
      [
        "u",
        "s"
      ],
      [
        "u",
        "r"
      ],
      [
        "in",
        "g"
      ],
      [
        "Ġ",
        "D"
      ],
      [
        "d",
        "e"
      ],
      [
        "Ġd",
        "er"
      ],
      [
        "Ġ",
        "I"
      ],
      [
        "ãĢ",
        "Ĥ"
      ],
      [
        "d",
        "er"
      ],
      [
        "Ġ",
        "k"
      ],
      [
        "h",
        "r"
      ],
      [
        "o",
        "l"
      ],
      [
        "u",
        "m"
      ],
      [
        "Ġ",
        "T"
      ],
      [
        "r",
        "i"
      ],
      [
        "o",
        "m"
      ],
      [
        "un",
        "g"
      ],
      [
        "l",
        "ich"
      ],
      [
        "#",
        "#"
      ],
      [
        "Ã",
        "¶"
      ],
      [
        "i",
        "on"
      ],
      [
        "Ġb",
        "e"
      ],
      [
        "ä",
        "º"
      ],
      [
        "r",
        "a"
      ],
      [
        "Ġ",
        "E"
      ],
      [
        "Ġ",
        "n"
      ],
      [
        "i",
        "l"
      ],
      [
        "Ġ",
        "g"
      ],
      [
        "Ġ",
        "W"
      ],
      [
        "en",
        "t"
      ],
      [
        "u",
        "f"
      ],
      [
        "ä",
        "»"
      ],
      [
        "Ġ",
        "F"
      ],
      [
        "Ġ",
        "K"
      ],
      [
        "t",
        "er"
      ],
      [
        "e",
        "m"
      ],
      [
        "i",
        "er"
      ],
      [
        "Ġ",
        "M"
      ],
      [
        "Ġt",
        "h"
      ],
      [
        "Ġ",
        "G"
      ],
      [
        "s",
        "e"
      ],
      [
        "Ġ",
        "P"
      ],
      [
        "d",
        "en"
      ],
      [
        "i",
        "r"
      ],
      [
        "Ġan",
        "d"
      ],
      [
        "ti",
        "on"
      ],
      [
        "Ġ",
        "R"
      ],
      [
        "c",
        "k"
      ],
      [
        "e",
        "it"
      ],
      [
        "å",
        "ı"
      ],
      [
        "Ġ",
        "l"
      ],
      [
        "is",
        "ch"
      ],
      [
        "Ġ",
        "H"
      ],
      [
        "e",
        "t"
      ],
      [
        "i",
        "g"
      ],
      [
        "Ġd",
        "as"
      ],
      [
        "b",
        "en"
      ],
      [
        "Ġ",
        "re"
      ],
      [
        "Ġt",
        "o"
      ],
      [
        "ĠI",
        "n"
      ],
      [
        "Ġ",
        "V"
      ],
      [
        "Ã¼",
        "r"
      ],
      [
        "Ġo",
        "f"
      ],
      [
        "e",
        "d"
      ],
      [
        "a",
        "m"
      ],
      [
        "Ġv",
        "er"
      ],
      [
        "b",
        "er"
      ],
      [
        "Ġth",
        "at"
      ],
      [
        "at",
        "ion"
      ],
      [
        "s",
        "ch"
      ],
      [
        "æ",
        "ľ"
      ],
      [
        "è",
        "¿"
      ],
      [
        "Ġ",
        "er"
      ],
      [
        "r",
        "u"
      ],
      [
        "Ġi",
        "st"
      ],
      [
        "ç",
        "Ķ"
      ],
      [
        "i",
        "st"
      ],
      [
        "Ġ",
        "is"
      ],
      [
        "Ġa",
        "l"
      ],
      [
        "o",
        "w"
      ],
      [
        "å",
        "Ī"
      ],
      [
        "å",
        "®"
      ],
      [
        "å",
        "ħ"
      ],
      [
        "i",
        "c"
      ],
      [
        "es",
        "p"
      ],
      [
        "a",
        "ch"
      ],
      [
        "l",
        "en"
      ],
      [
        "p",
        "p"
      ],
      [
        "Ġ",
        "um"
      ],
      [
        "es",
        "t"
      ],
      [
        "å",
        "¤"
      ],
      [
        "Ġein",
        "e"
      ],
      [
        "Ġ",
        "L"
      ],
      [
        "Ġd",
        "es"
      ],
      [
        "b",
        "e"
      ],
      [
        "s",
        "en"
      ],
      [
        "m",
        "en"
      ],
      [
        "ĠA",
        "n"
      ],
      [
        "Ġ",
        "st"
      ],
      [
        "an",
        "d"
      ],
      [
        "Ġd",
        "en"
      ],
      [
        "Ġ",
        "e"
      ],
      [
        "ĠĠ",
        "ĠĠ"
      ],
      [
        "an",
        "n"
      ],
      [
        "i",
        "v"
      ],
      [
        "ä",
        "½"
      ],
      [
        "Ġ",
        "ge"
      ],
      [
        "##",
        "#"
      ],
      [
        "Ġa",
        "uf"
      ],
      [
        "å",
        "Ĭ"
      ],
      [
        "Ġ",
        "Z"
      ],
      [
        "i",
        "es"
      ],
      [
        "Ġv",
        "on"
      ],
      [
        "c",
        "tion"
      ],
      [
        "Ã",
        "Ł"
      ],
      [
        "Ġm",
        "it"
      ],
      [
        "ä¸",
        "Ģ"
      ],
      [
        "ein",
        "e"
      ],
      [
        "t",
        "w"
      ],
      [
        "æ",
        "Ī"
      ],
      [
        "å",
        "ľ"
      ],
      [
        "å",
        "Ĵ"
      ],
      [
        "a",
        "u"
      ],
      [
        "e",
        "h"
      ],
      [
        "Ġ",
        "r"
      ],
      [
        "st",
        "ru"
      ],
      [
        "ç",
        "»"
      ],
      [
        "åĴ",
        "Į"
      ],
      [
        "ĠS",
        "t"
      ],
      [
        "c",
        "e"
      ],
      [
        "æ",
        "ĺ"
      ],
      [
        "Ġf",
        "Ã¼r"
      ],
      [
        "u",
        "l"
      ],
      [
        "ut",
        "z"
      ],
      [
        "ich",
        "t"
      ],
      [
        "Ġ",
        "C"
      ],
      [
        "f",
        "f"
      ],
      [
        "ĠS",
        "ie"
      ],
      [
        "n",
        "en"
      ],
      [
        "esp",
        "on"
      ],
      [
        "a",
        "k"
      ],
      [
        "r",
        "it"
      ],
      [
        "æ",
        "ĸ"
      ],
      [
        "stru",
        "ction"
      ],
      [
        "u",
        "ch"
      ],
      [
        "è",
        "¯"
      ],
      [
        "es",
        "s"
      ],
      [
        "espon",
        "se"
      ],
      [
        "q",
        "u"
      ],
      [
        "Ġ",
        "1"
      ],
      [
        "Ġ",
        "N"
      ],
      [
        "t",
        "z"
      ],
      [
        "ĥ",
        "½"
      ],
      [
        "ie",
        "l"
      ],
      [
        "t",
        "h"
      ],
      [
        "in",
        "d"
      ],
      [
        "Ġo",
        "der"
      ],
      [
        "Ġ",
        "es"
      ],
      [
        "ĠV",
        "er"
      ],
      [
        "utz",
        "er"
      ],
      [
        "or",
        "m"
      ],
      [
        "Ġ",
        "un"
      ],
      [
        "è",
        "®"
      ],
      [
        "om",
        "p"
      ],
      [
        "Ġp",
        "ro"
      ],
      [
        "v",
        "er"
      ],
      [
        "en",
        "d"
      ],
      [
        "i",
        "en"
      ],
      [
        "tw",
        "or"
      ],
      [
        "s",
        "s"
      ],
      [
        "å",
        "º"
      ],
      [
        "å",
        "Ĳ"
      ],
      [
        "æ",
        "ķ"
      ],
      [
        "at",
        "e"
      ],
      [
        "Ġi",
        "m"
      ],
      [
        "Ã¶",
        "n"
      ],
      [
        "è",
        "ĥ½"
      ],
      [
        "æĺ",
        "¯"
      ],
      [
        "ä",
        "¹"
      ],
      [
        "un",
        "gen"
      ],
      [
        "er",
        "e"
      ],
      [
        "ä»",
        "¥"
      ],
      [
        "z",
        "e"
      ],
      [
        "å",
        "Ń"
      ],
      [
        "ä¸",
        "ª"
      ],
      [
        "ol",
        "l"
      ],
      [
        "é",
        "Ģ"
      ],
      [
        "åı",
        "¯"
      ],
      [
        "t",
        "es"
      ],
      [
        "Ġ",
        "U"
      ],
      [
        "s",
        "p"
      ],
      [
        "o",
        "g"
      ],
      [
        "ĠS",
        "ch"
      ],
      [
        "i",
        "m"
      ],
      [
        "n",
        "e"
      ],
      [
        "ãĢ",
        "ģ"
      ],
      [
        "a",
        "b"
      ],
      [
        "Ġa",
        "pp"
      ],
      [
        "ï¼",
        "ļ"
      ],
      [
        "i",
        "d"
      ],
      [
        "twor",
        "ten"
      ],
      [
        "it",
        "h"
      ],
      [
        "Ġs",
        "ich"
      ],
      [
        "Ã¤",
        "n"
      ],
      [
        "çĶ",
        "¨"
      ],
      [
        "Ġ",
        "le"
      ],
      [
        "Ġd",
        "u"
      ],
      [
        "ĠB",
        "en"
      ],
      [
        "Ġs",
        "ie"
      ],
      [
        "Ġein",
        "en"
      ],
      [
        "Ã¼",
        "ber"
      ],
      [
        "Ġf",
        "or"
      ],
      [
        "a",
        "h"
      ],
      [
        "Ġc",
        "omp"
      ],
      [
        "Ġdas",
        "s"
      ],
      [
        "Ġw",
        "ir"
      ],
      [
        "ĠBen",
        "utzer"
      ],
      [
        "Ġh",
        "a"
      ],
      [
        "Ġd",
        "em"
      ],
      [
        "äº",
        "º"
      ],
      [
        "ier",
        "en"
      ],
      [
        "åľ",
        "¨"
      ],
      [
        "a",
        "g"
      ],
      [
        "f",
        "orm"
      ],
      [
        "Ġa",
        "us"
      ],
      [
        "æ",
        "Ŀ"
      ],
      [
        "Ġ",
        "O"
      ],
      [
        "b",
        "es"
      ],
      [
        "å",
        "Ľ"
      ],
      [
        "a",
        "hr"
      ],
      [
        "å",
        "°"
      ],
      [
        "Ġ",
        "he"
      ],
      [
        "ĠAn",
        "tworten"
      ],
      [
        "ä",
        "¼"
      ],
      [
        "å",
        "¸"
      ],
      [
        "è",
        "¡"
      ],
      [
        "Ġw",
        "ie"
      ],
      [
        "i",
        "b"
      ],
      [
        "ĠB",
        "e"
      ],
      [
        "isch",
        "e"
      ],
      [
        "Ġal",
        "s"
      ],
      [
        "ĠĠ",
        "Ġ"
      ],
      [
        "é",
        "ĩ"
      ],
      [
        "c",
        "ri"
      ],
      [
        "å",
        "¼"
      ],
      [
        "Ġc",
        "on"
      ],
      [
        "as",
        "k"
      ],
      [
        "Ġ",
        "2"
      ],
      [
        "Ġs",
        "ch"
      ],
      [
        "al",
        "l"
      ],
      [
        "Ġ",
        "J"
      ],
      [
        "æ",
        "Ĺ"
      ],
      [
        "Ġw",
        "ith"
      ],
      [
        "ro",
        "p"
      ],
      [
        "o",
        "s"
      ],
      [
        "t",
        "s"
      ],
      [
        "er",
        "n"
      ],
      [
        "ä¸",
        "º"
      ],
      [
        "Ġs",
        "ein"
      ],
      [
        "ĠS",
        "p"
      ],
      [
        "Ġd",
        "ies"
      ],
      [
        "rit",
        "e"
      ],
      [
        "e",
        "i"
      ],
      [
        "p",
        "ut"
      ],
      [
        "el",
        "l"
      ],
      [
        "er",
        "s"
      ],
      [
        "å",
        "¹"
      ],
      [
        "å",
        "Ĩ"
      ],
      [
        "ĠE",
        "r"
      ],
      [
        "Ã¤",
        "hr"
      ],
      [
        "Ġk",
        "ann"
      ],
      [
        "Ġ",
        "Ã¼ber"
      ],
      [
        "ur",
        "ch"
      ],
      [
        "i",
        "k"
      ],
      [
        "el",
        "y"
      ],
      [
        "e",
        "k"
      ],
      [
        "è",
        "§"
      ],
      [
        "Ġn",
        "e"
      ],
      [
        "k",
        "eit"
      ],
      [
        "Ġ",
        "j"
      ],
      [
        "Ġt",
        "ask"
      ],
      [
        "Ġs",
        "ind"
      ],
      [
        "o",
        "t"
      ],
      [
        "Ġk",
        "Ã¶n"
      ],
      [
        "lich",
        "en"
      ],
      [
        "å",
        "¯"
      ],
      [
        "Ġ",
        "\""
      ],
      [
        "es",
        "ch"
      ],
      [
        "Ġein",
        "er"
      ],
      [
        "ĠR",
        "e"
      ],
      [
        "f",
        "Ã¼"
      ],
      [
        "a",
        "d"
      ],
      [
        "ç",
        "ī"
      ],
      [
        "Ġre",
        "qu"
      ],
      [
        "æ",
        "Ģ"
      ],
      [
        "r",
        "Ã¤"
      ],
      [
        "er",
        "t"
      ],
      [
        "Ġd",
        "eine"
      ],
      [
        "Ġdes",
        "cri"
      ],
      [
        "x",
        "t"
      ],
      [
        "æľ",
        "ī"
      ],
      [
        "lich",
        "e"
      ],
      [
        "Ġcomp",
        "le"
      ],
      [
        "f",
        "t"
      ],
      [
        "at",
        "ely"
      ],
      [
        "el",
        "len"
      ],
      [
        "i",
        "gen"
      ],
      [
        "ä¸",
        "Ń"
      ],
      [
        "Ġbe",
        "i"
      ],
      [
        "l",
        "l"
      ],
      [
        "Ġa",
        "b"
      ],
      [
        "Ġin",
        "struction"
      ],
      [
        "as",
        "sen"
      ],
      [
        "Ġr",
        "esponse"
      ],
      [
        "el",
        "ow"
      ],
      [
        "v",
        "e"
      ],
      [
        "Ġrequ",
        "est"
      ],
      [
        "å",
        "ĩ"
      ],
      [
        "d",
        "u"
      ],
      [
        "ç",
        "§"
      ],
      [
        "Ġ",
        "gen"
      ],
      [
        "Ġd",
        "a"
      ],
      [
        "isch",
        "en"
      ],
      [
        "Ġapp",
        "rop"
      ],
      [
        "Ġapprop",
        "ri"
      ],
      [
        "è¿",
        "Ļ"
      ],
      [
        "c",
        "t"
      ],
      [
        "æ",
        "ī"
      ],
      [
        "Ġdescri",
        "bes"
      ],
      [
        "B",
        "elow"
      ],
      [
        "Ġs",
        "p"
      ],
      [
        "ĠW",
        "rite"
      ],
      [
        "ĠR",
        "esponse"
      ],
      [
        "ĠIn",
        "struction"
      ],
      [
        "Ġcomple",
        "tes"
      ],
      [
        "Ġappropri",
        "ately"
      ],
      [
        "Ġd",
        "e"
      ],
      [
        "æ",
        "ł"
      ],
      [
        "o",
        "p"
      ],
      [
        "æ",
        "ŀ"
      ],
      [
        "as",
        "s"
      ],
      [
        "e",
        "hr"
      ],
      [
        "o",
        "d"
      ],
      [
        "iv",
        "e"
      ],
      [
        "çĶ",
        "Ł"
      ],
      [
        "ĠA",
        "r"
      ],
      [
        "æķ",
        "°"
      ],
      [
        "åı¯",
        "ä»¥"
      ],
      [
        "o",
        "h"
      ],
      [
        "a",
        "ge"
      ],
      [
        "Ġ",
        "("
      ],
      [
        "h",
        "t"
      ],
      [
        "h",
        "al"
      ],
      [
        "i",
        "ge"
      ],
      [
        "re",
        "und"
      ],
      [
        "ä",
        "¿"
      ],
      [
        "ä",
        "¾"
      ],
      [
        "or",
        "t"
      ],
      [
        "è",
        "¦"
      ],
      [
        "ation",
        "en"
      ],
      [
        "f",
        "en"
      ],
      [
        "ä¸",
        "į"
      ],
      [
        "z",
        "en"
      ],
      [
        "ĠT",
        "he"
      ],
      [
        "Ġ",
        "="
      ],
      [
        "r",
        "Ã¼"
      ],
      [
        "å",
        "½"
      ],
      [
        "å",
        "į"
      ],
      [
        "re",
        "d"
      ],
      [
        "Ġe",
        "x"
      ],
      [
        "th",
        "er"
      ],
      [
        "è¦",
        "ģ"
      ],
      [
        "Ġw",
        "er"
      ],
      [
        "ch",
        "e"
      ],
      [
        "ch",
        "en"
      ],
      [
        "å",
        "Į"
      ],
      [
        "a",
        "ck"
      ],
      [
        "ĠU",
        "n"
      ],
      [
        "é",
        "¢"
      ],
      [
        "in",
        "e"
      ],
      [
        "an",
        "g"
      ],
      [
        "æ",
        "³"
      ],
      [
        "Ġh",
        "il"
      ],
      [
        "l",
        "o"
      ],
      [
        "ä»",
        "¬"
      ],
      [
        "h",
        "re"
      ],
      [
        "ä¸Ģ",
        "ä¸ª"
      ],
      [
        "Ġ",
        "ich"
      ],
      [
        "Ġh",
        "at"
      ],
      [
        "Ã¶",
        "r"
      ],
      [
        "Ġw",
        "h"
      ],
      [
        "Ġw",
        "ar"
      ],
      [
        "Ġd",
        "ar"
      ],
      [
        "äº",
        "Ĩ"
      ],
      [
        "ti",
        "g"
      ],
      [
        "å",
        "·"
      ],
      [
        "l",
        "a"
      ],
      [
        "ç",
        "İ"
      ],
      [
        "ç",
        "Ľ"
      ],
      [
        "he",
        "it"
      ],
      [
        "ĠP",
        "ro"
      ],
      [
        "Ġw",
        "as"
      ],
      [
        "i",
        "ck"
      ],
      [
        "o",
        "ur"
      ],
      [
        "ĠT",
        "e"
      ],
      [
        "u",
        "st"
      ],
      [
        "Ġ",
        "-"
      ],
      [
        "ĠA",
        "uf"
      ],
      [
        "k",
        "t"
      ],
      [
        "å",
        "¾"
      ],
      [
        "Ã¤",
        "h"
      ],
      [
        "é",
        "Ĺ"
      ],
      [
        "Ġ",
        "et"
      ],
      [
        "Ġ",
        "z"
      ],
      [
        "Ġ",
        "on"
      ],
      [
        "w",
        "e"
      ],
      [
        "Ġwer",
        "den"
      ],
      [
        "ĠV",
        "or"
      ],
      [
        "æĿ",
        "¥"
      ],
      [
        "æ",
        "µ"
      ],
      [
        "æ",
        "Ń"
      ],
      [
        "å",
        "¥"
      ],
      [
        "æ",
        "ı"
      ],
      [
        "T",
        "he"
      ],
      [
        "r",
        "an"
      ],
      [
        "Ġwir",
        "d"
      ],
      [
        "Ġ",
        "us"
      ],
      [
        "ss",
        "ist"
      ],
      [
        "a",
        "uf"
      ],
      [
        "is",
        "e"
      ],
      [
        "æ",
        "į"
      ],
      [
        "Ġ",
        "ent"
      ],
      [
        "Ġ",
        "or"
      ],
      [
        "en",
        "n"
      ],
      [
        "ĠD",
        "ie"
      ],
      [
        "æ",
        "İ"
      ],
      [
        "an",
        "t"
      ],
      [
        "Ġal",
        "le"
      ],
      [
        "Ċ",
        "ĠĠĠĠ"
      ],
      [
        "ĠkÃ¶n",
        "nen"
      ],
      [
        "Ġs",
        "en"
      ],
      [
        "Ġm",
        "o"
      ],
      [
        "è",
        "Ģ"
      ],
      [
        "u",
        "g"
      ],
      [
        "u",
        "d"
      ],
      [
        "è¡",
        "Į"
      ],
      [
        "a",
        "us"
      ],
      [
        "Ġv",
        "or"
      ],
      [
        "Ġun",
        "ter"
      ],
      [
        "i",
        "z"
      ],
      [
        "Ġhe",
        "l"
      ],
      [
        "å¯",
        "¹"
      ],
      [
        "m",
        "e"
      ],
      [
        "Ġa",
        "s"
      ],
      [
        "el",
        "n"
      ],
      [
        "a",
        "y"
      ],
      [
        "ç",
        "Ń"
      ],
      [
        "Ġ",
        "y"
      ],
      [
        "er",
        "en"
      ],
      [
        "Ġa",
        "uch"
      ],
      [
        "i",
        "le"
      ],
      [
        "¦",
        "Ĥ"
      ],
      [
        "è¿",
        "ĩ"
      ],
      [
        "å",
        "¿"
      ],
      [
        "ĠE",
        "n"
      ],
      [
        "ä»",
        "ĸ"
      ],
      [
        "i",
        "f"
      ],
      [
        "m",
        "er"
      ],
      [
        "Ġ",
        "it"
      ],
      [
        "Ġt",
        "e"
      ],
      [
        "Ġpro",
        "v"
      ],
      [
        "æ",
        "Ĭ"
      ],
      [
        "æ",
        "Ķ"
      ],
      [
        "ĠE",
        "in"
      ],
      [
        "0",
        "0"
      ],
      [
        "Ĥ",
        "¨"
      ],
      [
        "o",
        "k"
      ],
      [
        "æ",
        "Ħ"
      ],
      [
        "l",
        "Ã¤"
      ],
      [
        "é",
        "Ŀ"
      ],
      [
        "Ġf",
        "reund"
      ],
      [
        "æĪ",
        "ĳ"
      ],
      [
        "a",
        "p"
      ],
      [
        "ssist",
        "ent"
      ],
      [
        "m",
        "ent"
      ],
      [
        "æ",
        "ĭ"
      ],
      [
        "éĢ",
        "ļ"
      ],
      [
        "n",
        "is"
      ],
      [
        "Ġb",
        "ist"
      ],
      [
        "Ġd",
        "urch"
      ],
      [
        "Ġein",
        "em"
      ],
      [
        "ĠG",
        "e"
      ],
      [
        "æ",
        "Ľ"
      ],
      [
        "Ã¤hr",
        "end"
      ],
      [
        "Ġp",
        "a"
      ],
      [
        "Ġg",
        "ro"
      ],
      [
        "äº",
        "İ"
      ],
      [
        "Ġb",
        "es"
      ],
      [
        "Ġn",
        "icht"
      ],
      [
        "ĠF",
        "ra"
      ],
      [
        "Ġs",
        "o"
      ],
      [
        "ar",
        "d"
      ],
      [
        "Ġh",
        "in"
      ],
      [
        "h",
        "en"
      ],
      [
        "å",
        "¦Ĥ"
      ],
      [
        "g",
        "a"
      ],
      [
        "å®",
        "ĥ"
      ],
      [
        "re",
        "ich"
      ],
      [
        "om",
        "men"
      ],
      [
        "Ã¶",
        "g"
      ],
      [
        "åĬ",
        "¨"
      ],
      [
        "Ġc",
        "o"
      ],
      [
        "Ġd",
        "ein"
      ],
      [
        "l",
        "ie"
      ],
      [
        "w",
        "en"
      ],
      [
        "æĹ",
        "¶"
      ],
      [
        "â",
        "Ģ"
      ],
      [
        "æ",
        "Ĥ¨"
      ],
      [
        "ç",
        "®"
      ],
      [
        "æı",
        "Ĳ"
      ],
      [
        "Ã¼",
        "tz"
      ],
      [
        "Ġc",
        "an"
      ],
      [
        "Ġk",
        "on"
      ],
      [
        "il",
        "l"
      ],
      [
        "ter",
        "n"
      ],
      [
        "ÃŁ",
        "en"
      ],
      [
        "æ",
        "´"
      ],
      [
        "at",
        "en"
      ],
      [
        "l",
        "y"
      ],
      [
        "ch",
        "te"
      ],
      [
        "æį",
        "®"
      ],
      [
        "å",
        "ĳ"
      ],
      [
        "Ġ",
        "en"
      ],
      [
        "st",
        "e"
      ],
      [
        "ung",
        "s"
      ],
      [
        "ier",
        "t"
      ],
      [
        "æĪ",
        "Ĳ"
      ],
      [
        "Ċ",
        "ĠĠĠ"
      ],
      [
        "er",
        "v"
      ],
      [
        "un",
        "k"
      ],
      [
        "it",
        "y"
      ],
      [
        "å¤",
        "§"
      ],
      [
        "Ġhil",
        "f"
      ],
      [
        "o",
        "ch"
      ],
      [
        "u",
        "re"
      ],
      [
        "æ",
        "°"
      ],
      [
        "Ġb",
        "ie"
      ],
      [
        "Ġum",
        "f"
      ],
      [
        "çī",
        "©"
      ],
      [
        "ie",
        "f"
      ],
      [
        "re",
        "i"
      ],
      [
        "åº",
        "Ķ"
      ],
      [
        "D",
        "u"
      ],
      [
        "è",
        "ĩ"
      ],
      [
        "te",
        "l"
      ],
      [
        "ĠL",
        "e"
      ],
      [
        "form",
        "ationen"
      ],
      [
        "åľ",
        "°"
      ],
      [
        "å®",
        "ļ"
      ],
      [
        "æĽ",
        "´"
      ],
      [
        "è",
        "¾"
      ],
      [
        "i",
        "de"
      ],
      [
        "Ġin",
        "put"
      ],
      [
        "Ġ",
        "Ã"
      ],
      [
        "ro",
        "m"
      ],
      [
        "è",
        "´"
      ],
      [
        "åĪ",
        "°"
      ],
      [
        "ç",
        "¨"
      ],
      [
        "al",
        "te"
      ],
      [
        "ĠH",
        "au"
      ],
      [
        "ç§",
        "į"
      ],
      [
        "æ",
        "Į"
      ],
      [
        "der",
        "n"
      ],
      [
        "te",
        "xt"
      ],
      [
        "Ġha",
        "ben"
      ],
      [
        "ä¸",
        "ĭ"
      ],
      [
        "ĠA",
        "us"
      ],
      [
        "ĠIn",
        "formationen"
      ],
      [
        "å",
        "İ"
      ],
      [
        "er",
        "g"
      ],
      [
        "it",
        "Ã¤"
      ],
      [
        "at",
        "iv"
      ],
      [
        "Ġl",
        "og"
      ],
      [
        "ä¼",
        "ļ"
      ],
      [
        "Ġw",
        "e"
      ],
      [
        "ĠD",
        "ein"
      ],
      [
        "at",
        "z"
      ],
      [
        "el",
        "t"
      ],
      [
        "Ġzu",
        "r"
      ],
      [
        "Ġn",
        "ach"
      ],
      [
        "ck",
        "en"
      ],
      [
        "æĸ",
        "¹"
      ],
      [
        "é",
        "ľ"
      ],
      [
        "Ġge",
        "ben"
      ],
      [
        "id",
        "es"
      ],
      [
        "Ġ",
        "3"
      ],
      [
        "Ġw",
        "Ã¤hrend"
      ],
      [
        "der",
        "e"
      ],
      [
        "Ġw",
        "ur"
      ],
      [
        "ĠD",
        "ies"
      ],
      [
        "ĠG",
        "esch"
      ],
      [
        "åĪ",
        "Ĩ"
      ],
      [
        "i",
        "al"
      ],
      [
        "p",
        "f"
      ],
      [
        "ar",
        "k"
      ],
      [
        "hr",
        "en"
      ],
      [
        "æĢ",
        "§"
      ],
      [
        "ga",
        "be"
      ],
      [
        "c",
        "c"
      ],
      [
        "Ġs",
        "oll"
[...]
