{"vocab_size": 5000, "bos_token": "<s>", "eos_token": "</s>", "pad_token": "<pad>", "all_special": ["<s>", "</s>", "<pad>", "<sys>", "<usr>", "<ai>"], "token_to_id": {"<s>": 0, "</s>": 1, "<pad>": 2, "<sys>": 3, "<usr>": 4, "<ai>": 5, "Ā": 6, "ā": 7, "Ă": 8, "ă": 9, "Ą": 10, "ą": 11, "Ć": 12, "ć": 13, "Ĉ": 14, "ĉ": 15, "Ċ": 16, "ċ": 17, "Č": 18, "č": 19, "Ď": 20, "ď": 21, "Đ": 22, "đ": 23, "Ē": 24, "ē": 25, "Ĕ": 26, "ĕ": 27, "Ė": 28, "ė": 29, "Ę": 30, "ę": 31, "Ě": 32, "ě": 33, "Ĝ": 34, "ĝ": 35, "Ğ": 36, "ğ": 37, "Ġ": 38, "!": 39, "\"": 40, "#": 41, "$": 42, "%": 43, "&": 44, "'": 45, "(": 46, ")": 47, "*": 48, "+": 49, ",": 50, "-": 51, ".": 52, "/": 53, "0": 54, "1": 55, "2": 56, "3": 57, "4": 58, "5": 59, "6": 60, "7": 61, "8": 62, "9": 63, ":": 64, ";": 65, "<": 66, "=": 67, ">": 68, "?": 69, "@": 70, "A": 71, "B": 72, "C": 73, "D": 74, "E": 75, "F": 76, "G": 77, "H": 78, "I": 79, "J": 80, "K": 81, "L": 82, "M": 83, "N": 84, "O": 85, "P": 86, "Q": 87, "R": 88, "S": 89, "T": 90, "U": 91, "V": 92, "W": 93, "X": 94, "Y": 95, "Z": 96, "[": 97, "\\": 98, "]": 99, "^": 100, "_": 101, "`": 102, "a": 103, "b": 104, "c": 105, "d": 106, "e": 107, "f": 108, "g": 109, "h": 110, "i": 111, "j": 112, "k": 113, "l": 114, "m": 115, "n": 116, "o": 117, "p": 118, "q": 119, "r": 120, "s": 121, "t": 122, "u": 123, "v": 124, "w": 125, "x": 126, "y": 127, "z": 128, "{": 129, "|": 130, "}": 131, "~": 132, "ġ": 133, "Ģ": 134, "ģ": 135, "Ĥ": 136, "ĥ": 137, "Ħ": 138, "ħ": 139, "Ĩ": 140, "ĩ": 141, "Ī": 142, "ī": 143, "Ĭ": 144, "ĭ": 145, "Į": 146, "į": 147, "İ": 148, "ı": 149, "Ĳ": 150, "ĳ": 151, "Ĵ": 152, "ĵ": 153, "Ķ": 154, "ķ": 155, "ĸ": 156, "Ĺ": 157, "ĺ": 158, "Ļ": 159, "ļ": 160, "Ľ": 161, "ľ": 162, "Ŀ": 163, "ŀ": 164, "Ł": 165, "ł": 166, "¡": 167, "¢": 168, "£": 169, "¤": 170, "¥": 171, "¦": 172, "§": 173, "¨": 174, "©": 175, "ª": 176, "«": 177, "¬": 178, "Ń": 179, "®": 180, "¯": 181, "°": 182, "±": 183, "²": 184, "³": 185, "´": 186, "µ": 187, "¶": 188, "·": 189, "¸": 190, "¹": 191, "º": 192, "»": 193, "¼": 194, "½": 195, "¾": 196, "¿": 197, "À": 198, "Á": 199, "Â": 200, "Ã": 201, "Ä": 202, "Å": 203, "Æ": 204, "Ç": 205, "È": 206, "É": 207, "Ê": 208, "Ë": 209, "Ì": 210, "Í": 211, "Î": 212, "Ï": 213, "Ð": 214, "Ñ": 215, "Ò": 216, "Ó": 217, "Ô": 218, "Õ": 219, "Ö": 220, "×": 221, "Ø": 222, "Ù": 223, "Ú": 224, "Û": 225, "Ü": 226, "Ý": 227, "Þ": 228, "ß": 229, "à": 230, "á": 231, "â": 232, "ã": 233, "ä": 234, "å": 235, "æ": 236, "ç": 237, "è": 238, "é": 239, "ê": 240, "ë": 241, "ì": 242, "í": 243, "î": 244, "ï": 245, "ð": 246, "ñ": 247, "ò": 248, "ó": 249, "ô": 250, "õ": 251, "ö": 252, "÷": 253, "ø": 254, "ù": 255, "ú": 256, "û": 257, "ü": 258, "ý": 259, "þ": 260, "ÿ": 261, "th": 262, "es": 263, "in": 264, "on": 265, "an": 266, "the": 267, "er": 268, "en": 269, "or": 270, "is": 271, "as": 272, "pr": 273, "el": 274, "ed": 275, "al": 276, "and": 277, "ar": 278, "ing": 279, "ct": 280, "tha": 281, "om": 282, "ion": 283, "of": 284, "ou": 285, "ow": 286, "ĊĊ": 287, "pro": 288, "ch": 289, "pl": 290, "ä¸": 291, "esp": 292, "cr": 293, "ent": 294, "In": 295, "com": 296, "ol": 297, "est": 298, "ex": 299, "il": 300, "qu": 301, "id": 302, "iv": 303, "Th": 304, "con": 305, "ov": 306, "for": 307, "ir": 308, "pu": 309, "ib": 310, "tes": 311, "em": 312, "ith": 313, "cti": 314, "comp": 315, "im": 316, "elo": 317, "ins": 318, "çļ": 319, "esc": 320, "The": 321, "ask": 322, "am": 323, "Bel": 324, "equ": 325, "Belo": 326, "with": 327, "tas": 328, "Wr": 329, "Wri": 330, "ad": 331, "task": 332, "ab": 333, "ig": 334, "uct": 335, "requ": 336, "ĠĠ": 337, "ppr": 338, "appr": 339, "ess": 340, "appro": 341, "Ins": 342, "Res": 343, "reques": 344, "Resp": 345, "ev": 346, "os": 347, "cu": 348, "ag": 349, "ces": 350, "od": 351, "fu": 352, "tion": 353, "wh": 354, "cl": 355, "cont": 356, "ak": 357, "Du": 358, "per": 359, "are": 360, "can": 361, "ine": 362, "ay": 363, "all": 364, "ain": 365, "low": 366, "av": 367, "ear": 368, "ä¸Ģ": 369, "og": 370, "äº": 371, "ies": 372, "air": 373, "int": 374, "wor": 375, "oll": 376, "åĪ": 377, "inp": 378, "ck": 379, "ere": 380, "inc": 381, "eg": 382, "ant": 383, "çļĦ": 384, "ä»": 385, "our": 386, "fur": 387, "you": 388, "thi": 389, "au": 390, "tt": 391, "pair": 392, "Inp": 393, "paired": 394, "igh": 395, "sen": 396, "ich": 397, "ener": 398, "fol": 399, "æĺ": 400, "ist": 401, "rom": 402, "foll": 403, "ons": 404, "ind": 405, "eas": 406, "åı": 407, "iz": 408, "cal": 409, "ect": 410, "sent": 411, "oth": 412, "ob": 413, "oul": 414, "ass": 415, "from": 416, "åħ": 417, "ach": 418, "çĶ": 419, "ill": 420, "was": 421, "ey": 422, "ple": 423, "æľ": 424, "ph": 425, "ang": 426, "ext": 427, "tem": 428, "è¿": 429, "ien": 430, "ake": 431, "ä½": 432, "è¯": 433, "It": 434, "ell": 435, "een": 436, "cou": 437, "min": 438, "als": 439, "act": 440, "ori": 441, "ost": 442, "ele": 443, "iven": 444, "ç»": 445, "åŃ": 446, "les": 447, "eal": 448, "å®": 449, "è®": 450, "eb": 451, "æĸ": 452, "tim": 453, "cre": 454, "'s": 455, "ted": 456, "fer": 457, "æĪ": 458, "giv": 459, "hel": 460, "ave": 461, "mak": 462, "ok": 463, "ide": 464, "âĢ": 465, "cur": 466, "hav": 467, "hou": 468, "pla": 469, "AI": 470, "ast": 471, "å¤": 472, "ein": 473, "00": 474, "fy": 475, "anc": 476, "por": 477, "help": 478, "ªå": 479, "ame": 480, "åĲ": 481, "ood": 482, "ech": 483, "par": 484, "æķ": 485, "cus": 486, "exp": 487, "othe": 488, "whi": 489, "Sh": 490, "ead": 491, "ook": 492, "è¾": 493, "edu": 494, "abl": 495, "erv": 496, "åĨ": 497, "fin": 498, "earn": 499, "given": 500, "pre": 501, "inf": 502, "cess": 503, "isi": 504, "rel": 505, "æĺ¯": 506, "St": 507, "ial": 508, "ik": 509, "omer": 510, "over": 511, "Wh": 512, "car": 513, "each": 514, "rin": 515, "any": 516, "pres": 517, "åľ": 518, "Gen": 519, "have": 520, "Al": 521, "echn": 522, "cy": 523, "eth": 524, "word": 525, "Cr": 526, "shou": 527, "lear": 528, "learn": 529, "Ã¶": 530, "ä¹": 531, "She": 532, "This": 533, "pli": 534, "shoul": 535, "ari": 536, "comm": 537, "dis": 538, "erg": 539, "ä¸ĭ": 540, "åº": 541, "Gener": 542, "cons": 543, "tter": 544, "åĩ": 545, "KÃ¶": 546, "KÃ¶n": 547, "ffer": 548, "ppl": 549, "evel": 550, "ps": 551, "ever": 552, "your": 553, "ack": 554, "eed": 555, "An": 556, "ealth": 557, "had": 558, "stem": 559, "tech": 560, "ä¸ª": 561, "imp": 562, "ile": 563, "iffer": 564, "sol": 565, "techn": 566, "web": 567, "ani": 568, "iffere": 569, "my": 570, "thr": 571, "lik": 572, "ystem": 573, "system": 574, "ç§": 575, "arg": 576, "ines": 577, "Ex": 578, "abou": 579, "cces": 580, "ccess": 581, "time": 582, "work": 583, "exa": 584, "differ": 585, "make": 586, "plan": 587, "¯ä¸": 588, "è§": 589, "differe": 590, "heal": 591, "ili": 592, "impr": 593, "way": 594, "Cre": 595, "esi": 596, "Ad": 597, "health": 598, "wil": 599, "Ch": 600, "Des": 601, "ath": 602, "oy": 603, "pri": 604, "ean": 605, "ern": 606, "coun": 607, "even": 608, "¥ä¸": 609, "è¾ĵ": 610, "Su": 611, "ian": 612, "nen": 613, "appl": 614, "cs": 615, "ail": 616, "ation": 617, "dev": 618, "enc": 619, "mos": 620, "Ã¼": 621, "æı": 622, "ä¸º": 623, "ç®": 624, "aut": 625, "cien": 626, "cor": 627, "now": 628, "ory": 629, "wr": 630, "will": 631, "å°": 632, "cial": 633, "ery": 634, "pos": 635, "çī": 636, "Nex": 637, "Next": 638, "like": 639, "pan": 640, "Ħè": 641, "cis": 642, "pas": 643, "ä»¥": 644, "eng": 645, "éĩ": 646, "Add": 647, "ccu": 648, "how": 649, "ition": 650, "ong": 651, "tak": 652, "ween": 653, "tween": 654, "etween": 655, "webs": 656, "åħ¥": 657, "è¡": 658, "Ich": 659, "Wha": 660, "Ã¼r": 661, "éĢ": 662, "adv": 663, "alg": 664, "ara": 665, "cen": 666, "els": 667, "pen": 668, "pers": 669, "ĵåħ": 670, "lich": 671, "between": 672, "econ": 673, "Ļä¸": 674, "inv": 675, "thm": 676, "ĥ½": 677, "ju": 678, "tÃ¼": 679, "atÃ¼": 680, "NatÃ¼": 681, "NatÃ¼r": 682, "åĽ": 683, "æł": 684, "Com": 685, "ccur": 686, "opl": 687, "wri": 688, "æŃ": 689, "Als": 690, "cin": 691, "å¸": 692, "ates": 693, "appli": 694, "cos": 695, "til": 696, "æĿ": 697, "Fin": 698, "acti": 699, "riv": 700, "tex": 701, "text": 702, "å¼": 703, "Das": 704, "iss": 705, "off": 706, "åį": 707, "aus": 708, "cisi": 709, "conc": 710, "ecis": 711, "decis": 712, "decisi": 713, "fect": 714, "ffect": 715, "pol": 716, "port": 717, "ram": 718, "rou": 719, "ring": 720, "som": 721, "some": 722, "tar": 723, "é¢": 724, "accu": 725, "accur": 726, "eak": 727, "eopl": 728, "ett": 729, "eople": 730, "form": 731, "hig": 732, "pin": 733, "âĢĻ": 734, "æĢ": 735, "ĴĮ": 736, "att": 737, "ier": 738, "oin": 739, "§į": 740, "»º": 741, "æ³": 742, "æī": 743, "age": 744, "high": 745, "who": 746, "æŀ": 747, "Un": 748, "van": 749, "You": 750, "cau": 751, "cent": 752, "lead": 753, "oni": 754, "peopl": 755, "people": 756, "row": 757, "tch": 758, "wel": 759, "worl": 760, "ä¸Ń": 761, "Giv": 762, "eine": 763, "year": 764, "å¥": 765, "cel": 766, "cle": 767, "coul": 768, "expl": 769, "mod": 770, "most": 771, "part": 772, "whil": 773, "Desc": 774, "Expl": 775, "On": 776, "åĮ": 777, "caus": 778, "clas": 779, "well": 780, "æĹ": 781, "col": 782, "ove": 783, "teg": 784, "åĨĻ": 785, "02": 786, "Es": 787, "effect": 788, "know": 789, "pass": 790, "sw": 791, "ä¼": 792, "Con": 793, "ax": 794, "alu": 795, "202": 796, "day": 797, "good": 798, "pur": 799, "sou": 800, "ºä¸": 801, "æĬ": 802, "æį": 803, "å·": 804, "å½": 805, "éĹ": 806, "Ĭ¨": 807, "Dein": 808, "Int": 809, "been": 810, "cost": 811, "ecom": 812, "inn": 813, "main": 814, "å¯": 815, "oft": 816, "Deine": 817, "acces": 818, "access": 819, "both": 820, "cri": 821, "cul": 822, "exc": 823, "ical": 824, "iden": 825, "mach": 826, "machin": 827, "need": 828, "oh": 829, "onl": 830, "onm": 831, "sel": 832, "tiv": 833, "var": 834, "ateg": 835, "Comp": 836, "Kan": 837, "econo": 838, "env": 839, "itt": 840, "isk": 841, "lev": 842, "lob": 843, "reach": 844, "¦ģ": 845, "åĵ": 846, "rig": 847, "ade": 848, "cho": 849, "fas": 850, "kil": 851, "lig": 852, "nam": 853, "vari": 854, "wou": 855, "wha": 856, "éĿ": 857, "19": 858, "esu": 859, "ä¾": 860, "ä½ł": 861, "å¾": 862, "Was": 863, "cient": 864, "devel": 865, "ees": 866, "edg": 867, "eing": 868, "fam": 869, "ful": 870, "icien": 871, "ficien": 872, "fficien": 873, "ject": 874, "makin": 875, "ock": 876, "rev": 877, "woul": 878, "Ģä¸": 879, "Kann": 880, "Nam": 881, "Name": 882, "å¿": 883, "Cl": 884, "Id": 885, "book": 886, "efficien": 887, "etter": 888, "grow": 889, "log": 890, "pon": 891, "perf": 892, "rem": 893, "rela": 894, "¦Ĥ": 895, "æµ": 896, "For": 897, "Iden": 898, "ewr": 899, "ewri": 900, "ima": 901, "ish": 902, "liv": 903, "pag": 904, "rad": 905, "ç«": 906, "çĲ": 907, "driv": 908, "fir": 909, "fou": 910, "lobal": 911, "take": 912, "Find": 913, "cer": 914, "righ": 915, "wal": 916, "ªç": 917, "ä¿": 918, "Rewr": 919, "Rewri": 920, "cm": 921, "conv": 922, "eam": 923, "epr": 924, "fact": 925, "find": 926, "ligh": 927, "may": 928, "pow": 929, "when": 930, "æ¯": 931, "ç±": 932, "è¿Ļ": 933, "eu": 934, "iel": 935, "oon": 936, "01": 937, "Der": 938, "abil": 939, "eso": 940, "level": 941, "ors": 942, "rav": 943, "reg": 944, "å¹": 945, "çĶŁ": 946, "łæĺ": 947, "rien": 948, "¢ĺ": 949, "æ°": 950, "ç¨": 951, "Cu": 952, "Joh": 953, "Kl": 954, "efor": 955, "ign": 956, "kill": 957, "ocial": 958, "pul": 959, "sig": 960, "sour": 961, "tA": 962, "Im": 963, "ah": 964, "gan": 965, "rain": 966, "Ĥ¨": 967, "Au": 968, "En": 969, "John": 970, "Um": 971, "ank": 972, "aro": 973, "atter": 974, "efin": 975, "fun": 976, "glob": 977, "ited": 978, "look": 979, "mean": 980, "ntil": 981, "ovi": 982, "page": 983, "skil": 984, "skill": 985, "until": 986, "yz": 987, "years": 988, "¸¸": 989, "åĪĽ": 990, "çĽ": 991, "bin": 992, "frien": 993, "friend": 994, "¥è": 995, "åĪĹ": 996, "ç»Ļ": 997, "arm": 998, "back": 999, "cog": 1000, "disc": 1001, "eath": 1002, "emb": 1003, "epres": 1004, "food": 1005, "job": 1006, "ool": 1007, "oor": 1008, "ole": 1009, "poli": 1010, "rateg": 1011, "rov": 1012, "rele": 1013, "social": 1014, "trateg": 1015, "strateg": 1016, "¨ĭ": 1017, "åİ": 1018, "Ĳä¸": 1019, "As": 1020, "How": 1021, "Mar": 1022, "200": 1023, "201": 1024, "Ein": 1025, "becom": 1026, "bein": 1027, "being": 1028, "eau": 1029, "beau": 1030, "beaut": 1031, "eason": 1032, "factor": 1033, "gam": 1034, "icu": 1035, "lov": 1036, "less": 1037, "model": 1038, "opu": 1039, "opul": 1040, "popu": 1041, "popul": 1042, "spr": 1043, "sign": 1044, "solu": 1045, "wher": 1046, "ªé": 1047, "¯è": 1048, "æĮ": 1049, "æĻ": 1050, "è½": 1051, "įķ": 1052, "Ĺè": 1053, "Clas": 1054, "Given": 1055, "Klar": 1056, "erb": 1057, "py": 1058, "¼ı": 1059, "åľ¨": 1060, "è´": 1061, "ĭé": 1062, "15": 1063, "Ar": 1064, "brin": 1065, "bring": 1066, "devi": 1067, "ecen": 1068, "ecent": 1069, "famil": 1070, "foun": 1071, "iu": 1072, "icher": 1073, "impl": 1074, "mad": 1075, "made": 1076, "nig": 1077, "nigh": 1078, "ocu": 1079, "pm": 1080, "ppor": 1081, "repr": 1082, "sib": 1083, "tain": 1084, "thy": 1085, "yin": 1086, "åĳ": 1087, "ĵģ": 1088, "Ou": 1089, "Sta": 1090, "che": 1091, "chi": 1092, "çĶ¨": 1093, "è¿°": 1094, "100": 1095, "11": 1096, "Sich": 1097, "Sicher": 1098, "US": 1099, "Uni": 1100, "cam": 1101, "cogn": 1102, "conf": 1103, "cord": 1104, "dan": 1105, "efficient": 1106, "fiv": 1107, "fina": 1108, "firs": 1109, "five": 1110, "global": 1111, "ix": 1112, "meth": 1113, "non": 1114, "oes": 1115, "phr": 1116, "power": 1117, "scien": 1118, "sid": 1119, "star": 1120, "systems": 1121, "tf": 1122, "temp": 1123, "wid": 1124, "why": 1125, "åģ": 1126, "ç½": 1127, "çİ": 1128, "è®¡": 1129, "ŀĭ": 1130, "Am": 1131, "Bu": 1132, "egin": 1133, "ger": 1134, "tis": 1135, "£é": 1136, "¥é": 1137, "ä¸ī": 1138, "æ´": 1139, "æİ": 1140, "Ħä¸": 1141, "ĩĬ": 1142, "Cal": 1143, "add": 1144, "ases": 1145, "bett": 1146, "better": 1147, "deb": 1148, "ecog": 1149, "ecu": 1150, "eer": 1151, "ecogn": 1152, "fil": 1153, "flow": 1154, "gram": 1155, "gramm": 1156, "hom": 1157, "ipl": 1158, "key": 1159, "oem": 1160, "ox": 1161, "obj": 1162, "poss": 1163, "pport": 1164, "recog": 1165, "recogn": 1166, "requi": 1167, "sim": 1168, "solv": 1169, "tb": 1170, "·æ": 1171, "Prov": 1172, "Provid": 1173, "cra": 1174, "mes": 1175, "reen": 1176, "ºı": 1177, "çº": 1178, "Ģé": 1179, "000": 1180, "12": 1181, "atem": 1182, "aly": 1183, "ary": 1184, "aud": 1185, "beg": 1186, "care": 1187, "cert": 1188, "corr": 1189, "div": 1190, "eig": 1191, "eon": 1192, "ecur": 1193, "eigh": 1194, "item": 1195, "ibl": 1196, "ient": 1197, "ism": 1198, "jus": 1199, "knowl": 1200, "lion": 1201, "max": 1202, "metho": 1203, "orr": 1204, "oss": 1205, "poem": 1206, "ping": 1207, "plo": 1208, "recen": 1209, "rees": 1210, "recent": 1211, "repres": 1212, "trad": 1213, "uctu": 1214, "veg": 1215, "zin": 1216, "ä¸į": 1217, "äºº": 1218, "æĥ": 1219, "æĭ": 1220, "çŃ": 1221, "ıè¿": 1222, "Ńå": 1223, "Ed": 1224, "az": 1225, "¨ä¸": 1226, "®é": 1227, "å°Ĩ": 1228, "ç¾": 1229, "è§£": 1230, "Anal": 1231, "Give": 1232, "One": 1233, "Str": 1234, "Sum": 1235, "Us": 1236, "ban": 1237, "befor": 1238, "before": 1239, "cas": 1240, "ccou": 1241, "ccoun": 1242, "comb": 1243, "dist": 1244, "eel": 1245, "easu": 1246, "effecti": 1247, "expr": 1248, "game": 1249, "growth": 1250, "icul": 1251, "isu": 1252, "jor": 1253, "ajor": 1254, "meas": 1255, "mem": 1256, "measu": 1257, "oal": 1258, "oil": 1259, "oint": 1260, "pend": 1261, "pera": 1262, "real": 1263, "ruct": 1264, "secu": 1265, "secur": 1266, "tipl": 1267, "ltipl": 1268, "tool": 1269, "ultipl": 1270, "æĶ": 1271, "ç¡": 1272, "èĲ": 1273, "éĶ": 1274, "Lis": 1275, "Pl": 1276, "Sug": 1277, "ama": 1278, "bir": 1279, "cour": 1280, "earc": 1281, "erf": 1282, "nct": 1283, "oper": 1284, "«ł": 1285, "æıı": 1286, "ĲĨ": 1287, "'t": 1288, "Dies": 1289, "Mak": 1290, "Wel": 1291, "atch": 1292, "atemen": 1293, "clim": 1294, "coll": 1295, "cro": 1296, "defin": 1297, "ecr": 1298, "easi": 1299, "fig": 1300, "home": 1301, "iqu": 1302, "itch": 1303, "ield": 1304, "lau": 1305, "major": 1306, "multipl": 1307, "minu": 1308, "nex": 1309, "oug": 1310, "pes": 1311, "poin": 1312, "para": 1313, "point": 1314, "rack": 1315, "read": 1316, "reas": 1317, "ructu": 1318, "sav": 1319, "sear": 1320, "sis": 1321, "searc": 1322, "start": 1323, "tatem": 1324, "statem": 1325, "statemen": 1326, "truct": 1327, "struct": 1328, "structu": 1329, "thc": 1330, "walk": 1331, "ä¸¤": 1332, "æ²": 1333, "çĤ": 1334, "Is": 1335, "List": 1336, "åĪ¶": 1337, "çķ": 1338, "èĩ": 1339, "èī": 1340, "Ļ¨": 1341, "Make": 1342, "Win": 1343, "Welc": 1344, "accou": 1345, "accoun": 1346, "amou": 1347, "ava": 1348, "bon": 1349, "become": 1350, "cook": 1351, "calc": 1352, "dig": 1353, "does": 1354, "eav": 1355, "emis": 1356, "ficu": 1357, "fficu": 1358, "fficul": 1359, "green": 1360, "ifficu": 1361, "ifficul": 1362, "imm": 1363, "lookin": 1364, "multiple": 1365, "ooth": 1366, "open": 1367, "patt": 1368, "ped": 1369, "pical": 1370, "patter": 1371, "reak": 1372, "show": 1373, "siz": 1374, "tien": 1375, "atien": 1376, "atient": 1377, "patien": 1378, "patient": 1379, "track": 1380, "trees": 1381, "tions": 1382, "ypical": 1383, "typical": 1384, "æ¬": 1385, "æĦ": 1386, "æī¾": 1387, "èµ": 1388, "éķ": 1389, "Cons": 1390, "Edi": 1391, "Par": 1392, "brig": 1393, "brigh": 1394, "hous": 1395, "rag": 1396, "ä¸»": 1397, "ä¸Ĭ": 1398, "åĻ": 1399, "æľī": 1400, "ç´": 1401, "é¡": 1402, "éĺ": 1403, "Ĭ¡": 1404, "ļä¸": 1405, "Calc": 1406, "Desi": 1407, "Fina": 1408, "Ste": 1409, "War": 1410, "ated": 1411, "bear": 1412, "bow": 1413, "cies": 1414, "cell": 1415, "chas": 1416, "ded": 1417, "difficu": 1418, "difficul": 1419, "ecau": 1420, "becau": 1421, "becaus": 1422, "ecies": 1423, "eith": 1424, "econd": 1425, "eithe": 1426, "empl": 1427, "ero": 1428, "fiel": 1429, "field": 1430, "hon": 1431, "ites": 1432, "iang": 1433, "nov": 1434, "name": 1435, "novel": 1436, "obil": 1437, "opera": 1438, "pecies": 1439, "plor": 1440, "poll": 1441, "pub": 1442, "rian": 1443, "riang": 1444, "species": 1445, "strategies": 1446, "tog": 1447, "ton": 1448, "tow": 1449, "trian": 1450, "triang": 1451, "vege": 1452, "wan": 1453, "want": 1454, "£ç": 1455, "¹ł": 1456, "äºİ": 1457, "æģ": 1458, "ç¯": 1459, "īè": 1460, "Łè": 1461, "Fu": 1462, "My": 1463, "nch": 1464, "oda": 1465, "oud": 1466, "twor": 1467, "®µ": 1468, "äºĨ": 1469, "åı¯": 1470, "æ®": 1471, "ç¤": 1472, "ç¬": 1473, "ç³": 1474, "Ļº": 1475, "Conv": 1476, "Mach": 1477, "Mon": 1478, "NN": 1479, "Sm": 1480, "aid": 1481, "carb": 1482, "dir": 1483, "dire": 1484, "eces": 1485, "eps": 1486, "ecre": 1487, "esh": 1488, "feel": 1489, "fast": 1490, "figu": 1491, "forc": 1492, "goal": 1493, "grou": 1494, "ior": 1495, "known": 1496, "mol": 1497, "memb": 1498, "mole": 1499, "oct": 1500, "octor": 1501, "peed": 1502, "pid": 1503, "peri": 1504, "quar": 1505, "reli": 1506, "secon": 1507, "speed": 1508, "squ": 1509, "second": 1510, "simpl": 1511, "spre": 1512, "squar": 1513, "team": 1514, "tect": 1515, "toge": 1516, "typicall": 1517, "wast": 1518, "witho": 1519, "½çļ": 1520, "è°": 1521, "èĤ": 1522, "é£": 1523, "éĻ": 1524, "Ĥ¹": 1525, "Ĩè": 1526, "Art": 1527, "Dev": 1528, "Wow": 1529, "acr": 1530, "los": 1531, "¯ĩ": 1532, "¸ħ": 1533, "æ±": 1534, "èģ": 1535, "é¦": 1536, "Amer": 1537, "Cas": 1538, "Hier": 1539, "Machin": 1540, "Out": 1541, "Ther": 1542, "Thr": 1543, "When": 1544, "Wind": 1545, "alt": 1546, "break": 1547, "begin": 1548, "cean": 1549, "camp": 1550, "chal": 1551, "clos": 1552, "cycl": 1553, "dar": 1554, "etwor": 1555, "eathe": 1556, "ecess": 1557, "ecomm": 1558, "effects": 1559, "elt": 1560, "erin": 1561, "etwork": 1562, "ffor": 1563, "fut": 1564, "hear": 1565, "ict": 1566, "ila": 1567, "ilk": 1568, "leadin": 1569, "mob": 1570, "mooth": 1571, "mobil": 1572, "mosp": 1573, "neces": 1574, "necess": 1575, "needs": 1576, "ocean": 1577, "ocus": 1578, "oing": 1579, "peak": 1580, "ppin": 1581, "ption": 1582, "option": 1583, "past": 1584, "phy": 1585, "pping": 1586, "recom": 1587, "recomm": 1588, "revi": 1589, "revol": 1590, "sal": 1591, "sam": 1592, "scal": 1593, "smooth": 1594, "same": 1595, "scienc": 1596, "teas": 1597, "teps": 1598, "steps": 1599, "tmos": 1600, "atmos": 1601, "atmosp": 1602, "trav": 1603, "tiva": 1604, "tradi": 1605, "uation": 1606, "tuation": 1607, "ituation": 1608, "situation": 1609, "uil": 1610, "wen": 1611, "ww": 1612, "went": 1613, "»Ħ": 1614, "½į": 1615, "âĢĵ": 1616, "âĢľ": 1617, "åŁ": 1618, "åĩº": 1619, "æĪĳ": 1620, "ç©": 1621, "ģ¥": 1622, "ľä¸": 1623, "Aus": 1624, "Ov": 1625, "Over": 1626, "aph": 1627, "erp": 1628, "lack": 1629, "mess": 1630, "pper": 1631, "phon": 1632, "³»": 1633, "µè": 1634, "½±": 1635, "å±": 1636, "åĪ°": 1637, "æ¨": 1638, "ģ¯": 1639, "ĸæ": 1640, "Ńĸ": 1641, "Devel": 1642, "Econ": 1643, "Econo": 1644, "Lin": 1645, "Yes": 1646, "atas": 1647, "away": 1648, "achi": 1649, "ared": 1650, "atase": 1651, "bod": 1652, "buil": 1653, "body": 1654, "cation": 1655, "ccor": 1656, "cod": 1657, "cov": 1658, "ccord": 1659, "cover": 1660, "datas": 1661, "doct": 1662, "datase": 1663, "defini": 1664, "digi": 1665, "doctor": 1666, "ecor": 1667, "efu": 1668, "epl": 1669, "etect": 1670, "emo": 1671, "ethi": 1672, "focu": 1673, "focus": 1674, "gth": 1675, "icl": 1676, "ied": 1677, "ittl": 1678, "joy": 1679, "lect": 1680, "laun": 1681, "mix": 1682, "mys": 1683, "networ": 1684, "nev": 1685, "network": 1686, "next": 1687, "ocal": 1688, "oom": 1689, "olis": 1690, "ptim": 1691, "post": 1692, "put": 1693, "rol": 1694, "reason": 1695, "regu": 1696, "scr": 1697, "seas": 1698, "season": 1699, "side": 1700, "size": 1701, "tail": 1702, "trin": 1703, "strin": 1704, "string": 1705, "takin": 1706, "teasp": 1707, "travel": 1708, "uck": 1709, "upon": 1710, "ways": 1711, "yog": 1712, "yon": 1713, "¤Ħ": 1714, "¨é": 1715, "´»": 1716, "¶é": 1717, "åķ": 1718, "æĽ": 1719, "çł": 1720, "è®¾": 1721, "éģ": 1722, "Įĸ": 1723, "EO": 1724, "Sch": 1725, "color": 1726, "oli": 1727, "sof": 1728, "tos": 1729, "yth": 1730, "£Ł": 1731, "«ĺ": 1732, "¯ä»": 1733, "åĪĨ": 1734, "æł¹": 1735, "ç¼": 1736, "çĸ": 1737, "éª": 1738, "Ńè": 1739, "'m": 1740, "13": 1741, "199": 1742, "Can": 1743, "Chan": 1744, "Chin": 1745, "Fur": 1746, "Incr": 1747, "ML": 1748, "Sel": 1749, "atis": 1750, "abas": 1751, "abol": 1752, "alon": 1753, "auth": 1754, "avor": 1755, "bird": 1756, "cir": 1757, "circ": 1758, "cred": 1759, "decr": 1760, "dem": 1761, "detect": 1762, "decre": 1763, "ecial": 1764, "ecl": 1765, "ehav": 1766, "ehavi": 1767, "enh": 1768, "enj": 1769, "equa": 1770, "feed": 1771, "fash": 1772, "gain": 1773, "give": 1774, "goals": 1775, "heart": 1776, "ick": 1777, "ics": 1778, "ifu": 1779, "iou": 1780, "iber": 1781, "ique": 1782, "jou": 1783, "jour": 1784, "ked": 1785, "lett": 1786, "love": 1787, "mig": 1788, "mou": 1789, "niqu": 1790, "never": 1791, "nique": 1792, "nony": 1793, "oad": 1794, "otiv": 1795, "obo": 1796, "ony": 1797, "options": 1798, "ores": 1799, "orth": 1800, "otiva": 1801, "pecial": 1802, "plas": 1803, "posi": 1804, "ptimi": 1805, "ream": 1806, "remov": 1807, "sev": 1808, "speak": 1809, "special": 1810, "stain": 1811, "stil": 1812, "self": 1813, "still": 1814, "tock": 1815, "stock": 1816, "tod": 1817, "train": 1818, "times": 1819, "toda": 1820, "uniqu": 1821, "ustain": 1822, "sustain": 1823, "ux": 1824, "unique": 1825, "weath": 1826, "weathe": 1827, "ynon": 1828, "synon": 1829, "synony": 1830, "±æŃ": 1831, "»é": 1832, "âĢĿ": 1833, "åĢ": 1834, "åı¥": 1835, "æĬ±": 1836, "æŃī": 1837, "çĭ": 1838, "èĬ": 1839, "éĽ": 1840, "ĠĠĠĠ": 1841, "İĴ": 1842, "Ķä¸": 1843, "ļçļ": 1844, "Dis": 1845, "Nor": 1846, "Onc": 1847, "Tech": 1848, "Techn": 1849, "Use": 1850, "anu": 1851, "ategor": 1852, "fel": 1853, "icial": 1854, "tten": 1855, "´ł": 1856, "å»º": 1857, "å¥½": 1858, "æ£": 1859, "çŁ": 1860, "Ŀ¡": 1861, "14": 1862, "Bas": 1863, "CNN": 1864, "Chr": 1865, "HT": 1866, "Smar": 1867, "Thes": 1868, "aim": 1869, "acro": 1870, "auc": 1871, "bak": 1872, "bar": 1873, "books": 1874, "bowl": 1875, "cli": 1876, "clou": 1877, "docu": 1878, "door": 1879, "debt": 1880, "disp": 1881, "docum": 1882, "eem": 1883, "epor": 1884, "etail": 1885, "ecord": 1886, "efficienc": 1887, "eport": 1888, "eval": 1889, "fal": 1890, "fav": 1891, "fes": 1892, "famou": 1893, "feelin": 1894, "forg": 1895, "gas": 1896, "goin": 1897, "gov": 1898, "grav": 1899, "going": 1900, "gover": 1901, "hicl": 1902, "ehicl": 1903, "hone": 1904, "iag": 1905, "diag": 1906, "ices": 1907, "inin": 1908, "ioni": 1909, "leav": 1910, "litt": 1911, "letter": 1912, "likel": 1913, "lived": 1914, "lives": 1915, "logo": 1916, "motiv": 1917, "meanin": 1918, "moder": 1919, "motiva": 1920, "moun": 1921, "neg": 1922, "oppin": 1923, "oppor": 1924, "optim": 1925, "opping": 1926, "opport": 1927, "optimi": 1928, "pay": 1929, "pel": 1930, "pics": 1931, "opics": 1932, "pho": 1933, "quer": 1934, "ract": 1935, "recor": 1936, "rid": 1937, "rob": 1938, "record": 1939, "slow": 1940, "spen": 1941, "sides": 1942, "smoothi": 1943, "soft": 1944, "teach": 1945, "topics": 1946, "ths": 1947, "tili": 1948, "town": 1949, "uppor": 1950, "suppor": 1951, "support": 1952, "utt": 1953, "vehicl": 1954, "watch": 1955, "wav": 1956, "wis": 1957, "won": 1958, "wall": 1959, "wide": 1960, "ypes": 1961, "yogu": 1962, "¤º": 1963, "¯çļ": 1964, "½¢": 1965, "âĢĺ": 1966, "å¾Ī": 1967, "è¶": 1968, "éļ": 1969, "ī²": 1970, "ķĨ": 1971, "łä¸": 1972, "Appl": 1973, "Diese": 1974, "His": 1975, "Ju": 1976, "Mark": 1977, "Our": 1978, "Sar": 1979, "Wor": 1980, "erw": 1981, "¨çļ": 1982, "°é": 1983, "¸è": 1984, "»½": 1985, "âĢ¢": 1986, "å¦Ĥ": 1987, "å¥¹": 1988, "å®ļ": 1989, "æŁ": 1990, "æıĲ": 1991, "æľº": 1992, "Ģģ": 1993, "ģé": 1994, "Ħı": 1995, "Ĺħ": 1996, "18": 1997, "Ben": 1998, "Cana": 1999, "Cash": 2000, "Char": 2001, "Come": 2002, "Cub": 2003, "Glob": 2004, "Global": 2005, "Hig": 2006, "High": 2007, "Howe": 2008, "If": 2009, "Mona": 2010, "Ob": 2011, "SEO": 2012, "Sara": 2013, "Tw": 2014, "Then": 2015, "apid": 2016, "agen": 2017, "atisf": 2018, "blog": 2019, "bor": 2020, "butt": 2021, "build": 2022, "ccom": 2023, "accom": 2024, "ced": 2025, "cid": 2026, "cil": 2027, "acil": 2028, "came": 2029, "code": 2030, "cut": 2031, "dam": 2032, "death": 2033, "dog": 2034, "dream": 2035, "dama": 2036, "driver": 2037, "eiv": 2038, "ceiv": 2039, "eceiv": 2040, "ez": 2041, "eful": 2042, "exer": 2043, "exis": 2044, "fail": 2045, "flect": 2046, "eflect": 2047, "fram": 2048, "feedb": 2049, "fill": 2050, "goods": 2051, "group": 2052, "hal": 2053, "hoppin": 2054, "havin": 2055, "hopping": 2056, "hour": 2057, "icti": 2058, "ilan": 2059, "lab": 2060, "lib": 2061, "ltim": 2062, "leader": 2063, "liber": 2064, "littl": 2065, "meal": 2066, "moon": 2067, "migh": 2068, "ned": 2069, "ogr": 2070, "omor": 2071, "ones": 2072, "ork": 2073, "pain": 2074, "park": 2075, "plu": 2076, "rapid": 2077, "receiv": 2078, "reflect": 2079, "road": 2080, "robo": 2081, "satis": 2082, "sau": 2083, "sett": 2084, "shoppin": 2085, "sil": 2086, "satisf": 2087, "sauc": 2088, "scient": 2089, "sever": 2090, "shopping": 2091, "solar": 2092, "spend": 2093, "sustaina": 2094, "swi": 2095, "types": 2096, "thu": 2097, "timel": 2098, "urin": 2099, "uring": 2100, "whe": 2101, "wond": 2102, "¤ç": 2103, "§ģ": 2104, "¿Ŀ": 2105, "å¢": 2106, "æŀľ": 2107, "éħ": 2108, "éľ": 2109, "Ģł": 2110, "ĬĤ": 2111, "ĭ¬": 2112, "ı£": 2113, "Ĳ¥": 2114, "Łçļ": 2115, "And": 2116, "Categ": 2117, "Categor": 2118, "Hu": 2119, "HTML": 2120, "Ind": 2121, "Pan": 2122, "Schr": 2123, "Ver": 2124, "Viel": 2125, "ale": 2126, "ker": 2127, "yg": 2128, "¤ä¸": 2129, "¨Ģ": 2130, "¬¡": 2131, "®¹": 2132, "°±": 2133, "¾ĭ": 2134, "ä»ĸ": 2135, "ä½ľ": 2136, "åī": 2137, "åĸ": 2138, "çĦ": 2139, "è¨": 2140, "èĻ": 2141, "Ĩä¸": 2142, "Ĭł": 2143, "Ĳ½": 2144, "Ĳé": 2145, "ķ¥": 2146, "Ľé": 2147, "ŀĲ": 2148, "ł¼": 2149, "Att": 2150, "Aut": 2151, "Ban": 2152, "Beg": 2153, "Begin": 2154, "Car": 2155, "Ear": 2156, "Earth": 2157, "Eng": 2158, "Exam": 2159, "GP": 2160, "Impr": 2161, "Linu": 2162, "Oh": 2163, "Pu": 2164, "Ren": 2165, "Ris": 2166, "Riv": 2167, "Ru": 2168, "Scr": 2169, "Ser": 2170, "Serv": 2171, "TC": 2172, "Tha": 2173, "Vielen": 2174, "accor": 2175, "acial": 2176, "accomp": 2177, "accord": 2178, "ahr": 2179, "alm": 2180, "alw": 2181, "ampl": 2182, "arin": 2183, "aris": 2184, "atten": 2185, "cak": 2186, "cake": 2187, "card": 2188, "cars": 2189, "clo": 2190, "comf": 2191, "decl": 2192, "deg": 2193, "detail": 2194, "did": 2195, "durin": 2196, "dark": 2197, "degr": 2198, "divid": 2199, "driven": 2200, "drivin": 2201, "during": 2202, "ecid": 2203, "decid": 2204, "ecy": 2205, "eein": 2206, "epen": 2207, "depen": 2208, "depend": 2209, "eadl": 2210, "ecycl": 2211, "eeing": 2212, "enl": 2213, "far": 2214, "felt": 2215, "gir": 2216, "grad": 2217, "girl": 2218, "gravi": 2219, "growin": 2220, "hab": 2221, "heig": 2222, "heigh": 2223, "iox": 2224, "diox": 2225, "dioxid": 2226, "idd": 2227, "items": 2228, "ivo": 2229, "local": 2230, "lock": 2231, "livin": 2232, "logi": 2233, "loss": 2234, "math": 2235, "maxim": 2236, "neu": 2237, "named": 2238, "nega": 2239, "otion": 2240, "ott": 2241, "oodl": 2242, "opene": 2243, "orq": 2244, "owed": 2245, "pear": 2246, "ppear": 2247, "ppen": 2248, "appen": 2249, "happen": 2250, "ppy": 2251, "appy": 2252, "pell": 2253, "powd": 2254, "recy": 2255, "repor": 2256, "reached": 2257, "recycl": 2258, "report": 2259, "river": 2260, "roll": 2261, "rown": 2262, "sect": 2263, "seem": 2264, "spor": 2265, "savin": 2266, "sele": 2267, "sens": 2268, "soun": 2269, "sport": 2270, "swe": 2271, "tnam": 2272, "etnam": 2273, "ietnam": 2274, "Vietnam": 2275, "tpu": 2276, "takes": 2277, "teacher": 2278, "tools": 2279, "uid": 2280, "weak": 2281, "youn": 2282, "zes": 2283, "¡¹": 2284, "¡ä¸": 2285, "°ĳ": 2286, "¾åĩ": 2287, "¾åĪ": 2288, "ãĢ": 2289, "æ¡": 2290, "æº": 2291, "çĬ": 2292, "ç»ı": 2293, "èĭ": 2294, "ĢĤ": 2295, "īä¸": 2296, "ļé": 2297, "Buil": 2298, "Cou": 2299, "Gib": 2300, "GPT": 2301, "Mis": 2302, "Reg": 2303, "Rese": 2304, "Spr": 2305, "Tu": 2306, "Wen": 2307, "With": 2308, "Wenn": 2309, "aphor": 2310, "birth": 2311, "leg": 2312, "mini": 2313, "oar": 2314, "oos": 2315, "opr": 2316, "oz": 2317, "taph": 2318, "etaph": 2319, "etaphor": 2320, "tz": 2321, "viv": 2322, "¤Ĳ": 2323, "§¯": 2324, "ª¤": 2325, "«Ļ": 2326, "´çļ": 2327, "ºĲ": 2328, "»ç»": 2329, "¼è": 2330, "ãĢĬ": 2331, "ä¸ļ": 2332, "äºĶ": 2333, "å¡": 2334, "åĿ": 2335, "æ¶": 2336, "æĤ¨": 2337, "èĦ": 2338, "è®®": 2339, "é¤": 2340, "Ģ¼": 2341, "ģçļ": 2342, "Ĩä»": 2343, "ĪæĬ": 2344, "Ĭ©": 2345, "ĭ©": 2346, "Į»": 2347, "ĳä¸": 2348, "Ľä¸": 2349, "Łé": 2350, "Bir": 2351, "Bana": 2352, "Cath": 2353, "Cel": 2354, "Cor": 2355, "Em": 2356, "Hav": 2357, "Heal": 2358, "Health": 2359, "Lear": 2360, "Learn": 2361, "Miss": 2362, "North": 2363, "Paras": 2364, "Risk": 2365, "River": 2366, "Star": 2367, "Than": 2368, "Usin": 2369, "Veg": 2370, "Waru": 2371, "Your": 2372, "affor": 2373, "acili": 2374, "afford": 2375, "amb": 2376, "anx": 2377, "apples": 2378, "asin": 2379, "atest": 2380, "behav": 2381, "big": 2382, "bject": 2383, "boy": 2384, "brow": 2385, "bank": 2386, "behavi": 2387, "brown": 2388, "butter": 2389, "cand": 2390, "cann": 2391, "carr": 2392, "cels": 2393, "chor": 2394, "cine": 2395, "cinn": 2396, "clu": 2397, "conu": 2398, "cose": 2399, "dom": 2400, "drag": 2401, "dise": 2402, "dish": 2403, "divis": 2404, "efer": 2405, "effor": 2406, "easy": 2407, "effort": 2408, "eno": 2409, "enr": 2410, "fair": 2411, "fict": 2412, "fis": 2413, "fs": 2414, "favor": 2415, "ficti": 2416, "fold": 2417, "four": 2418, "frame": 2419, "guid": 2420, "givin": 2421, "habi": 2422, "hadow": 2423, "half": 2424, "iar": 2425, "ibil": 2426, "iga": 2427, "inq": 2428, "iqui": 2429, "irr": 2430, "ler": 2431, "liqu": 2432, "lood": 2433, "loor": 2434, "floor": 2435, "leads": 2436, "lever": 2437, "liqui": 2438, "ltima": 2439, "metaph": 2440, "motion": 2441, "makes": 2442, "metaphor": 2443, "mind": 2444, "nack": 2445, "nak": 2446, "nar": 2447, "narr": 2448, "needed": 2449, "oas": 2450, "ocon": 2451, "opin": 2452, "oconu": 2453, "omen": 2454, "omes": 2455, "paint": 2456, "pand": 2457, "rau": 2458, "room": 2459, "reali": 2460, "reflecti": 2461, "roman": 2462, "shad": 2463, "sical": 2464, "snak": 2465, "spel": 2466, "sales": 2467, "scra": 2468, "sell": 2469, "settin": 2470, "shadow": 2471, "spell": 2472, "tates": 2473, "states": 2474, "trade": 2475, "traine": 2476, "ubject": 2477, "ucos": 2478, "lucos": 2479, "glucos": 2480, "glucose": 2481, "ultim": 2482, "util": 2483, "utili": 2484, "vir": 2485, "vehicle": 2486, "www": 2487, "¨äº": 2488, "®ä¸": 2489, "®çļ": 2490, "¸©": 2491, "¹´": 2492, "¹ī": 2493, "ºäº": 2494, "¿µ": 2495, "¿ĥ": 2496, "Ã¤": 2497, "ä»Ģ": 2498, "å¯¹": 2499, "å»ºè®": 2500, "åıĳ": 2501, "åŃ¦": 2502, "æĢ»": 2503, "ç¥": 2504, "ģļ": 2505, "Ĥ²": 2506, "ħį": 2507, "Ĩħ": 2508, "ĬŁ": 2509, "İŁ": 2510, "ĳè": 2511, "Ķé": 2512, "Ĺä¸": 2513, "Ľçļ": 2514, "Apple": 2515, "Del": 2516, "Disc": 2517, "Dur": 2518, "Ger": 2519, "Her": 2520, "Rom": 2521, "Wer": 2522, "Wil": 2523, "arc": 2524, "nth": 2525, "och": 2526, "pose": 2527, "rod": 2528, "ties": 2529, "thd": 2530, "¡è": 2531, "¡Ī": 2532, "¢«": 2533, "©é": 2534, "®å®": 2535, "¯¼": 2536, "³é": 2537, "»ä¸": 2538, "¼Ķ": 2539, "¾è®": 2540, "ä¸İ": 2541, "ä»İ": 2542, "å¦Ĥæŀ": 2543, "åĪ«": 2544, "åĽ½": 2545, "æ¯Ķ": 2546, "æ°´": 2547, "ç¡®": 2548, "ç»ĵ": 2549, "è¿Ľ": 2550, "é¥": 2551, "éĤ": 2552, "éĢī": 2553, "Ģĥ": 2554, "Ģħ": 2555, "ģĮ": 2556, "ĥ¨": 2557, "Īé": 2558, "ī¯": 2559, "Ĭä¸": 2560, "ĭä¸": 2561, "įä¸": 2562, "İé": 2563, "Łä¸": 2564, "łçļ": 2565, "'d": 2566, "35": 2567, "62": 2568, "Alex": 2569, "Ama": 2570, "Basi": 2571, "But": 2572, "Cau": 2573, "Cos": 2574, "Catho": 2575, "Corr": 2576, "Cost": 2577, "Cris": 2578, "Cus": 2579, "DP": 2580, "Defin": 2581, "Eine": 2582, "End": 2583, "Fah": 2584, "Fahr": 2585, "Gal": 2586, "Gar": 2587, "Have": 2588, "Inf": 2589, "Inv": 2590, "Its": 2591, "Jav": 2592, "Java": 2593, "Las": 2594, "Lon": 2595, "Lond": 2596, "Med": 2597, "Min": 2598, "Mou": 2599, "Medi": 2600, "Obj": 2601, "Per": 2602, "Pol": 2603, "Pla": 2604, "Red": 2605, "Rev": 2606, "Rene": 2607, "Sag": 2608, "Sof": 2609, "Sagen": 2610, "Sele": 2611, "Soft": 2612, "Sprin": 2613, "Sus": 2614, "Tex": 2615, "TCP": 2616, "appear": 2617, "aqu": 2618, "abs": 2619, "aga": 2620, "alan": 2621, "appre": 2622, "ares": 2623, "asm": 2624, "axes": 2625, "ayin": 2626, "batt": 2627, "black": 2628, "block": 2629, "boos": 2630, "brav": 2631, "bakin": 2632, "becomin": 2633, "began": 2634, "bina": 2635, "boost": 2636, "brave": 2637, "breakf": 2638, "ccin": 2639, "accin": 2640, "calm": 2641, "cold": 2642, "comin": 2643, "compr": 2644, "dane": 2645, "deaths": 2646, "deba": 2647, "decided": 2648, "define": 2649, "deman": 2650, "diagr": 2651, "diver": 2652, "domes": 2653, "dragon": 2654, "drive": 2655, "eech": 2656, "eph": 2657, "epin": 2658, "epper": 2659, "egg": 2660, "enes": 2661, "equal": 2662, "erh": 2663, "eum": 2664, "eyes": 2665, "facial": 2666, "facil": 2667, "fos": 2668, "facili": 2669, "fall": 2670, "fire": 2671, "foods": 2672, "forw": 2673, "gear": 2674, "gel": 2675, "gf": 2676, "gol": 2677, "games": 2678, "gold": 2679, "greenh": 2680, "groun": 2681, "happy": 2682, "hell": 2683, "iced": 2684, "iev": 2685, "ilar": 2686, "imb": 2687, "imen": 2688, "inm": 2689, "isc": 2690, "itchen": 2691, "jud": 2692, "jui": 2693, "lem": 2694, "loom": 2695, "loy": 2696, "laug": 2697, "leaves": 2698, "loyal": 2699, "mir": 2700, "mom": 2701, "maint": 2702, "means": 2703, "momen": 2704, "ndan": 2705, "niv": 2706, "nod": 2707, "nood": 2708, "nou": 2709, "ndane": 2710, "nexp": 2711, "niver": 2712, "noodl": 2713, "oan": 2714, "loan": 2715, "ocation": 2716, "occu": 2717, "opy": 2718, "copy": 2719, "copyrig": 2720, "otes": 2721, "oard": 2722, "oast": 2723, "ogg": 2724, "onin": 2725, "opini": 2726, "orin": 2727, "pab": 2728, "apab": 2729, "capab": 2730, "path": 2731, "peech": 2732, "peer": 2733, "pil": 2734, "piv": 2735, "pped": 2736, "ppos": 2737, "ptain": 2738, "aptain": 2739, "paym": 2740, "perv": 2741, "pivo": 2742, "pron": 2743, "qOb": 2744, "eqOb": 2745, "eqObj": 2746, "raph": 2747, "graph": 2748, "rated": 2749, "ration": 2750, "rect": 2751, "refer": 2752, "repl": 2753, "reqOb": 2754, "freqOb": 2755, "freqObj": 2756, "rich": 2757, "riev": 2758, "ril": 2759, "rviv": 2760, "racti": 2761, "rains": 2762, "reachin": 2763, "reall": 2764, "receive": 2765, "regar": 2766, "regr": 2767, "remin": 2768, "ride": 2769, "roug": 2770, "sag": 2771, "said": 2772, "scen": 2773, "seen": 2774, "seu": 2775, "shav": 2776, "snack": 2777, "subject": 2778, "sage": 2779, "scala": 2780, "seum": 2781, "simil": 2782, "speakin": 2783, "strategy": 2784, "tB": 2785, "tation": 2786, "tax": 2787, "tig": 2788, "tol": 2789, "took": 2790, "tou": 2791, "triev": 2792, "etriev": 2793, "trackin": 2794, "ucl": 2795, "nucl": 2796, "nucle": 2797, "ules": 2798, "rules": 2799, "undan": 2800, "mundan": 2801, "mundane": 2802, "unex": 2803, "univ": 2804, "urviv": 2805, "surviv": 2806, "usag": 2807, "useu": 2808, "usical": 2809, "musical": 2810, "unexp": 2811, "univer": 2812, "usage": 2813, "useum": 2814, "weig": 2815, "wood": 2816, "weigh": 2817, "whis": 2818, "widel": 2819, "wild": 2820, "yer": 2821, "ying": 2822, "zed": 2823, "¡é": 2824, "¯é": 2825, "°ä¸": 2826, "²æ": 2827, "º«": 2828, "¼ł": 2829, "¾Ĺ": 2830, "å¤©": 2831, "æļ": 2832, "æķ°": 2833, "æľ¬": 2834, "ç¼ĸ": 2835, "è¦ģ": 2836, "è¾ĥ": 2837, "ģĵ": 2838, "ħé": 2839, "ĩé": 2840, "ĩĮ": 2841, "Īĸ": 2842, "īį": 2843, "Ĭ¶": 2844, "įé": 2845, "İä¸": 2846, "İåĽ": 2847, "İè": 2848, "Ĳçļ": 2849, "Ĵè": 2850, "Ķè¾": 2851, "ķĮ": 2852, "ĸ»": 2853, "Ĺçļ": 2854, "Ŀå": 2855, "ŃĮ": 2856, "Ab": 2857, "Ang": 2858, "Jul": 2859, "LP": 2860, "Man": 2861, "Noin": 2862, "Noinp": 2863, "Prod": 2864, "Rock": 2865, "Tak": 2866, "Tel": 2867, "Twitt": 2868, "eact": 2869, "ebo": 2870, "elon": 2871, "eze": 2872, "imal": 2873, "itter": 2874, "opos": 2875, "opose": 2876, "pus": 2877, "rog": 2878, "ropos": 2879, "Propos": 2880, "Propose": 2881, "rove": 2882, "¢ŀ": 2883, "¦ä¸": 2884, "¦é": 2885, "§Ĥ": 2886, "«ĭ": 2887, "¬çļ": 2888, "®°": 2889, "°ä»": 2890, "³äº": 2891, "´§": 2892, "µİ": 2893, "·è": 2894, "¸é": 2895, "¹¦": 2896, "¹¿": 2897, "¹ä¸": 2898, "»Ĩ": 2899, "¼ĺ": 2900, "¿çĶ": 2901, "ä¸ĸ": 2902, "ä½¿": 2903, "ä½ķ": 2904, "å§": 2905, "æľĢ": 2906, "ç¾İ": 2907, "èį": 2908, "é©": 2909, "ĭçļ": 2910, "Ĳ«": 2911, "ĸé": 2912, "ĺ³": 2913, "Ļçļ": 2914, "Ļļ": 2915, "łè": 2916, "101": 2917, "16": 2918, "198": 2919, "23": 2920, "43": 2921, "500": 2922, "ANN": 2923, "AP": 2924, "Accor": 2925, "Ag": 2926, "ANNs": 2927, "Absol": 2928, "Accord": 2929, "Age": 2930, "All": 2931, "Alt": 2932, "Atten": 2933, "Behav": 2934, "By": 2935, "Base": 2936, "Behavi": 2937, "Bene": 2938, "Bird": 2939, "Bus": 2940, "Col": 2941, "Cov": 2942, "Care": 2943, "Caus": 2944, "Comm": 2945, "Cont": 2946, "Coun": 2947, "Cum": 2948, "Cur": 2949, "Cut": 2950, "Driv": 2951, "Eg": 2952, "Eu": 2953, "Eins": 2954, "Eur": 2955, "Exer": 2956, "Ext": 2957, "Fas": 2958, "Fir": 2959, "Flig": 2960, "Fligh": 2961, "Gali": 2962, "II": 2963, "Imp": 2964, "Inc": 2965, "Ing": 2966, "Ital": 2967, "Los": 2968, "Max": 2969, "May": 2970, "Men": 2971, "Mart": 2972, "Moun": 2973, "NLP": 2974, "Nation": 2975, "Nein": 2976, "Nev": 2977, "Onion": 2978, "Onl": 2979, "Pon": 2980, "Pos": 2981, "Poli": 2982, "Ponz": 2983, "Qu": 2984, "RF": 2985, "Reach": 2986, "Rem": 2987, "Row": 2988, "Regu": 2989, "Remov": 2990, "Sen": 2991, "Sou": 2992, "Self": 2993, "Smith": 2994, "South": 2995, "Stu": 2996, "TP": 2997, "Text": 2998, "UDP": 2999, "Ur": 3000, "Und": 3001, "Vaccin": 3002, "Wou": 3003, "Which": 3004, "Worl": 3005, "Woul": 3006, "aS": 3007, "affect": 3008, "aik": 3009, "aps": 3010, "ado": 3011, "aiku": 3012, "aina": 3013, "alp": 3014, "amon": 3015, "appears": 3016, "apple": 3017, "asan": 3018, "bad": 3019, "bloom": 3020, "boar": 3021, "banan": 3022, "batter": 3023, "board": 3024, "captain": 3025, "cated": 3026, "ceb": 3027, "aceb": 3028, "Faceb": 3029, "Facebo": 3030, "cefu": 3031, "acefu": 3032, "aceful": 3033, "cocon": 3034, "cof": 3035, "cool": 3036, "capabil": 3037, "carn": 3038, "cash": 3039, "coconu": 3040, "coff": 3041, "colu": 3042, "coni": 3043, "core": 3044, "cosy": 3045, "cru": 3046, "ctin": 3047, "ctor": 3048, "dim": 3049, "dou": 3050, "drain": 3051, "drated": 3052, "drov": 3053, "debu": 3054, "declar": 3055, "demon": 3056, "diagn": 3057, "dogs": 3058, "doub": 3059, "drove": 3060, "eCom": 3061, "eag": 3062, "eated": 3063, "ecos": 3064, "eepin": 3065, "eeth": 3066, "eez": 3067, "eog": 3068, "epar": 3069, "epu": 3070, "etch": 3071, "eComm": 3072, "earl": 3073, "east": 3074, "ecosy": 3075, "eena": 3076, "eeping": 3077, "eeze": 3078, "efores": 3079, "eform": 3080, "eles": 3081, "eogr": 3082, "equen": 3083, "eran": 3084, "eye": 3085, "fan": 3086, "fein": 3087, "ffein": 3088, "affein": 3089, "fon": 3090, "frau": 3091, "film": 3092, "foss": 3093, "fraud": 3094, "fuel": 3095, "geog": 3096, "geogr": 3097, "gives": 3098, "globe": 3099, "graphi": 3100, "haik": 3101, "hair": 3102, "hid": 3103, "haiku": 3104, "hidd": 3105, "iol": 3106, "ips": 3107, "itis": 3108, "iant": 3109, "imou": 3110, "ises": 3111, "itish": 3112, "jobs": 3113, "jum": 3114, "knig": 3115, "kilo": 3116, "knigh": 3117, "lcm": 3118, "lices": 3119, "lor": 3120, "luck": 3121, "label": 3122, "leave": 3123, "lori": 3124, "lost": 3125, "loved": 3126, "mid": 3127, "mph": 3128, "museu": 3129, "mathe": 3130, "memor": 3131, "mixt": 3132, "museum": 3133, "nem": 3134, "nor": 3135, "nos": 3136, "neut": 3137, "noun": 3138, "ocated": 3139, "located": 3140, "oces": 3141, "ois": 3142, "ocaly": 3143, "occur": 3144, "ocess": 3145, "olf": 3146, "onth": 3147, "oro": 3148, "osis": 3149, "otest": 3150, "ovin": 3151, "oxy": 3152, "pact": 3153, "pal": 3154, "pf": 3155, "pocal": 3156, "apocal": 3157, "apocaly": 3158, "poor": 3159, "pov": 3160, "perc": 3161, "perm": 3162, "phil": 3163, "pover": 3164, "pposed": 3165, "pyram": 3166, "quan": 3167, "refor": 3168, "retch": 3169, "ritis": 3170, "Britis": 3171, "British": 3172, "roces": 3173, "Proces": 3174, "Process": 3175, "rok": 3176, "rotes": 3177, "Protes": 3178, "Protest": 3179, "ramid": 3180, "rapidl": 3181, "rease": 3182, "rectan": 3183, "reform": 3184, "rely": 3185, "rema": 3186, "reme": 3187, "rill": 3188, "role": 3189, "sad": 3190, "say": 3191, "seein": 3192, "sequ": 3193, "sites": 3194, "slices": 3195, "soon": 3196, "speech": 3197, "spl": 3198, "stim": 3199, "save": 3200, "saves": 3201, "scale": 3202, "sector": 3203, "seeing": 3204, "sequen": 3205, "showed": 3206, "silen": 3207, "slowl": 3208, "snacks": 3209, "soli": 3210, "spli": 3211, "sprin": 3212, "stimu": 3213, "strategi": 3214, "survive": 3215, "tag": 3216, "td": 3217, "teak": 3218, "steak": 3219, "teeth": 3220, "ticed": 3221, "oticed": 3222, "noticed": 3223, "tips": 3224, "toy": 3225, "tretch": 3226, "stretch": 3227, "unch": 3228, "uppos": 3229, "suppos": 3230, "ultima": 3231, "vegan": 3232, "wol": 3233, "wom": 3234, "watchin": 3235, "waves": 3236, "withi": 3237, "wron": 3238, "ydrated": 3239, "hydrated": 3240, "yel": 3241, "yper": 3242, "yell": 3243, "zom": 3244, "zomb": 3245, "¢é": 3246, "¢Ĩ": 3247, "¤Ł": 3248, "©ä¸": 3249, "¯ı": 3250, "±äº": 3251, "´é": 3252, "µæ": 3253, "·é": 3254, "ºçļ": 3255, "ºĹ": 3256, "¿é": 3257, "¿ĳ": 3258, "¿Ĺ": 3259, "Â°": 3260, "ä½ĵ": 3261, "å¤§": 3262, "å¼Ģ": 3263, "åĪĻ": 3264, "æŃ£": 3265, "ç¿": 3266, "çģ": 3267, "çĪ": 3268, "çı": 3269, "çĶ±": 3270, "è£": 3271, "è¯´": 3272, "è¯ķ": 3273, "è¿Ĳ": 3274, "Ģæľ": 3275, "Ħĳ": 3276, "ħ¶": 3277, "ĨåĪ": 3278, "Ĩé": 3279, "Ĩį": 3280, "Į«": 3281, "Įä¸": 3282, "İħ": 3283, "ıä¸": 3284, "Ķ®": 3285, "ķé": 3286, "Ļæĺ": 3287, "łģ": 3288, "65": 3289, "Adv": 3290, "Alb": 3291, "Ant": 3292, "Ass": 3293, "Auf": 3294, "CS": 3295, "Cho": 3296, "Day": 3297, "Differ": 3298, "Differe": 3299, "From": 3300, "Green": 3301, "Gend": 3302, "Hey": 3303, "Mein": 3304, "Ment": 3305, "Pyth": 3306, "Plan": 3307, "Product": 3308, "Pytho": 3309, "Rome": 3310, "Sal": 3311, "Spl": 3312, "Shar": 3313, "Spli": 3314, "Tol": 3315, "Uns": 3316, "Verb": 3317, "Will": 3318, "eatt": 3319, "Seatt": 3320, "Seattl": 3321, "eid": 3322, "Leid": 3323, "Leider": 3324, "ebr": 3325, "emi": 3326, "eni": 3327, "ken": 3328, "ray": 3329, "¢ä¸": 3330, "¢ĥ": 3331, "¤æ": 3332, "§°": 3333, "§»": 3334, "¨ä»": 3335, "¨è®": 3336, "©çļ": 3337, "©è": 3338, "®ī": 3339, "¯¯": 3340, "°äº": 3341, "±çļ": 3342, "±Ģ": 3343, "±ķ": 3344, "·±": 3345, "ÃŁ": 3346, "äºĭ": 3347, "ä»£": 3348, "ä»¬": 3349, "åħ³": 3350, "åħ´": 3351, "æĲ": 3352, "æĸ¯": 3353, "æĺİ": 3354, "æľ¯": 3355, "ç¦": 3356, "çĶµ": 3357, "è·": 3358, "èİ": 3359, "è¯Ĩ": 3360, "é¢Ħ": 3361, "ģĶ": 3362, "ĥä¸": 3363, "Ĩç»": 3364, "ĩ´": 3365, "Ī±": 3366, "Īĺ": 3367, "īé": 3368, "İĨ": 3369, "ĲĹ": 3370, "ĳä»": 3371, "ĵé": 3372, "Ķ»": 3373, "Ķ¿": 3374, "ķä¸": 3375, "ķĪ": 3376, "Ĺç»": 3377, "Ļåı": 3378, "ļ¾": 3379, "Ŀ£": 3380, "ĿĤ": 3381, "ŀé": 3382, "łĳ": 3383, "'v": 3384, "'ve": 3385, "04": 3386, "05": 3387, "07": 3388, "140": 3389, "41": 3390, "45": 3391, "67": 3392, "AM": 3393, "ATP": 3394, "Acm": 3395, "Aim": 3396, "Apr": 3397, "Acme": 3398, "Alg": 3399, "Alth": 3400, "Apri": 3401, "Arr": 3402, "Bar": 3403, "Break": 3404, "Cam": 3405, "Cin": 3406, "Cog": 3407, "Cook": 3408, "CSS": 3409, "Cali": 3410, "Cases": 3411, "Cels": 3412, "Chal": 3413, "Cind": 3414, "Clim": 3415, "Cogg": 3416, "Cra": 3417, "Crim": 3418, "Dan": 3419, "Decl": 3420, "Declar": 3421, "Define": 3422, "Dell": 3423, "Desp": 3424, "Disp": 3425, "Elect": 3426, "Edu": 3427, "Empl": 3428, "Enj": 3429, "Ent": 3430, "Exc": 3431, "Exp": 3432, "Fiv": 3433, "Flor": 3434, "Flow": 3435, "FÃ¼": 3436, "Firs": 3437, "Five": 3438, "Flori": 3439, "Form": 3440, "Geb": 3441, "Gard": 3442, "Germ": 3443, "Har": 3444, "Hood": 3445, "Harr": 3446, "IP": 3447, "IS": 3448, "Irel": 3449, "Imag": 3450, "Irelan": 3451, "Ken": 3452, "Kil": 3453, "Kill": 3454, "Lim": 3455, "Litt": 3456, "Lass": 3457, "Limou": 3458, "Link": 3459, "Littl": 3460, "Mal": 3461, "Mer": 3462, "Mid": 3463, "Mob": 3464, "Mock": 3465, "Mari": 3466, "Mars": 3467, "Maxwel": 3468, "Midw": 3469, "Mind": 3470, "Mockin": 3471, "Moni": 3472, "Nach": 3473, "Nim": 3474, "Nimb": 3475, "Oa": 3476, "Occu": 3477, "Oth": 3478, "Oat": 3479, "Occup": 3480, "Othe": 3481, "Pott": 3482, "Prom": 3483, "Para": 3484, "Potter": 3485, "Promo": 3486, "Ras": 3487, "Rates": 3488, "Rear": 3489, "Rel": 3490, "Rid": 3491, "Ros": 3492, "Roth": 3493, "Rearr": 3494, "Rever": 3495, "Ridin": 3496, "Rowl": 3497, "Sin": 3498, "Sol": 3499, "Som": 3500, "Sor": 3501, "Sov": 3502, "Span": 3503, "Spor": 3504, "Swal": 3505, "Send": 3506, "Some": 3507, "Sovi": 3508, "Spani": 3509, "Sport": 3510, "Stir": 3511, "Sun": 3512, "Sup": 3513, "Swall": 3514, "Taqu": 3515, "Tas": 3516, "Tod": 3517, "Tou": 3518, "Trees": 3519, "Taquer": 3520, "Tele": 3521, "Thin": 3522, "Toda": 3523, "Tour": 3524, "Tur": 3525, "Two": 3526, "Util": 3527, "Unf": 3528, "Union": 3529, "Utili": 3530, "Ven": 3531, "Vir": 3532, "Vaccine": 3533, "Vegan": 3534, "Vege": 3535, "Wal": 3536, "Who": 3537, "Work": 3538, "YouT": 3539, "acis": 3540, "acu": 3541, "ais": 3542, "aor": 3543, "aper": 3544, "abov": 3545, "abr": 3546, "abu": 3547, "acism": 3548, "acts": 3549, "adj": 3550, "affeine": 3551, "agin": 3552, "alr": 3553, "alv": 3554, "asa": 3555, "asc": 3556, "avig": 3557, "avo": 3558, "bean": 3559, "blood": 3560, "bread": 3561, "brok": 3562, "backed": 3563, "baker": 3564, "bark": 3565, "bears": 3566, "bigg": 3567, "blockch": 3568, "blogg": 3569, "bond": 3570, "broken": 3571, "built": 3572, "cad": 3573, "caffein": 3574, "catch": 3575, "cim": 3576, "ciou": 3577, "coal": 3578, "coas": 3579, "caffeine": 3580, "case": 3581, "cast": 3582, "ches": 3583, "cimal": 3584, "cious": 3585, "cla": 3586, "clov": 3587, "coast": 3588, "cogg": 3589, "cooked": 3590, "cookin": 3591, "coron": 3592, "cras": 3593, "cris": 3594, "dI": 3595, "depr": 3596, "dial": 3597, "dies": 3598, "doin": 3599, "dram": 3600, "dang": 3601, "days": 3602, "declin": 3603, "dedi": 3604, "depres": 3605, "details": 3606, "dialo": 3607, "diges": 3608, "dimen": 3609, "disr": 3610, "doing": 3611, "drama": 3612, "eacefu": 3613, "eates": 3614, "ecam": 3615, "becam": 3616, "became": 3617, "ecim": 3618, "decim": 3619, "decimal": 3620, "eck": 3621, "eper": 3622, "epped": 3623, "etes": 3624, "eties": 3625, "eaceful": 3626, "eacti": 3627, "ealin": 3628, "earth": 3629, "eatest": 3630, "ecru": 3631, "emal": 3632, "enth": 3633, "ephan": 3634, "etrieval": 3635, "eus": 3636, "exh": 3637, "exi": 3638, "fau": 3639, "fear": 3640, "fem": 3641, "fix": 3642, "flig": 3643, "flood": 3644, "fract": 3645, "frag": 3646, "frequ": 3647, "fth": 3648, "facts": 3649, "failin": 3650, "femal": 3651, "figh": 3652, "files": 3653, "firm": 3654, "fish": 3655, "fligh": 3656, "flower": 3657, "font": 3658, "fracti": 3659, "frequen": 3660, "gb": 3661, "gd": 3662, "ged": 3663, "gases": 3664, "gradu": 3665, "guidan": 3666, "guide": 3667, "heav": 3668, "hex": 3669, "htt": 3670, "hyper": 3671, "hexa": 3672, "http": 3673, "icon": 3674, "icr": 3675, "ieties": 3676, "cieties": 3677, "ifth": 3678, "fifth": 3679, "iom": 3680, "ipes": 3681, "ipid": 3682, "ippin": 3683, "itig": 3684, "iconi": 3685, "icro": 3686, "ids": 3687, "inj": 3688, "ipping": 3689, "ired": 3690, "isis": 3691, "isl": 3692, "iso": 3693, "itiga": 3694, "itty": 3695, "jes": 3696, "join": 3697, "jest": 3698, "kid": 3699, "kitch": 3700, "kids": 3701, "kitchen": 3702, "leph": 3703, "Eleph": 3704, "Elephan": 3705, "lipid": 3706, "location": 3707, "live": 3708, "looked": 3709, "lovin": 3710, "lowes": 3711, "mam": 3712, "match": 3713, "mood": 3714, "mamm": 3715, "modi": 3716, "nal": 3717, "nation": 3718, "nav": 3719, "nfor": 3720, "nknow": 3721, "nlig": 3722, "nstruct": 3723, "navig": 3724, "nempl": 3725, "neur": 3726, "nknown": 3727, "nligh": 3728, "nodes": 3729, "nstructu": 3730, "ocieties": 3731, "oid": 3732, "ops": 3733, "otation": 3734, "obb": 3735, "odd": 3736, "onc": 3737, "oses": 3738, "osh": 3739, "osp": 3740, "oval": 3741, "ower": 3742, "ozen": 3743, "paper": 3744, "pb": 3745, "pd": 3746, "peacefu": 3747, "pean": 3748, "peated": 3749, "epeated": 3750, "pepper": 3751, "pict": 3752, "epict": 3753, "depict": 3754, "pk": 3755, "pou": 3756, "pps": 3757, "apps": 3758, "pth": 3759, "epth": 3760, "depth": 3761, "depths": 3762, "paren": 3763, "pda": 3764, "peaceful": 3765, "peers": 3766, "perp": 3767, "pply": 3768, "pris": 3769, "quo": 3770, "racis": 3771, "rates": 3772, "react": 3773, "reates": 3774, "greates": 3775, "greatest": 3776, "recr": 3777, "reez": 3778, "breez": 3779, "breeze": 3780, "refin": 3781, "repeated": 3782, "retriev": 3783, "reu": 3784, "roz": 3785, "rrou": 3786, "racism": 3787, "reacti": 3788, "reader": 3789, "readin": 3790, "received": 3791, "recru": 3792, "region": 3793, "repla": 3794, "repro": 3795, "reve": 3796, "rink": 3797, "rout": 3798, "rroun": 3799, "sab": 3800, "sacr": 3801, "scan": 3802, "scor": 3803, "seal": 3804, "sefu": 3805, "shel": 3806, "societies": 3807, "sadn": 3808, "scena": 3809, "score": 3810, "scri": 3811, "secti": 3812, "seemed": 3813, "seful": 3814, "shave": 3815, "shows": 3816, "sigh": 3817, "snake": 3818, "snakes": 3819, "sold": 3820, "stars": 3821, "supposed": 3822, "swa": 3823, "tS": 3824, "tead": 3825, "stead": 3826, "teen": 3827, "tepped": 3828, "stepped": 3829, "tick": 3830, "trag": 3831, "tril": 3832, "trol": 3833, "taken": 3834, "taxes": 3835, "teamw": 3836, "teena": 3837, "thl": 3838, "told": 3839, "toolk": 3840, "touc": 3841, "towar": 3842, "uis": 3843, "uited": 3844, "suited": 3845, "unem": 3846, "unfor": 3847, "unknow": 3848, "unlig": 3849, "sunlig": 3850, "sunligh": 3851, "unstruct": 3852, "uou": 3853, "urrou": 3854, "surrou": 3855, "surroun": 3856, "usefu": 3857, "unempl": 3858, "unknown": 3859, "unstructu": 3860, "useful": 3861, "vey": 3862, "rvey": 3863, "urvey": 3864, "survey": 3865, "viol": 3866, "vehicles": 3867, "viru": 3868, "wag": 3869, "wfou": 3870, "ewfou": 3871, "ewfoun": 3872, "newfou": 3873, "newfoun": 3874, "wash": 3875, "watched": 3876, "weaken": 3877, "wolf": 3878, "woman": 3879, "wro": 3880, "¡çļ": 3881, "¤è": 3882, "¥¿": 3883, "¬¦": 3884, "¬ä¸": 3885, "²ä¸": 3886, "²Ļ": 3887, "µĽ": 3888, "¶£": 3889, "·®": 3890, "¸®": 3891, "¹°": 3892, "¹åı": 3893, "ºĵ": 3894, "¼å": 3895, "½é": 3896, "½Ĵ": 3897, "¾·": 3898, "¿çļ": 3899, "äº§": 3900, "å£": 3901, "åĴĮ": 3902, "å¦Ĥä½": 3903, "å°ı": 3904, "å½ĵ": 3905, "åħ¨": 3906, "æ»": 3907, "æĳ": 3908, "æīĵ": 3909, "æĶ¹": 3910, "èĮ": 3911, "é»": 3912, "éĢļ": 3913, "éĤ£": 3914, "ĠĠĠĠĠĠ": 3915, "ĠĠĠĠĠĠĠĠ": 3916, "ĠĠĠĠĠĠĠĠĠ": 3917, "ĥé": 3918, "ĦåĪ": 3919, "Ĩåı": 3920, "Ĭ¤": 3921, "Įé": 3922, "įĩ": 3923, "įļ": 3924, "Ĳäº": 3925, "ĲĦ": 3926, "ĳ³": 3927, "ĳæĺ": 3928, "ĳçļ": 3929, "Ĵç": 3930, "Ĺä»": 3931, "Ĺæľ": 3932, "ĺé": 3933, "ļè¿": 3934, "Ľ¢": 3935, "ľĭ": 3936, "ĿĢ": 3937, "Ŀĩ": 3938, "ĿĲ": 3939, "ŀģ": 3940, "ł·": 3941, "łé": 3942, "26": 3943, "API": 3944, "Brain": 3945, "Cof": 3946, "Clou": 3947, "Cour": 3948, "Dank": 3949, "Dieses": 3950, "FÃ¼r": 3951, "Gov": 3952, "Geben": 3953, "Gern": 3954, "Gibt": 3955, "Jam": 3956, "Klas": 3957, "Neu": 3958, "Nu": 3959, "Norw": 3960, "Nun": 3961, "Oct": 3962, "Por": 3963, "Park": 3964, "Rich": 3965, "Trad": 3966, "Take": 3967, "anth": 3968, "esa": 3969, "gani": 3970, "itz": 3971, "legen": 3972, "ntes": 3973, "otos": 3974, "hotos": 3975, "Photos": 3976, "Photosy": 3977, "onk": 3978, "orf": 3979, "pack": 3980, "rgan": 3981, "Organ": 3982, "Organi": 3983, "roper": 3984, "Proper": 3985, "rogen": 3986, "¡º": 3987, "¢çļ": 3988, "£ħ": 3989, "£İ": 3990, "§Ĩ": 3991, "ªĹ": 3992, "¬ĳ": 3993, "°çļ": 3994, "±¡": 3995, "²¡": 3996, "²³": 3997, "²»": 3998, "²çļ": 3999, "´ä¸": 4000, "¶ä¸": 4001, "¶ħ": 4002, "¸ģ": 4003, "¹äº": 4004, "¼æ": 4005, "½»": 4006, "½ä¸": 4007, "¾¤": 4008, "¿ä¸": 4009, "¿ħ": 4010, "Ã©": 4011, "äºĮ": 4012, "ä¼ļ": 4013, "åĤ": 4014, "åĶ": 4015, "åł": 4016, "å¿«": 4017, "åĪĴ": 4018, "åıĺ": 4019, "æ¤": 4020, "æ·": 4021, "æĴ": 4022, "æĬĢ": 4023, "æĬĬ": 4024, "æķĻ": 4025, "æĸ°": 4026, "æŀĦ": 4027, "ç¢": 4028, "çħ": 4029, "ç»´": 4030, "èĪ": 4031, "èĳ": 4032, "è®º": 4033, "è¯¥": 4034, "è¯·": 4035, "è¿ĩ": 4036, "é¸": 4037, "éŀ": 4038, "Ģåı": 4039, "ĢĢ": 4040, "Ĥ¼": 4041, "Ĥé": 4042, "ħ§": 4043, "ħçļ": 4044, "Ĩµ": 4045, "ĨĴ": 4046, "ĩä¸": 4047, "īĩ": 4048, "Ĭä»": 4049, "Įæľ": 4050, "Įģ": 4051, "Įĳ": 4052, "įģ": 4053, "İ·": 4054, "ıæľ": 4055, "ıĹ": 4056, "ĳæĸ": 4057, "ĵª": 4058, "ĵ¶": 4059, "ĵçļ": 4060, "ķåĪ": 4061, "ķæĺ": 4062, "ĸåĨ": 4063, "ĸçļ": 4064, "ĸľ": 4065, "Ĺ¨": 4066, "ĺçļ": 4067, "ĺè": 4068, "ļä»": 4069, "ļĲ": 4070, "ļĸ": 4071, "Ľ¨": 4072, "ĽĽ": 4073, "Łĵ": 4074, "ł¡": 4075, "'l": 4076, "'r": 4077, "'ll": 4078, "'re": 4079, "08": 4080, "078": 4081, "132": 4082, "156": 4083, "192": 4084, "195": 4085, "196": 4086, "197": 4087, "300": 4088, "304": 4089, "31": 4090, "36": 4091, "37": 4092, "350": 4093, "53": 4094, "530": 4095, "64": 4096, "625": 4097, "650": 4098, "70": 4099, "75": 4100, "Accou": 4101, "Act": 4102, "Air": 4103, "Appear": 4104, "Ay": 4105, "Accoun": 4106, "Actor": 4107, "Ali": 4108, "Amb": 4109, "Anoth": 4110, "Ans": 4111, "Appli": 4112, "Ayu": 4113, "Bay": 4114, "Between": 4115, "Bitt": 4116, "Bon": 4117, "Book": 4118, "Brin": 4119, "Birm": 4120, "Bitte": 4121, "Brains": 4122, "Bring": 4123, "Buk": 4124, "CO": 4125, "Cir": 4126, "Cocon": 4127, "Cow": 4128, "CNNs": 4129, "Camou": 4130, "Carr": 4131, "Che": 4132, "Chil": 4133, "Cirr": 4134, "Coconu": 4135, "Coff": 4136, "Conc": 4137, "Covid": 4138, "DC": 4139, "DN": 4140, "Dar": 4141, "Dear": 4142, "Defor": 4143, "Den": 4144, "Depr": 4145, "Din": 4146, "Div": 4147, "Doct": 4148, "Dog": 4149, "Dor": 4150, "Dos": 4151, "Defini": 4152, "Defores": 4153, "Depres": 4154, "Dinn": 4155, "Divid": 4156, "Doctor": 4157, "Dogs": 4158, "Dori": 4159, "Dost": 4160, "Driven": 4161, "Duc": 4162, "Each": 4163, "Eas": 4164, "Egg": 4165, "Egy": 4166, "Electi": 4167, "Emm": 4168, "Encou": 4169, "Ens": 4170, "Est": 4171, "Facial": 4172, "Fact": 4173, "Fal": 4174, "Fis": 4175, "Fol": 4176, "Fos": 4177, "Fy": 4178, "Fals": 4179, "Fash": 4180, "Fish": 4181, "Flower": 4182, "Fores": 4183, "Fost": 4184, "Fut": 4185, "Fyod": 4186, "Gam": 4187, "Gan": 4188, "Gath": 4189, "Gian": 4190, "God": 4191, "Greas": 4192, "Grou": 4193, "Games": 4194, "Gant": 4195, "Garl": 4196, "Gathe": 4197, "Giant": 4198, "Godf": 4199, "Gover": 4200, "Grease": 4201, "Group": 4202, "HO": 4203, "Hab": 4204, "Happy": 4205, "Hob": 4206, "Hol": 4207, "Hou": 4208, "Haben": 4209, "Here": 4210, "Hist": 4211, "Hobb": 4212, "Hold": 4213, "Hous": 4214, "Hum": 4215, "Hun": 4216, "ID": 4217, "IR": 4218, "Iè": 4219, "IPP": 4220, "ISP": 4221, "Impl": 4222, "Ina": 4223, "Ini": 4224, "Isl": 4225, "Jack": 4226, "Jup": 4227, "KIP": 4228, "Kar": 4229, "Kin": 4230, "Kitch": 4231, "KIPP": 4232, "Kang": 4233, "Kens": 4234, "King": 4235, "Kitchen": 4236, "Lab": 4237, "Lar": 4238, "Lau": 4239, "Lev": 4240, "Lib": 4241, "Location": 4242, "Look": 4243, "Lark": 4244, "Laut": 4245, "Lever": 4246, "Liber": 4247, "Loss": 4248, "Mad": 4249, "Micr": 4250, "Mir": 4251, "Mix": 4252, "Mod": 4253, "Mov": 4254, "Mr": 4255, "Ms": 4256, "Male": 4257, "Many": 4258, "Marc": 4259, "Merc": 4260, "Micro": 4261, "Mobil": 4262, "Neg": 4263, "Non": 4264, "Nood": 4265, "Nov": 4266, "Nationa": 4267, "Nations": 4268, "Nevad": 4269, "Never": 4270, "Noodl": 4271, "Offer": 4272, "Oper": 4273, "Optim": 4274, "Octo": 4275, "Ohn": 4276, "Opera": 4277, "Pal": 4278, "Pas": 4279, "Pay": 4280, "Peopl": 4281, "Pepper": 4282, "Phon": 4283, "Pig": 4284, "Piv": 4285, "Pou": 4286, "Pow": 4287, "Pract": 4288, "Prid": 4289, "Prin": 4290, "Prog": 4291, "Ps": 4292, "Pand": 4293, "Pank": 4294, "People": 4295, "Pers": 4296, "Phone": 4297, "Pige": 4298, "Pivo": 4299, "Plag": 4300, "Plas": 4301, "Play": 4302, "Posi": 4303, "Pour": 4304, "Power": 4305, "Practi": 4306, "Pride": 4307, "Progr": 4308, "Pub": 4309, "Pun": 4310, "Ran": 4311, "Read": 4312, "Repor": 4313, "Repu": 4314, "Retriev": 4315, "Road": 4316, "Rob": 4317, "Rol": 4318, "Rand": 4319, "Rask": 4320, "Redd": 4321, "Regr": 4322, "Rele": 4323, "Rena": 4324, "Report": 4325, "Repub": 4326, "Reven": 4327, "Robo": 4328, "Rocke": 4329, "Roll": 4330, "Rothe": 4331, "Rul": 4332, "Run": 4333, "SV": 4334, "Scou": 4335, "Sier": 4336, "Slov": 4337, "Social": 4338, "Son": 4339, "Spen": 4340, "Spid": 4341, "SVM": 4342, "Salt": 4343, "Schen": 4344, "Scout": 4345, "Scri": 4346, "Sho": 4347, "Sierr": 4348, "Sind": 4349, "Song": 4350, "Sort": 4351, "Spend": 4352, "Spider": 4353, "Stay": 4354, "Stor": 4355, "Sub": 4356, "Sur": 4357, "Tax": 4358, "Tim": 4359, "Tok": 4360, "Tom": 4361, "Tow": 4362, "Takin": 4363, "Task": 4364, "Time": 4365, "Toky": 4366, "Tolk": 4367, "Tomor": 4368, "Trade": 4369, "UTC": 4370, "Ultim": 4371, "Ultima": 4372, "Uran": 4373, "VI": 4374, "Val": 4375, "Var": 4376, "Vin": 4377, "Valu": 4378, "Vari": 4379, "Venu": 4380, "Very": 4381, "Vinc": 4382, "Viru": 4383, "WHO": 4384, "Wid": 4385, "Witt": 4386, "Won": 4387, "Wall": 4388, "Wash": 4389, "Whe": 4390, "Whil": 4391, "Whol": 4392, "Wint": 4393, "Wonk": 4394, "XY": 4395, "XYZ": 4396, "Yest": 4397, "Zuck": 4398, "Zucker": 4399, "acation": 4400, "aces": 4401, "afer": 4402, "aject": 4403, "ajes": 4404, "apar": 4405, "apol": 4406, "apr": 4407, "abe": 4408, "acill": 4409, "ackn": 4410, "acuu": 4411, "adm": 4412, "adu": 4413, "aged": 4414, "agg": 4415, "ago": 4416, "ahead": 4417, "aidin": 4418, "aims": 4419, "aine": 4420, "airp": 4421, "ajector": 4422, "ajest": 4423, "alin": 4424, "alis": 4425, "alk": 4426, "alth": 4427, "amen": 4428, "ams": 4429, "apart": 4430, "apolo": 4431, "apri": 4432, "aqua": 4433, "arp": 4434, "arv": 4435, "aser": 4436, "athl": 4437, "atist": 4438, "atta": 4439, "atti": 4440, "ayed": 4441, "aze": 4442, "bag": 4443, "bath": 4444, "beav": 4445, "bed": 4446, "bies": 4447, "biom": 4448, "blow": 4449, "bott": 4450, "box": 4451, "broad": 4452, "brou": 4453, "backg": 4454, "backs": 4455, "band": 4456, "bars": 4457, "beaver": 4458, "becomes": 4459, "broug": 4460, "button": 4461, "cab": 4462, "categ": 4463, "catt": 4464, "cem": 4465, "cian": 4466, "cn": 4467, "coin": 4468, "coz": 4469, "cabl": 4470, "cades": 4471, "calor": 4472, "canc": 4473, "cans": 4474, "canv": 4475, "catchy": 4476, "categor": 4477, "catter": 4478, "cele": 4479, "cemb": 4480, "cni": 4481, "codin": 4482, "comes": 4483, "conj": 4484, "cookies": 4485, "corn": 4486, "corp": 4487, "cozy": 4488, "cst": 4489, "cub": 4490, "cues": 4491, "cyb": 4492, "cyt": 4493, "dead": 4494, "deal": 4495, "decen": 4496, "decor": 4497, "defor": 4498, "depl": 4499, "detes": 4500, "died": 4501, "dipl": 4502, "dopl": 4503, "dration": 4504, "drin": 4505, "drog": 4506, "drou": 4507, "dyin": 4508, "danc": 4509, "decent": 4510, "decora": 4511, "defores": 4512, "deple": 4513, "detailed": 4514, "detecti": 4515, "detest": 4516, "devas": 4517, "diplom": 4518, "disa": 4519, "doors": 4520, "drains": 4521, "dreams": 4522, "drink": 4523, "drogen": 4524, "droug": 4525, "dying": 4526, "eWitt": 4527, "DeWitt": 4528, "ecad": 4529, "decad": 4530, "decades": 4531, "ecem": 4532, "Decem": 4533, "Decemb": 4534, "ecov": 4535, "ecs": 4536, "eeper": 4537, "deeper": 4538, "eepl": 4539, "deepl": 4540, "deeply": 4541, "eju": 4542, "eken": 4543, "eeken": 4544, "eker": 4545, "eeker": 4546, "eom": 4547, "eov": 4548, "epair": 4549, "eager": 4550, "eary": 4551, "echan": 4552, "echo": 4553, "ecover": 4554, "ecst": 4555, "eda": 4556, "eden": 4557, "eder": 4558, "edn": 4559, "edy": 4560, "eeds": 4561, "eekend": 4562, "eekers": 4563, "egies": 4564, "egm": 4565, "ejud": 4566, "emer": 4567, "enf": 4568, "eome": 4569, "epara": 4570, "epare": 4571, "ephy": 4572, "eput": 4573, "erF": 4574, "ettin": 4575, "evid": 4576, "evs": 4577, "exe": 4578, "fah": 4579, "feath": 4580, "fen": 4581, "fool": 4582, "fox": 4583, "frig": 4584, "efrig": 4585, "efriger": 4586, "fahr": 4587, "fails": 4588, "failu": 4589, "fairer": 4590, "fairy": 4591, "fals": 4592, "fant": 4593, "fasc": 4594, "faul": 4595, "feathe": 4596, "feeds": 4597, "fest": 4598, "fifths": 4599, "file": 4600, "fisc": 4601, "fixt": 4602, "floodin": 4603, "frames": 4604, "gI": 4605, "gal": 4606, "gaps": 4607, "gaz": 4608, "geom": 4609, "gian": 4610, "glow": 4611, "goes": 4612, "greas": 4613, "gaze": 4614, "gears": 4615, "geome": 4616, "giant": 4617, "goodb": 4618, "grades": 4619, "grease": 4620, "greenn": 4621, "grown": 4622, "hed": 4623, "heer": 4624, "hos": 4625, "hyg": 4626, "hall": 4627, "happene": 4628, "heavy": 4629, "homi": 4630, "howe": 4631, "hygien": 4632, "hyperb": 4633, "iPhon": 4634, "iab": 4635, "ias": 4636, "bias": 4637, "icel": 4638, "ician": 4639, "iciou": 4640, "icn": 4641, "icy": 4642, "ifes": 4643, "ipal": 4644, "cipal": 4645, "icipal": 4646, "ipper": 4647, "ities": 4648, "cities": 4649, "iPhone": 4650, "ibr": 4651, "icell": 4652, "icious": 4653, "icni": 4654, "idi": 4655, "iene": 4656, "ifest": 4657, "igr": 4658, "igu": 4659, "imer": 4660, "ino": 4661, "ippery": 4662, "iri": 4663, "irin": 4664, "iron": 4665, "irs": 4666, "iser": 4667, "ison": 4668, "isp": 4669, "itzer": 4670, "izen": 4671, "jog": 4672, "jogg": 4673, "jur": 4674, "keepin": 4675, "km": 4676, "kw": 4677, "keeping": 4678, "keywor": 4679, "lak": 4680, "lates": 4681, "leepin": 4682, "lifes": 4683, "lipper": 4684, "liz": 4685, "lunch": 4686, "labor": 4687, "lake": 4688, "latest": 4689, "leeping": 4690, "legal": 4691, "legis": 4692, "lemu": 4693, "lifest": 4694, "lions": 4695, "lippery": 4696, "loves": 4697, "matt": 4698, "mech": 4699, "mitig": 4700, "mois": 4701, "multim": 4702, "matter": 4703, "meant": 4704, "mechan": 4705, "metha": 4706, "midd": 4707, "minc": 4708, "mirr": 4709, "mitiga": 4710, "mixed": 4711, "mode": 4712, "moist": 4713, "multimed": 4714, "nab": 4715, "ncov": 4716, "near": 4717, "nfol": 4718, "nicipal": 4719, "nies": 4720, "nis": 4721, "nnies": 4722, "nois": 4723, "notation": 4724, "noth": 4725, "npl": 4726, "nabl": 4727, "nami": 4728, "ncover": 4729, "nego": 4730, "nfold": 4731, "node": 4732, "noise": 4733, "norm": 4734, "nothi": 4735, "nplu": 4736, "nthe": 4737, "oak": 4738, "oev": 4739, "oof": 4740, "oog": 4741, "Goog": 4742, "Googl": 4743, "oops": 4744, "opped": 4745, "opper": 4746, "hopper": 4747, "hoppers": 4748, "otech": 4749, "iotech": 4750, "biotech": 4751, "biotechn": 4752, "otect": 4753, "obt": 4754, "ochon": 4755, "ochu": 4756, "ocke": 4757, "odc": 4758, "odor": 4759, "ofi": 4760, "omi": 4761, "oms": 4762, "onn": 4763, "oplas": 4764, "oran": 4765, "osin": 4766, "ouf": 4767, "oved": 4768, "oves": 4769, "paces": 4770, "pad": 4771, "pam": 4772, "pect": 4773, "pian": 4774, "pices": 4775, "piciou": 4776, "picn": 4777, "pien": 4778, "ipien": 4779, "cipien": 4780, "cipient": 4781, "ecipien": 4782, "ecipient": 4783, "pies": 4784, "opies": 4785, "copies": 4786, "pir": 4787, "pitch": 4788, "pod": 4789, "poth": 4790, "ppil": 4791, "appil": 4792, "appily": 4793, "happil": 4794, "happily": 4795, "ppoin": 4796, "appoin": 4797, "appoint": 4798, "ptiv": 4799, "aptiv": 4800, "aptiva": 4801, "captiv": 4802, "captiva": 4803, "px": 4804, "paths": 4805, "peanu": 4806, "pest": 4807, "picious": 4808, "picni": 4809, "pke": 4810, "podc": 4811, "polar": 4812, "pond": 4813, "pothe": 4814, "poun": 4815, "ppli": 4816, "pum": 4817, "rah": 4818, "raid": 4819, "fraid": 4820, "afraid": 4821, "rail": 4822, "rais": 4823, "raject": 4824, "reath": 4825, "breath": 4826, "recipien": 4827, "recov": 4828, "reein": 4829, "freein": 4830, "freeing": 4831, "refrig": 4832, "refu": 4833, "reju": 4834, "Preju": 4835, "Prejud": 4836, "repair": 4837, "repar": 4838, "Prepar": 4839, "Prepare": 4840, "repu": 4841, "retail": 4842, "rial": 4843, "rices": 4844, "Prices": 4845, "rick": 4846, "ripes": 4847, "rippin": 4848, "grippin": 4849, "gripping": 4850, "roch": 4851, "broch": 4852, "brochu": 4853, "rock": 4854, "rof": 4855, "roof": 4856, "ror": 4857, "rotect": 4858, "Protect": 4859, "rpas": 4860, "rpr": 4861, "ruck": 4862, "ryin": 4863, "rajector": 4864, "reaches": 4865, "recipient": 4866, "recover": 4867, "referr": 4868, "refine": 4869, "reflects": 4870, "refriger": 4871, "remo": 4872, "reput": 4873, "retrieval": 4874, "reus": 4875, "reven": 4876, "ridl": 4877, "rient": 4878, "rigor": 4879, "rival": 4880, "rivi": 4881, "rows": 4882, "rozen": 4883, "rpass": 4884, "rpris": 4885, "rying": 4886, "sC": 4887, "safer": 4888, "sail": 4889, "sar": 4890, "scatt": 4891, "scl": 4892, "scu": 4893, "secr": 4894, "seeker": 4895, "seg": 4896, "sem": 4897, "separ": 4898, "sheer": 4899, "shon": 4900, "shopper": 4901, "sician": 4902, "sleepin": 4903, "slipper": 4904, "snow": 4905, "sooth": 4906, "soy": 4907, "spaces": 4908, "spam": 4909, "spar": 4910, "spices": 4911, "spiciou": 4912, "spin": 4913, "stag": 4914, "stak": 4915, "station": 4916, "strol": 4917, "sacra": 4918, "salt": 4919, "scall": 4920, "scann": 4921, "scatter": 4922, "scle": 4923, "scul": 4924, "sealed": 4925, "secre": 4926, "seekers": 4927, "seemin": 4928, "segm": 4929, "semi": 4930, "send": 4931, "separa": 4932, "settl": 4933, "seven": 4934, "shaver": 4935, "shelf": 4936, "shone": 4937, "shoppers": 4938, "shout": 4939, "shower": 4940, "situations": 4941, "sized": 4942, "sizes": 4943, "sleeping": 4944, "slippery": 4945, "sola": 4946, "solo": 4947, "soul": 4948, "spark": 4949, "speciali": 4950, "speeds": 4951, "spicious": 4952, "spro": 4953, "stage": 4954, "stake": 4955, "steadil": 4956, "stroll": 4957, "tC": 4958, "tT": 4959, "tatis": 4960, "statis": 4961, "statist": 4962, "teal": 4963, "steal": 4964, "stealin": 4965, "tein": 4966, "otein": 4967, "rotein": 4968, "Protein": 4969, "tev": 4970, "tib": 4971, "ptib": 4972, "eptib": 4973, "ceptib": 4974, "sceptib": 4975, "ticu": 4976, "eticu": 4977, "Reticu": 4978, "Reticul": 4979, "tiz": 4980, "itiz": 4981, "citiz": 4982, "citizen": 4983, "tmeal": 4984, "toch": 4985, "itoch": 4986, "itochon": 4987, "tof": 4988, "tood": 4989, "stood": 4990, "topped": 4991, "tract": 4992, "traject": 4993, "tream": 4994, "stream": 4995, "trem": 4996, "trick": 4997, "trien": 4998, "tripes": 4999}, "id_to_token": {"0": "<s>", "1": "</s>", "2": "<pad>", "3": "<sys>", "4": "<usr>", "5": "<ai>", "6": "Ā", "7": "ā", "8": "Ă", "9": "ă", "10": "Ą", "11": "ą", "12": "Ć", "13": "ć", "14": "Ĉ", "15": "ĉ", "16": "Ċ", "17": "ċ", "18": "Č", "19": "č", "20": "Ď", "21": "ď", "22": "Đ", "23": "đ", "24": "Ē", "25": "ē", "26": "Ĕ", "27": "ĕ", "28": "Ė", "29": "ė", "30": "Ę", "31": "ę", "32": "Ě", "33": "ě", "34": "Ĝ", "35": "ĝ", "36": "Ğ", "37": "ğ", "38": "Ġ", "39": "!", "40": "\"", "41": "#", "42": "$", "43": "%", "44": "&", "45": "'", "46": "(", "47": ")", "48": "*", "49": "+", "50": ",", "51": "-", "52": ".", "53": "/", "54": "0", "55": "1", "56": "2", "57": "3", "58": "4", "59": "5", "60": "6", "61": "7", "62": "8", "63": "9", "64": ":", "65": ";", "66": "<", "67": "=", "68": ">", "69": "?", "70": "@", "71": "A", "72": "B", "73": "C", "74": "D", "75": "E", "76": "F", "77": "G", "78": "H", "79": "I", "80": "J", "81": "K", "82": "L", "83": "M", "84": "N", "85": "O", "86": "P", "87": "Q", "88": "R", "89": "S", "90": "T", "91": "U", "92": "V", "93": "W", "94": "X", "95": "Y", "96": "Z", "97": "[", "98": "\\", "99": "]", "100": "^", "101": "_", "102": "`", "103": "a", "104": "b", "105": "c", "106": "d", "107": "e", "108": "f", "109": "g", "110": "h", "111": "i", "112": "j", "113": "k", "114": "l", "115": "m", "116": "n", "117": "o", "118": "p", "119": "q", "120": "r", "121": "s", "122": "t", "123": "u", "124": "v", "125": "w", "126": "x", "127": "y", "128": "z", "129": "{", "130": "|", "131": "}", "132": "~", "133": "ġ", "134": "Ģ", "135": "ģ", "136": "Ĥ", "137": "ĥ", "138": "Ħ", "139": "ħ", "140": "Ĩ", "141": "ĩ", "142": "Ī", "143": "ī", "144": "Ĭ", "145": "ĭ", "146": "Į", "147": "į", "148": "İ", "149": "ı", "150": "Ĳ", "151": "ĳ", "152": "Ĵ", "153": "ĵ", "154": "Ķ", "155": "ķ", "156": "ĸ", "157": "Ĺ", "158": "ĺ", "159": "Ļ", "160": "ļ", "161": "Ľ", "162": "ľ", "163": "Ŀ", "164": "ŀ", "165": "Ł", "166": "ł", "167": "¡", "168": "¢", "169": "£", "170": "¤", "171": "¥", "172": "¦", "173": "§", "174": "¨", "175": "©", "176": "ª", "177": "«", "178": "¬", "179": "Ń", "180": "®", "181": "¯", "182": "°", "183": "±", "184": "²", "185": "³", "186": "´", "187": "µ", "188": "¶", "189": "·", "190": "¸", "191": "¹", "192": "º", "193": "»", "194": "¼", "195": "½", "196": "¾", "197": "¿", "198": "À", "199": "Á", "200": "Â", "201": "Ã", "202": "Ä", "203": "Å", "204": "Æ", "205": "Ç", "206": "È", "207": "É", "208": "Ê", "209": "Ë", "210": "Ì", "211": "Í", "212": "Î", "213": "Ï", "214": "Ð", "215": "Ñ", "216": "Ò", "217": "Ó", "218": "Ô", "219": "Õ", "220": "Ö", "221": "×", "222": "Ø", "223": "Ù", "224": "Ú", "225": "Û", "226": "Ü", "227": "Ý", "228": "Þ", "229": "ß", "230": "à", "231": "á", "232": "â", "233": "ã", "234": "ä", "235": "å", "236": "æ", "237": "ç", "238": "è", "239": "é", "240": "ê", "241": "ë", "242": "ì", "243": "í", "244": "î", "245": "ï", "246": "ð", "247": "ñ", "248": "ò", "249": "ó", "250": "ô", "251": "õ", "252": "ö", "253": "÷", "254": "ø", "255": "ù", "256": "ú", "257": "û", "258": "ü", "259": "ý", "260": "þ", "261": "ÿ", "262": "th", "263": "es", "264": "in", "265": "on", "266": "an", "267": "the", "268": "er", "269": "en", "270": "or", "271": "is", "272": "as", "273": "pr", "274": "el", "275": "ed", "276": "al", "277": "and", "278": "ar", "279": "ing", "280": "ct", "281": "tha", "282": "om", "283": "ion", "284": "of", "285": "ou", "286": "ow", "287": "ĊĊ", "288": "pro", "289": "ch", "290": "pl", "291": "ä¸", "292": "esp", "293": "cr", "294": "ent", "295": "In", "296": "com", "297": "ol", "298": "est", "299": "ex", "300": "il", "301": "qu", "302": "id", "303": "iv", "304": "Th", "305": "con", "306": "ov", "307": "for", "308": "ir", "309": "pu", "310": "ib", "311": "tes", "312": "em", "313": "ith", "314": "cti", "315": "comp", "316": "im", "317": "elo", "318": "ins", "319": "çļ", "320": "esc", "321": "The", "322": "ask", "323": "am", "324": "Bel", "325": "equ", "326": "Belo", "327": "with", "328": "tas", "329": "Wr", "330": "Wri", "331": "ad", "332": "task", "333": "ab", "334": "ig", "335": "uct", "336": "requ", "337": "ĠĠ", "338": "ppr", "339": "appr", "340": "ess", "341": "appro", "342": "Ins", "343": "Res", "344": "reques", "345": "Resp", "346": "ev", "347": "os", "348": "cu", "349": "ag", "350": "ces", "351": "od", "352": "fu", "353": "tion", "354": "wh", "355": "cl", "356": "cont", "357": "ak", "358": "Du", "359": "per", "360": "are", "361": "can", "362": "ine", "363": "ay", "364": "all", "365": "ain", "366": "low", "367": "av", "368": "ear", "369": "ä¸Ģ", "370": "og", "371": "äº", "372": "ies", "373": "air", "374": "int", "375": "wor", "376": "oll", "377": "åĪ", "378": "inp", "379": "ck", "380": "ere", "381": "inc", "382": "eg", "383": "ant", "384": "çļĦ", "385": "ä»", "386": "our", "387": "fur", "388": "you", "389": "thi", "390": "au", "391": "tt", "392": "pair", "393": "Inp", "394": "paired", "395": "igh", "396": "sen", "397": "ich", "398": "ener", "399": "fol", "400": "æĺ", "401": "ist", "402": "rom", "403": "foll", "404": "ons", "405": "ind", "406": "eas", "407": "åı", "408": "iz", "409": "cal", "410": "ect", "411": "sent", "412": "oth", "413": "ob", "414": "oul", "415": "ass", "416": "from", "417": "åħ", "418": "ach", "419": "çĶ", "420": "ill", "421": "was", "422": "ey", "423": "ple", "424": "æľ", "425": "ph", "426": "ang", "427": "ext", "428": "tem", "429": "è¿", "430": "ien", "431": "ake", "432": "ä½", "433": "è¯", "434": "It", "435": "ell", "436": "een", "437": "cou", "438": "min", "439": "als", "440": "act", "441": "ori", "442": "ost", "443": "ele", "444": "iven", "445": "ç»", "446": "åŃ", "447": "les", "448": "eal", "449": "å®", "450": "è®", "451": "eb", "452": "æĸ", "453": "tim", "454": "cre", "455": "'s", "456": "ted", "457": "fer", "458": "æĪ", "459": "giv", "460": "hel", "461": "ave", "462": "mak", "463": "ok", "464": "ide", "465": "âĢ", "466": "cur", "467": "hav", "468": "hou", "469": "pla", "470": "AI", "471": "ast", "472": "å¤", "473": "ein", "474": "00", "475": "fy", "476": "anc", "477": "por", "478": "help", "479": "ªå", "480": "ame", "481": "åĲ", "482": "ood", "483": "ech", "484": "par", "485": "æķ", "486": "cus", "487": "exp", "488": "othe", "489": "whi", "490": "Sh", "491": "ead", "492": "ook", "493": "è¾", "494": "edu", "495": "abl", "496": "erv", "497": "åĨ", "498": "fin", "499": "earn", "500": "given", "501": "pre", "502": "inf", "503": "cess", "504": "isi", "505": "rel", "506": "æĺ¯", "507": "St", "508": "ial", "509": "ik", "510": "omer", "511": "over", "512": "Wh", "513": "car", "514": "each", "515": "rin", "516": "any", "517": "pres", "518": "åľ", "519": "Gen", "520": "have", "521": "Al", "522": "echn", "523": "cy", "524": "eth", "525": "word", "526": "Cr", "527": "shou", "528": "lear", "529": "learn", "530": "Ã¶", "531": "ä¹", "532": "She", "533": "This", "534": "pli", "535": "shoul", "536": "ari", "537": "comm", "538": "dis", "539": "erg", "540": "ä¸ĭ", "541": "åº", "542": "Gener", "543": "cons", "544": "tter", "545": "åĩ", "546": "KÃ¶", "547": "KÃ¶n", "548": "ffer", "549": "ppl", "550": "evel", "551": "ps", "552": "ever", "553": "your", "554": "ack", "555": "eed", "556": "An", "557": "ealth", "558": "had", "559": "stem", "560": "tech", "561": "ä¸ª", "562": "imp", "563": "ile", "564": "iffer", "565": "sol", "566": "techn", "567": "web", "568": "ani", "569": "iffere", "570": "my", "571": "thr", "572": "lik", "573": "ystem", "574": "system", "575": "ç§", "576": "arg", "577": "ines", "578": "Ex", "579": "abou", "580": "cces", "581": "ccess", "582": "time", "583": "work", "584": "exa", "585": "differ", "586": "make", "587": "plan", "588": "¯ä¸", "589": "è§", "590": "differe", "591": "heal", "592": "ili", "593": "impr", "594": "way", "595": "Cre", "596": "esi", "597": "Ad", "598": "health", "599": "wil", "600": "Ch", "601": "Des", "602": "ath", "603": "oy", "604": "pri", "605": "ean", "606": "ern", "607": "coun", "608": "even", "609": "¥ä¸", "610": "è¾ĵ", "611": "Su", "612": "ian", "613": "nen", "614": "appl", "615": "cs", "616": "ail", "617": "ation", "618": "dev", "619": "enc", "620": "mos", "621": "Ã¼", "622": "æı", "623": "ä¸º", "624": "ç®", "625": "aut", "626": "cien", "627": "cor", "628": "now", "629": "ory", "630": "wr", "631": "will", "632": "å°", "633": "cial", "634": "ery", "635": "pos", "636": "çī", "637": "Nex", "638": "Next", "639": "like", "640": "pan", "641": "Ħè", "642": "cis", "643": "pas", "644": "ä»¥", "645": "eng", "646": "éĩ", "647": "Add", "648": "ccu", "649": "how", "650": "ition", "651": "ong", "652": "tak", "653": "ween", "654": "tween", "655": "etween", "656": "webs", "657": "åħ¥", "658": "è¡", "659": "Ich", "660": "Wha", "661": "Ã¼r", "662": "éĢ", "663": "adv", "664": "alg", "665": "ara", "666": "cen", "667": "els", "668": "pen", "669": "pers", "670": "ĵåħ", "671": "lich", "672": "between", "673": "econ", "674": "Ļä¸", "675": "inv", "676": "thm", "677": "ĥ½", "678": "ju", "679": "tÃ¼", "680": "atÃ¼", "681": "NatÃ¼", "682": "NatÃ¼r", "683": "åĽ", "684": "æł", "685": "Com", "686": "ccur", "687": "opl", "688": "wri", "689": "æŃ", "690": "Als", "691": "cin", "692": "å¸", "693": "ates", "694": "appli", "695": "cos", "696": "til", "697": "æĿ", "698": "Fin", "699": "acti", "700": "riv", "701": "tex", "702": "text", "703": "å¼", "704": "Das", "705": "iss", "706": "off", "707": "åį", "708": "aus", "709": "cisi", "710": "conc", "711": "ecis", "712": "decis", "713": "decisi", "714": "fect", "715": "ffect", "716": "pol", "717": "port", "718": "ram", "719": "rou", "720": "ring", "721": "som", "722": "some", "723": "tar", "724": "é¢", "725": "accu", "726": "accur", "727": "eak", "728": "eopl", "729": "ett", "730": "eople", "731": "form", "732": "hig", "733": "pin", "734": "âĢĻ", "735": "æĢ", "736": "ĴĮ", "737": "att", "738": "ier", "739": "oin", "740": "§į", "741": "»º", "742": "æ³", "743": "æī", "744": "age", "745": "high", "746": "who", "747": "æŀ", "748": "Un", "749": "van", "750": "You", "751": "cau", "752": "cent", "753": "lead", "754": "oni", "755": "peopl", "756": "people", "757": "row", "758": "tch", "759": "wel", "760": "worl", "761": "ä¸Ń", "762": "Giv", "763": "eine", "764": "year", "765": "å¥", "766": "cel", "767": "cle", "768": "coul", "769": "expl", "770": "mod", "771": "most", "772": "part", "773": "whil", "774": "Desc", "775": "Expl", "776": "On", "777": "åĮ", "778": "caus", "779": "clas", "780": "well", "781": "æĹ", "782": "col", "783": "ove", "784": "teg", "785": "åĨĻ", "786": "02", "787": "Es", "788": "effect", "789": "know", "790": "pass", "791": "sw", "792": "ä¼", "793": "Con", "794": "ax", "795": "alu", "796": "202", "797": "day", "798": "good", "799": "pur", "800": "sou", "801": "ºä¸", "802": "æĬ", "803": "æį", "804": "å·", "805": "å½", "806": "éĹ", "807": "Ĭ¨", "808": "Dein", "809": "Int", "810": "been", "811": "cost", "812": "ecom", "813": "inn", "814": "main", "815": "å¯", "816": "oft", "817": "Deine", "818": "acces", "819": "access", "820": "both", "821": "cri", "822": "cul", "823": "exc", "824": "ical", "825": "iden", "826": "mach", "827": "machin", "828": "need", "829": "oh", "830": "onl", "831": "onm", "832": "sel", "833": "tiv", "834": "var", "835": "ateg", "836": "Comp", "837": "Kan", "838": "econo", "839": "env", "840": "itt", "841": "isk", "842": "lev", "843": "lob", "844": "reach", "845": "¦ģ", "846": "åĵ", "847": "rig", "848": "ade", "849": "cho", "850": "fas", "851": "kil", "852": "lig", "853": "nam", "854": "vari", "855": "wou", "856": "wha", "857": "éĿ", "858": "19", "859": "esu", "860": "ä¾", "861": "ä½ł", "862": "å¾", "863": "Was", "864": "cient", "865": "devel", "866": "ees", "867": "edg", "868": "eing", "869": "fam", "870": "ful", "871": "icien", "872": "ficien", "873": "fficien", "874": "ject", "875": "makin", "876": "ock", "877": "rev", "878": "woul", "879": "Ģä¸", "880": "Kann", "881": "Nam", "882": "Name", "883": "å¿", "884": "Cl", "885": "Id", "886": "book", "887": "efficien", "888": "etter", "889": "grow", "890": "log", "891": "pon", "892": "perf", "893": "rem", "894": "rela", "895": "¦Ĥ", "896": "æµ", "897": "For", "898": "Iden", "899": "ewr", "900": "ewri", "901": "ima", "902": "ish", "903": "liv", "904": "pag", "905": "rad", "906": "ç«", "907": "çĲ", "908": "driv", "909": "fir", "910": "fou", "911": "lobal", "912": "take", "913": "Find", "914": "cer", "915": "righ", "916": "wal", "917": "ªç", "918": "ä¿", "919": "Rewr", "920": "Rewri", "921": "cm", "922": "conv", "923": "eam", "924": "epr", "925": "fact", "926": "find", "927": "ligh", "928": "may", "929": "pow", "930": "when", "931": "æ¯", "932": "ç±", "933": "è¿Ļ", "934": "eu", "935": "iel", "936": "oon", "937": "01", "938": "Der", "939": "abil", "940": "eso", "941": "level", "942": "ors", "943": "rav", "944": "reg", "945": "å¹", "946": "çĶŁ", "947": "łæĺ", "948": "rien", "949": "¢ĺ", "950": "æ°", "951": "ç¨", "952": "Cu", "953": "Joh", "954": "Kl", "955": "efor", "956": "ign", "957": "kill", "958": "ocial", "959": "pul", "960": "sig", "961": "sour", "962": "tA", "963": "Im", "964": "ah", "965": "gan", "966": "rain", "967": "Ĥ¨", "968": "Au", "969": "En", "970": "John", "971": "Um", "972": "ank", "973": "aro", "974": "atter", "975": "efin", "976": "fun", "977": "glob", "978": "ited", "979": "look", "980": "mean", "981": "ntil", "982": "ovi", "983": "page", "984": "skil", "985": "skill", "986": "until", "987": "yz", "988": "years", "989": "¸¸", "990": "åĪĽ", "991": "çĽ", "992": "bin", "993": "frien", "994": "friend", "995": "¥è", "996": "åĪĹ", "997": "ç»Ļ", "998": "arm", "999": "back", "1000": "cog", "1001": "disc", "1002": "eath", "1003": "emb", "1004": "epres", "1005": "food", "1006": "job", "1007": "ool", "1008": "oor", "1009": "ole", "1010": "poli", "1011": "rateg", "1012": "rov", "1013": "rele", "1014": "social", "1015": "trateg", "1016": "strateg", "1017": "¨ĭ", "1018": "åİ", "1019": "Ĳä¸", "1020": "As", "1021": "How", "1022": "Mar", "1023": "200", "1024": "201", "1025": "Ein", "1026": "becom", "1027": "bein", "1028": "being", "1029": "eau", "1030": "beau", "1031": "beaut", "1032": "eason", "1033": "factor", "1034": "gam", "1035": "icu", "1036": "lov", "1037": "less", "1038": "model", "1039": "opu", "1040": "opul", "1041": "popu", "1042": "popul", "1043": "spr", "1044": "sign", "1045": "solu", "1046": "wher", "1047": "ªé", "1048": "¯è", "1049": "æĮ", "1050": "æĻ", "1051": "è½", "1052": "įķ", "1053": "Ĺè", "1054": "Clas", "1055": "Given", "1056": "Klar", "1057": "erb", "1058": "py", "1059": "¼ı", "1060": "åľ¨", "1061": "è´", "1062": "ĭé", "1063": "15", "1064": "Ar", "1065": "brin", "1066": "bring", "1067": "devi", "1068": "ecen", "1069": "ecent", "1070": "famil", "1071": "foun", "1072": "iu", "1073": "icher", "1074": "impl", "1075": "mad", "1076": "made", "1077": "nig", "1078": "nigh", "1079": "ocu", "1080": "pm", "1081": "ppor", "1082": "repr", "1083": "sib", "1084": "tain", "1085": "thy", "1086": "yin", "1087": "åĳ", "1088": "ĵģ", "1089": "Ou", "1090": "Sta", "1091": "che", "1092": "chi", "1093": "çĶ¨", "1094": "è¿°", "1095": "100", "1096": "11", "1097": "Sich", "1098": "Sicher", "1099": "US", "1100": "Uni", "1101": "cam", "1102": "cogn", "1103": "conf", "1104": "cord", "1105": "dan", "1106": "efficient", "1107": "fiv", "1108": "fina", "1109": "firs", "1110": "five", "1111": "global", "1112": "ix", "1113": "meth", "1114": "non", "1115": "oes", "1116": "phr", "1117": "power", "1118": "scien", "1119": "sid", "1120": "star", "1121": "systems", "1122": "tf", "1123": "temp", "1124": "wid", "1125": "why", "1126": "åģ", "1127": "ç½", "1128": "çİ", "1129": "è®¡", "1130": "ŀĭ", "1131": "Am", "1132": "Bu", "1133": "egin", "1134": "ger", "1135": "tis", "1136": "£é", "1137": "¥é", "1138": "ä¸ī", "1139": "æ´", "1140": "æİ", "1141": "Ħä¸", "1142": "ĩĬ", "1143": "Cal", "1144": "add", "1145": "ases", "1146": "bett", "1147": "better", "1148": "deb", "1149": "ecog", "1150": "ecu", "1151": "eer", "1152": "ecogn", "1153": "fil", "1154": "flow", "1155": "gram", "1156": "gramm", "1157": "hom", "1158": "ipl", "1159": "key", "1160": "oem", "1161": "ox", "1162": "obj", "1163": "poss", "1164": "pport", "1165": "recog", "1166": "recogn", "1167": "requi", "1168": "sim", "1169": "solv", "1170": "tb", "1171": "·æ", "1172": "Prov", "1173": "Provid", "1174": "cra", "1175": "mes", "1176": "reen", "1177": "ºı", "1178": "çº", "1179": "Ģé", "1180": "000", "1181": "12", "1182": "atem", "1183": "aly", "1184": "ary", "1185": "aud", "1186": "beg", "1187": "care", "1188": "cert", "1189": "corr", "1190": "div", "1191": "eig", "1192": "eon", "1193": "ecur", "1194": "eigh", "1195": "item", "1196": "ibl", "1197": "ient", "1198": "ism", "1199": "jus", "1200": "knowl", "1201": "lion", "1202": "max", "1203": "metho", "1204": "orr", "1205": "oss", "1206": "poem", "1207": "ping", "1208": "plo", "1209": "recen", "1210": "rees", "1211": "recent", "1212": "repres", "1213": "trad", "1214": "uctu", "1215": "veg", "1216": "zin", "1217": "ä¸į", "1218": "äºº", "1219": "æĥ", "1220": "æĭ", "1221": "çŃ", "1222": "ıè¿", "1223": "Ńå", "1224": "Ed", "1225": "az", "1226": "¨ä¸", "1227": "®é", "1228": "å°Ĩ", "1229": "ç¾", "1230": "è§£", "1231": "Anal", "1232": "Give", "1233": "One", "1234": "Str", "1235": "Sum", "1236": "Us", "1237": "ban", "1238": "befor", "1239": "before", "1240": "cas", "1241": "ccou", "1242": "ccoun", "1243": "comb", "1244": "dist", "1245": "eel", "1246": "easu", "1247": "effecti", "1248": "expr", "1249": "game", "1250": "growth", "1251": "icul", "1252": "isu", "1253": "jor", "1254": "ajor", "1255": "meas", "1256": "mem", "1257": "measu", "1258": "oal", "1259": "oil", "1260": "oint", "1261": "pend", "1262": "pera", "1263": "real", "1264": "ruct", "1265": "secu", "1266": "secur", "1267": "tipl", "1268": "ltipl", "1269": "tool", "1270": "ultipl", "1271": "æĶ", "1272": "ç¡", "1273": "èĲ", "1274": "éĶ", "1275": "Lis", "1276": "Pl", "1277": "Sug", "1278": "ama", "1279": "bir", "1280": "cour", "1281": "earc", "1282": "erf", "1283": "nct", "1284": "oper", "1285": "«ł", "1286": "æıı", "1287": "ĲĨ", "1288": "'t", "1289": "Dies", "1290": "Mak", "1291": "Wel", "1292": "atch", "1293": "atemen", "1294": "clim", "1295": "coll", "1296": "cro", "1297": "defin", "1298": "ecr", "1299": "easi", "1300": "fig", "1301": "home", "1302": "iqu", "1303": "itch", "1304": "ield", "1305": "lau", "1306": "major", "1307": "multipl", "1308": "minu", "1309": "nex", "1310": "oug", "1311": "pes", "1312": "poin", "1313": "para", "1314": "point", "1315": "rack", "1316": "read", "1317": "reas", "1318": "ructu", "1319": "sav", "1320": "sear", "1321": "sis", "1322": "searc", "1323": "start", "1324": "tatem", "1325": "statem", "1326": "statemen", "1327": "truct", "1328": "struct", "1329": "structu", "1330": "thc", "1331": "walk", "1332": "ä¸¤", "1333": "æ²", "1334": "çĤ", "1335": "Is", "1336": "List", "1337": "åĪ¶", "1338": "çķ", "1339": "èĩ", "1340": "èī", "1341": "Ļ¨", "1342": "Make", "1343": "Win", "1344": "Welc", "1345": "accou", "1346": "accoun", "1347": "amou", "1348": "ava", "1349": "bon", "1350": "become", "1351": "cook", "1352": "calc", "1353": "dig", "1354": "does", "1355": "eav", "1356": "emis", "1357": "ficu", "1358": "fficu", "1359": "fficul", "1360": "green", "1361": "ifficu", "1362": "ifficul", "1363": "imm", "1364": "lookin", "1365": "multiple", "1366": "ooth", "1367": "open", "1368": "patt", "1369": "ped", "1370": "pical", "1371": "patter", "1372": "reak", "1373": "show", "1374": "siz", "1375": "tien", "1376": "atien", "1377": "atient", "1378": "patien", "1379": "patient", "1380": "track", "1381": "trees", "1382": "tions", "1383": "ypical", "1384": "typical", "1385": "æ¬", "1386": "æĦ", "1387": "æī¾", "1388": "èµ", "1389": "éķ", "1390": "Cons", "1391": "Edi", "1392": "Par", "1393": "brig", "1394": "brigh", "1395": "hous", "1396": "rag", "1397": "ä¸»", "1398": "ä¸Ĭ", "1399": "åĻ", "1400": "æľī", "1401": "ç´", "1402": "é¡", "1403": "éĺ", "1404": "Ĭ¡", "1405": "ļä¸", "1406": "Calc", "1407": "Desi", "1408": "Fina", "1409": "Ste", "1410": "War", "1411": "ated", "1412": "bear", "1413": "bow", "1414": "cies", "1415": "cell", "1416": "chas", "1417": "ded", "1418": "difficu", "1419": "difficul", "1420": "ecau", "1421": "becau", "1422": "becaus", "1423": "ecies", "1424": "eith", "1425": "econd", "1426": "eithe", "1427": "empl", "1428": "ero", "1429": "fiel", "1430": "field", "1431": "hon", "1432": "ites", "1433": "iang", "1434": "nov", "1435": "name", "1436": "novel", "1437": "obil", "1438": "opera", "1439": "pecies", "1440": "plor", "1441": "poll", "1442": "pub", "1443": "rian", "1444": "riang", "1445": "species", "1446": "strategies", "1447": "tog", "1448": "ton", "1449": "tow", "1450": "trian", "1451": "triang", "1452": "vege", "1453": "wan", "1454": "want", "1455": "£ç", "1456": "¹ł", "1457": "äºİ", "1458": "æģ", "1459": "ç¯", "1460": "īè", "1461": "Łè", "1462": "Fu", "1463": "My", "1464": "nch", "1465": "oda", "1466": "oud", "1467": "twor", "1468": "®µ", "1469": "äºĨ", "1470": "åı¯", "1471": "æ®", "1472": "ç¤", "1473": "ç¬", "1474": "ç³", "1475": "Ļº", "1476": "Conv", "1477": "Mach", "1478": "Mon", "1479": "NN", "1480": "Sm", "1481": "aid", "1482": "carb", "1483": "dir", "1484": "dire", "1485": "eces", "1486": "eps", "1487": "ecre", "1488": "esh", "1489": "feel", "1490": "fast", "1491": "figu", "1492": "forc", "1493": "goal", "1494": "grou", "1495": "ior", "1496": "known", "1497": "mol", "1498": "memb", "1499": "mole", "1500": "oct", "1501": "octor", "1502": "peed", "1503": "pid", "1504": "peri", "1505": "quar", "1506": "reli", "1507": "secon", "1508": "speed", "1509": "squ", "1510": "second", "1511": "simpl", "1512": "spre", "1513": "squar", "1514": "team", "1515": "tect", "1516": "toge", "1517": "typicall", "1518": "wast", "1519": "witho", "1520": "½çļ", "1521": "è°", "1522": "èĤ", "1523": "é£", "1524": "éĻ", "1525": "Ĥ¹", "1526": "Ĩè", "1527": "Art", "1528": "Dev", "1529": "Wow", "1530": "acr", "1531": "los", "1532": "¯ĩ", "1533": "¸ħ", "1534": "æ±", "1535": "èģ", "1536": "é¦", "1537": "Amer", "1538": "Cas", "1539": "Hier", "1540": "Machin", "1541": "Out", "1542": "Ther", "1543": "Thr", "1544": "When", "1545": "Wind", "1546": "alt", "1547": "break", "1548": "begin", "1549": "cean", "1550": "camp", "1551": "chal", "1552": "clos", "1553": "cycl", "1554": "dar", "1555": "etwor", "1556": "eathe", "1557": "ecess", "1558": "ecomm", "1559": "effects", "1560": "elt", "1561": "erin", "1562": "etwork", "1563": "ffor", "1564": "fut", "1565": "hear", "1566": "ict", "1567": "ila", "1568": "ilk", "1569": "leadin", "1570": "mob", "1571": "mooth", "1572": "mobil", "1573": "mosp", "1574": "neces", "1575": "necess", "1576": "needs", "1577": "ocean", "1578": "ocus", "1579": "oing", "1580": "peak", "1581": "ppin", "1582": "ption", "1583": "option", "1584": "past", "1585": "phy", "1586": "pping", "1587": "recom", "1588": "recomm", "1589": "revi", "1590": "revol", "1591": "sal", "1592": "sam", "1593": "scal", "1594": "smooth", "1595": "same", "1596": "scienc", "1597": "teas", "1598": "teps", "1599": "steps", "1600": "tmos", "1601": "atmos", "1602": "atmosp", "1603": "trav", "1604": "tiva", "1605": "tradi", "1606": "uation", "1607": "tuation", "1608": "ituation", "1609": "situation", "1610": "uil", "1611": "wen", "1612": "ww", "1613": "went", "1614": "»Ħ", "1615": "½į", "1616": "âĢĵ", "1617": "âĢľ", "1618": "åŁ", "1619": "åĩº", "1620": "æĪĳ", "1621": "ç©", "1622": "ģ¥", "1623": "ľä¸", "1624": "Aus", "1625": "Ov", "1626": "Over", "1627": "aph", "1628": "erp", "1629": "lack", "1630": "mess", "1631": "pper", "1632": "phon", "1633": "³»", "1634": "µè", "1635": "½±", "1636": "å±", "1637": "åĪ°", "1638": "æ¨", "1639": "ģ¯", "1640": "ĸæ", "1641": "Ńĸ", "1642": "Devel", "1643": "Econ", "1644": "Econo", "1645": "Lin", "1646": "Yes", "1647": "atas", "1648": "away", "1649": "achi", "1650": "ared", "1651": "atase", "1652": "bod", "1653": "buil", "1654": "body", "1655": "cation", "1656": "ccor", "1657": "cod", "1658": "cov", "1659": "ccord", "1660": "cover", "1661": "datas", "1662": "doct", "1663": "datase", "1664": "defini", "1665": "digi", "1666": "doctor", "1667": "ecor", "1668": "efu", "1669": "epl", "1670": "etect", "1671": "emo", "1672": "ethi", "1673": "focu", "1674": "focus", "1675": "gth", "1676": "icl", "1677": "ied", "1678": "ittl", "1679": "joy", "1680": "lect", "1681": "laun", "1682": "mix", "1683": "mys", "1684": "networ", "1685": "nev", "1686": "network", "1687": "next", "1688": "ocal", "1689": "oom", "1690": "olis", "1691": "ptim", "1692": "post", "1693": "put", "1694": "rol", "1695": "reason", "1696": "regu", "1697": "scr", "1698": "seas", "1699": "season", "1700": "side", "1701": "size", "1702": "tail", "1703": "trin", "1704": "strin", "1705": "string", "1706": "takin", "1707": "teasp", "1708": "travel", "1709": "uck", "1710": "upon", "1711": "ways", "1712": "yog", "1713": "yon", "1714": "¤Ħ", "1715": "¨é", "1716": "´»", "1717": "¶é", "1718": "åķ", "1719": "æĽ", "1720": "çł", "1721": "è®¾", "1722": "éģ", "1723": "Įĸ", "1724": "EO", "1725": "Sch", "1726": "color", "1727": "oli", "1728": "sof", "1729": "tos", "1730": "yth", "1731": "£Ł", "1732": "«ĺ", "1733": "¯ä»", "1734": "åĪĨ", "1735": "æł¹", "1736": "ç¼", "1737": "çĸ", "1738": "éª", "1739": "Ńè", "1740": "'m", "1741": "13", "1742": "199", "1743": "Can", "1744": "Chan", "1745": "Chin", "1746": "Fur", "1747": "Incr", "1748": "ML", "1749": "Sel", "1750": "atis", "1751": "abas", "1752": "abol", "1753": "alon", "1754": "auth", "1755": "avor", "1756": "bird", "1757": "cir", "1758": "circ", "1759": "cred", "1760": "decr", "1761": "dem", "1762": "detect", "1763": "decre", "1764": "ecial", "1765": "ecl", "1766": "ehav", "1767": "ehavi", "1768": "enh", "1769": "enj", "1770": "equa", "1771": "feed", "1772": "fash", "1773": "gain", "1774": "give", "1775": "goals", "1776": "heart", "1777": "ick", "1778": "ics", "1779": "ifu", "1780": "iou", "1781": "iber", "1782": "ique", "1783": "jou", "1784": "jour", "1785": "ked", "1786": "lett", "1787": "love", "1788": "mig", "1789": "mou", "1790": "niqu", "1791": "never", "1792": "nique", "1793": "nony", "1794": "oad", "1795": "otiv", "1796": "obo", "1797": "ony", "1798": "options", "1799": "ores", "1800": "orth", "1801": "otiva", "1802": "pecial", "1803": "plas", "1804": "posi", "1805": "ptimi", "1806": "ream", "1807": "remov", "1808": "sev", "1809": "speak", "1810": "special", "1811": "stain", "1812": "stil", "1813": "self", "1814": "still", "1815": "tock", "1816": "stock", "1817": "tod", "1818": "train", "1819": "times", "1820": "toda", "1821": "uniqu", "1822": "ustain", "1823": "sustain", "1824": "ux", "1825": "unique", "1826": "weath", "1827": "weathe", "1828": "ynon", "1829": "synon", "1830": "synony", "1831": "±æŃ", "1832": "»é", "1833": "âĢĿ", "1834": "åĢ", "1835": "åı¥", "1836": "æĬ±", "1837": "æŃī", "1838": "çĭ", "1839": "èĬ", "1840": "éĽ", "1841": "ĠĠĠĠ", "1842": "İĴ", "1843": "Ķä¸", "1844": "ļçļ", "1845": "Dis", "1846": "Nor", "1847": "Onc", "1848": "Tech", "1849": "Techn", "1850": "Use", "1851": "anu", "1852": "ategor", "1853": "fel", "1854": "icial", "1855": "tten", "1856": "´ł", "1857": "å»º", "1858": "å¥½", "1859": "æ£", "1860": "çŁ", "1861": "Ŀ¡", "1862": "14", "1863": "Bas", "1864": "CNN", "1865": "Chr", "1866": "HT", "1867": "Smar", "1868": "Thes", "1869": "aim", "1870": "acro", "1871": "auc", "1872": "bak", "1873": "bar", "1874": "books", "1875": "bowl", "1876": "cli", "1877": "clou", "1878": "docu", "1879": "door", "1880": "debt", "1881": "disp", "1882": "docum", "1883": "eem", "1884": "epor", "1885": "etail", "1886": "ecord", "1887": "efficienc", "1888": "eport", "1889": "eval", "1890": "fal", "1891": "fav", "1892": "fes", "1893": "famou", "1894": "feelin", "1895": "forg", "1896": "gas", "1897": "goin", "1898": "gov", "1899": "grav", "1900": "going", "1901": "gover", "1902": "hicl", "1903": "ehicl", "1904": "hone", "1905": "iag", "1906": "diag", "1907": "ices", "1908": "inin", "1909": "ioni", "1910": "leav", "1911": "litt", "1912": "letter", "1913": "likel", "1914": "lived", "1915": "lives", "1916": "logo", "1917": "motiv", "1918": "meanin", "1919": "moder", "1920": "motiva", "1921": "moun", "1922": "neg", "1923": "oppin", "1924": "oppor", "1925": "optim", "1926": "opping", "1927": "opport", "1928": "optimi", "1929": "pay", "1930": "pel", "1931": "pics", "1932": "opics", "1933": "pho", "1934": "quer", "1935": "ract", "1936": "recor", "1937": "rid", "1938": "rob", "1939": "record", "1940": "slow", "1941": "spen", "1942": "sides", "1943": "smoothi", "1944": "soft", "1945": "teach", "1946": "topics", "1947": "ths", "1948": "tili", "1949": "town", "1950": "uppor", "1951": "suppor", "1952": "support", "1953": "utt", "1954": "vehicl", "1955": "watch", "1956": "wav", "1957": "wis", "1958": "won", "1959": "wall", "1960": "wide", "1961": "ypes", "1962": "yogu", "1963": "¤º", "1964": "¯çļ", "1965": "½¢", "1966": "âĢĺ", "1967": "å¾Ī", "1968": "è¶", "1969": "éļ", "1970": "ī²", "1971": "ķĨ", "1972": "łä¸", "1973": "Appl", "1974": "Diese", "1975": "His", "1976": "Ju", "1977": "Mark", "1978": "Our", "1979": "Sar", "1980": "Wor", "1981": "erw", "1982": "¨çļ", "1983": "°é", "1984": "¸è", "1985": "»½", "1986": "âĢ¢", "1987": "å¦Ĥ", "1988": "å¥¹", "1989": "å®ļ", "1990": "æŁ", "1991": "æıĲ", "1992": "æľº", "1993": "Ģģ", "1994": "ģé", "1995": "Ħı", "1996": "Ĺħ", "1997": "18", "1998": "Ben", "1999": "Cana", "2000": "Cash", "2001": "Char", "2002": "Come", "2003": "Cub", "2004": "Glob", "2005": "Global", "2006": "Hig", "2007": "High", "2008": "Howe", "2009": "If", "2010": "Mona", "2011": "Ob", "2012": "SEO", "2013": "Sara", "2014": "Tw", "2015": "Then", "2016": "apid", "2017": "agen", "2018": "atisf", "2019": "blog", "2020": "bor", "2021": "butt", "2022": "build", "2023": "ccom", "2024": "accom", "2025": "ced", "2026": "cid", "2027": "cil", "2028": "acil", "2029": "came", "2030": "code", "2031": "cut", "2032": "dam", "2033": "death", "2034": "dog", "2035": "dream", "2036": "dama", "2037": "driver", "2038": "eiv", "2039": "ceiv", "2040": "eceiv", "2041": "ez", "2042": "eful", "2043": "exer", "2044": "exis", "2045": "fail", "2046": "flect", "2047": "eflect", "2048": "fram", "2049": "feedb", "2050": "fill", "2051": "goods", "2052": "group", "2053": "hal", "2054": "hoppin", "2055": "havin", "2056": "hopping", "2057": "hour", "2058": "icti", "2059": "ilan", "2060": "lab", "2061": "lib", "2062": "ltim", "2063": "leader", "2064": "liber", "2065": "littl", "2066": "meal", "2067": "moon", "2068": "migh", "2069": "ned", "2070": "ogr", "2071": "omor", "2072": "ones", "2073": "ork", "2074": "pain", "2075": "park", "2076": "plu", "2077": "rapid", "2078": "receiv", "2079": "reflect", "2080": "road", "2081": "robo", "2082": "satis", "2083": "sau", "2084": "sett", "2085": "shoppin", "2086": "sil", "2087": "satisf", "2088": "sauc", "2089": "scient", "2090": "sever", "2091": "shopping", "2092": "solar", "2093": "spend", "2094": "sustaina", "2095": "swi", "2096": "types", "2097": "thu", "2098": "timel", "2099": "urin", "2100": "uring", "2101": "whe", "2102": "wond", "2103": "¤ç", "2104": "§ģ", "2105": "¿Ŀ", "2106": "å¢", "2107": "æŀľ", "2108": "éħ", "2109": "éľ", "2110": "Ģł", "2111": "ĬĤ", "2112": "ĭ¬", "2113": "ı£", "2114": "Ĳ¥", "2115": "Łçļ", "2116": "And", "2117": "Categ", "2118": "Categor", "2119": "Hu", "2120": "HTML", "2121": "Ind", "2122": "Pan", "2123": "Schr", "2124": "Ver", "2125": "Viel", "2126": "ale", "2127": "ker", "2128": "yg", "2129": "¤ä¸", "2130": "¨Ģ", "2131": "¬¡", "2132": "®¹", "2133": "°±", "2134": "¾ĭ", "2135": "ä»ĸ", "2136": "ä½ľ", "2137": "åī", "2138": "åĸ", "2139": "çĦ", "2140": "è¨", "2141": "èĻ", "2142": "Ĩä¸", "2143": "Ĭł", "2144": "Ĳ½", "2145": "Ĳé", "2146": "ķ¥", "2147": "Ľé", "2148": "ŀĲ", "2149": "ł¼", "2150": "Att", "2151": "Aut", "2152": "Ban", "2153": "Beg", "2154": "Begin", "2155": "Car", "2156": "Ear", "2157": "Earth", "2158": "Eng", "2159": "Exam", "2160": "GP", "2161": "Impr", "2162": "Linu", "2163": "Oh", "2164": "Pu", "2165": "Ren", "2166": "Ris", "2167": "Riv", "2168": "Ru", "2169": "Scr", "2170": "Ser", "2171": "Serv", "2172": "TC", "2173": "Tha", "2174": "Vielen", "2175": "accor", "2176": "acial", "2177": "accomp", "2178": "accord", "2179": "ahr", "2180": "alm", "2181": "alw", "2182": "ampl", "2183": "arin", "2184": "aris", "2185": "atten", "2186": "cak", "2187": "cake", "2188": "card", "2189": "cars", "2190": "clo", "2191": "comf", "2192": "decl", "2193": "deg", "2194": "detail", "2195": "did", "2196": "durin", "2197": "dark", "2198": "degr", "2199": "divid", "2200": "driven", "2201": "drivin", "2202": "during", "2203": "ecid", "2204": "decid", "2205": "ecy", "2206": "eein", "2207": "epen", "2208": "depen", "2209": "depend", "2210": "eadl", "2211": "ecycl", "2212": "eeing", "2213": "enl", "2214": "far", "2215": "felt", "2216": "gir", "2217": "grad", "2218": "girl", "2219": "gravi", "2220": "growin", "2221": "hab", "2222": "heig", "2223": "heigh", "2224": "iox", "2225": "diox", "2226": "dioxid", "2227": "idd", "2228": "items", "2229": "ivo", "2230": "local", "2231": "lock", "2232": "livin", "2233": "logi", "2234": "loss", "2235": "math", "2236": "maxim", "2237": "neu", "2238": "named", "2239": "nega", "2240": "otion", "2241": "ott", "2242": "oodl", "2243": "opene", "2244": "orq", "2245": "owed", "2246": "pear", "2247": "ppear", "2248": "ppen", "2249": "appen", "2250": "happen", "2251": "ppy", "2252": "appy", "2253": "pell", "2254": "powd", "2255": "recy", "2256": "repor", "2257": "reached", "2258": "recycl", "2259": "report", "2260": "river", "2261": "roll", "2262": "rown", "2263": "sect", "2264": "seem", "2265": "spor", "2266": "savin", "2267": "sele", "2268": "sens", "2269": "soun", "2270": "sport", "2271": "swe", "2272": "tnam", "2273": "etnam", "2274": "ietnam", "2275": "Vietnam", "2276": "tpu", "2277": "takes", "2278": "teacher", "2279": "tools", "2280": "uid", "2281": "weak", "2282": "youn", "2283": "zes", "2284": "¡¹", "2285": "¡ä¸", "2286": "°ĳ", "2287": "¾åĩ", "2288": "¾åĪ", "2289": "ãĢ", "2290": "æ¡", "2291": "æº", "2292": "çĬ", "2293": "ç»ı", "2294": "èĭ", "2295": "ĢĤ", "2296": "īä¸", "2297": "ļé", "2298": "Buil", "2299": "Cou", "2300": "Gib", "2301": "GPT", "2302": "Mis", "2303": "Reg", "2304": "Rese", "2305": "Spr", "2306": "Tu", "2307": "Wen", "2308": "With", "2309": "Wenn", "2310": "aphor", "2311": "birth", "2312": "leg", "2313": "mini", "2314": "oar", "2315": "oos", "2316": "opr", "2317": "oz", "2318": "taph", "2319": "etaph", "2320": "etaphor", "2321": "tz", "2322": "viv", "2323": "¤Ĳ", "2324": "§¯", "2325": "ª¤", "2326": "«Ļ", "2327": "´çļ", "2328": "ºĲ", "2329": "»ç»", "2330": "¼è", "2331": "ãĢĬ", "2332": "ä¸ļ", "2333": "äºĶ", "2334": "å¡", "2335": "åĿ", "2336": "æ¶", "2337": "æĤ¨", "2338": "èĦ", "2339": "è®®", "2340": "é¤", "2341": "Ģ¼", "2342": "ģçļ", "2343": "Ĩä»", "2344": "ĪæĬ", "2345": "Ĭ©", "2346": "ĭ©", "2347": "Į»", "2348": "ĳä¸", "2349": "Ľä¸", "2350": "Łé", "2351": "Bir", "2352": "Bana", "2353": "Cath", "2354": "Cel", "2355": "Cor", "2356": "Em", "2357": "Hav", "2358": "Heal", "2359": "Health", "2360": "Lear", "2361": "Learn", "2362": "Miss", "2363": "North", "2364": "Paras", "2365": "Risk", "2366": "River", "2367": "Star", "2368": "Than", "2369": "Usin", "2370": "Veg", "2371": "Waru", "2372": "Your", "2373": "affor", "2374": "acili", "2375": "afford", "2376": "amb", "2377": "anx", "2378": "apples", "2379": "asin", "2380": "atest", "2381": "behav", "2382": "big", "2383": "bject", "2384": "boy", "2385": "brow", "2386": "bank", "2387": "behavi", "2388": "brown", "2389": "butter", "2390": "cand", "2391": "cann", "2392": "carr", "2393": "cels", "2394": "chor", "2395": "cine", "2396": "cinn", "2397": "clu", "2398": "conu", "2399": "cose", "2400": "dom", "2401": "drag", "2402": "dise", "2403": "dish", "2404": "divis", "2405": "efer", "2406": "effor", "2407": "easy", "2408": "effort", "2409": "eno", "2410": "enr", "2411": "fair", "2412": "fict", "2413": "fis", "2414": "fs", "2415": "favor", "2416": "ficti", "2417": "fold", "2418": "four", "2419": "frame", "2420": "guid", "2421": "givin", "2422": "habi", "2423": "hadow", "2424": "half", "2425": "iar", "2426": "ibil", "2427": "iga", "2428": "inq", "2429": "iqui", "2430": "irr", "2431": "ler", "2432": "liqu", "2433": "lood", "2434": "loor", "2435": "floor", "2436": "leads", "2437": "lever", "2438": "liqui", "2439": "ltima", "2440": "metaph", "2441": "motion", "2442": "makes", "2443": "metaphor", "2444": "mind", "2445": "nack", "2446": "nak", "2447": "nar", "2448": "narr", "2449": "needed", "2450": "oas", "2451": "ocon", "2452": "opin", "2453": "oconu", "2454": "omen", "2455": "omes", "2456": "paint", "2457": "pand", "2458": "rau", "2459": "room", "2460": "reali", "2461": "reflecti", "2462": "roman", "2463": "shad", "2464": "sical", "2465": "snak", "2466": "spel", "2467": "sales", "2468": "scra", "2469": "sell", "2470": "settin", "2471": "shadow", "2472": "spell", "2473": "tates", "2474": "states", "2475": "trade", "2476": "traine", "2477": "ubject", "2478": "ucos", "2479": "lucos", "2480": "glucos", "2481": "glucose", "2482": "ultim", "2483": "util", "2484": "utili", "2485": "vir", "2486": "vehicle", "2487": "www", "2488": "¨äº", "2489": "®ä¸", "2490": "®çļ", "2491": "¸©", "2492": "¹´", "2493": "¹ī", "2494": "ºäº", "2495": "¿µ", "2496": "¿ĥ", "2497": "Ã¤", "2498": "ä»Ģ", "2499": "å¯¹", "2500": "å»ºè®", "2501": "åıĳ", "2502": "åŃ¦", "2503": "æĢ»", "2504": "ç¥", "2505": "ģļ", "2506": "Ĥ²", "2507": "ħį", "2508": "Ĩħ", "2509": "ĬŁ", "2510": "İŁ", "2511": "ĳè", "2512": "Ķé", "2513": "Ĺä¸", "2514": "Ľçļ", "2515": "Apple", "2516": "Del", "2517": "Disc", "2518": "Dur", "2519": "Ger", "2520": "Her", "2521": "Rom", "2522": "Wer", "2523": "Wil", "2524": "arc", "2525": "nth", "2526": "och", "2527": "pose", "2528": "rod", "2529": "ties", "2530": "thd", "2531": "¡è", "2532": "¡Ī", "2533": "¢«", "2534": "©é", "2535": "®å®", "2536": "¯¼", "2537": "³é", "2538": "»ä¸", "2539": "¼Ķ", "2540": "¾è®", "2541": "ä¸İ", "2542": "ä»İ", "2543": "å¦Ĥæŀ", "2544": "åĪ«", "2545": "åĽ½", "2546": "æ¯Ķ", "2547": "æ°´", "2548": "ç¡®", "2549": "ç»ĵ", "2550": "è¿Ľ", "2551": "é¥", "2552": "éĤ", "2553": "éĢī", "2554": "Ģĥ", "2555": "Ģħ", "2556": "ģĮ", "2557": "ĥ¨", "2558": "Īé", "2559": "ī¯", "2560": "Ĭä¸", "2561": "ĭä¸", "2562": "įä¸", "2563": "İé", "2564": "Łä¸", "2565": "łçļ", "2566": "'d", "2567": "35", "2568": "62", "2569": "Alex", "2570": "Ama", "2571": "Basi", "2572": "But", "2573": "Cau", "2574": "Cos", "2575": "Catho", "2576": "Corr", "2577": "Cost", "2578": "Cris", "2579": "Cus", "2580": "DP", "2581": "Defin", "2582": "Eine", "2583": "End", "2584": "Fah", "2585": "Fahr", "2586": "Gal", "2587": "Gar", "2588": "Have", "2589": "Inf", "2590": "Inv", "2591": "Its", "2592": "Jav", "2593": "Java", "2594": "Las", "2595": "Lon", "2596": "Lond", "2597": "Med", "2598": "Min", "2599": "Mou", "2600": "Medi", "2601": "Obj", "2602": "Per", "2603": "Pol", "2604": "Pla", "2605": "Red", "2606": "Rev", "2607": "Rene", "2608": "Sag", "2609": "Sof", "2610": "Sagen", "2611": "Sele", "2612": "Soft", "2613": "Sprin", "2614": "Sus", "2615": "Tex", "2616": "TCP", "2617": "appear", "2618": "aqu", "2619": "abs", "2620": "aga", "2621": "alan", "2622": "appre", "2623": "ares", "2624": "asm", "2625": "axes", "2626": "ayin", "2627": "batt", "2628": "black", "2629": "block", "2630": "boos", "2631": "brav", "2632": "bakin", "2633": "becomin", "2634": "began", "2635": "bina", "2636": "boost", "2637": "brave", "2638": "breakf", "2639": "ccin", "2640": "accin", "2641": "calm", "2642": "cold", "2643": "comin", "2644": "compr", "2645": "dane", "2646": "deaths", "2647": "deba", "2648": "decided", "2649": "define", "2650": "deman", "2651": "diagr", "2652": "diver", "2653": "domes", "2654": "dragon", "2655": "drive", "2656": "eech", "2657": "eph", "2658": "epin", "2659": "epper", "2660": "egg", "2661": "enes", "2662": "equal", "2663": "erh", "2664": "eum", "2665": "eyes", "2666": "facial", "2667": "facil", "2668": "fos", "2669": "facili", "2670": "fall", "2671": "fire", "2672": "foods", "2673": "forw", "2674": "gear", "2675": "gel", "2676": "gf", "2677": "gol", "2678": "games", "2679": "gold", "2680": "greenh", "2681": "groun", "2682": "happy", "2683": "hell", "2684": "iced", "2685": "iev", "2686": "ilar", "2687": "imb", "2688": "imen", "2689": "inm", "2690": "isc", "2691": "itchen", "2692": "jud", "2693": "jui", "2694": "lem", "2695": "loom", "2696": "loy", "2697": "laug", "2698": "leaves", "2699": "loyal", "2700": "mir", "2701": "mom", "2702": "maint", "2703": "means", "2704": "momen", "2705": "ndan", "2706": "niv", "2707": "nod", "2708": "nood", "2709": "nou", "2710": "ndane", "2711": "nexp", "2712": "niver", "2713": "noodl", "2714": "oan", "2715": "loan", "2716": "ocation", "2717": "occu", "2718": "opy", "2719": "copy", "2720": "copyrig", "2721": "otes", "2722": "oard", "2723": "oast", "2724": "ogg", "2725": "onin", "2726": "opini", "2727": "orin", "2728": "pab", "2729": "apab", "2730": "capab", "2731": "path", "2732": "peech", "2733": "peer", "2734": "pil", "2735": "piv", "2736": "pped", "2737": "ppos", "2738": "ptain", "2739": "aptain", "2740": "paym", "2741": "perv", "2742": "pivo", "2743": "pron", "2744": "qOb", "2745": "eqOb", "2746": "eqObj", "2747": "raph", "2748": "graph", "2749": "rated", "2750": "ration", "2751": "rect", "2752": "refer", "2753": "repl", "2754": "reqOb", "2755": "freqOb", "2756": "freqObj", "2757": "rich", "2758": "riev", "2759": "ril", "2760": "rviv", "2761": "racti", "2762": "rains", "2763": "reachin", "2764": "reall", "2765": "receive", "2766": "regar", "2767": "regr", "2768": "remin", "2769": "ride", "2770": "roug", "2771": "sag", "2772": "said", "2773": "scen", "2774": "seen", "2775": "seu", "2776": "shav", "2777": "snack", "2778": "subject", "2779": "sage", "2780": "scala", "2781": "seum", "2782": "simil", "2783": "speakin", "2784": "strategy", "2785": "tB", "2786": "tation", "2787": "tax", "2788": "tig", "2789": "tol", "2790": "took", "2791": "tou", "2792": "triev", "2793": "etriev", "2794": "trackin", "2795": "ucl", "2796": "nucl", "2797": "nucle", "2798": "ules", "2799": "rules", "2800": "undan", "2801": "mundan", "2802": "mundane", "2803": "unex", "2804": "univ", "2805": "urviv", "2806": "surviv", "2807": "usag", "2808": "useu", "2809": "usical", "2810": "musical", "2811": "unexp", "2812": "univer", "2813": "usage", "2814": "useum", "2815": "weig", "2816": "wood", "2817": "weigh", "2818": "whis", "2819": "widel", "2820": "wild", "2821": "yer", "2822": "ying", "2823": "zed", "2824": "¡é", "2825": "¯é", "2826": "°ä¸", "2827": "²æ", "2828": "º«", "2829": "¼ł", "2830": "¾Ĺ", "2831": "å¤©", "2832": "æļ", "2833": "æķ°", "2834": "æľ¬", "2835": "ç¼ĸ", "2836": "è¦ģ", "2837": "è¾ĥ", "2838": "ģĵ", "2839": "ħé", "2840": "ĩé", "2841": "ĩĮ", "2842": "Īĸ", "2843": "īį", "2844": "Ĭ¶", "2845": "įé", "2846": "İä¸", "2847": "İåĽ", "2848": "İè", "2849": "Ĳçļ", "2850": "Ĵè", "2851": "Ķè¾", "2852": "ķĮ", "2853": "ĸ»", "2854": "Ĺçļ", "2855": "Ŀå", "2856": "ŃĮ", "2857": "Ab", "2858": "Ang", "2859": "Jul", "2860": "LP", "2861": "Man", "2862": "Noin", "2863": "Noinp", "2864": "Prod", "2865": "Rock", "2866": "Tak", "2867": "Tel", "2868": "Twitt", "2869": "eact", "2870": "ebo", "2871": "elon", "2872": "eze", "2873": "imal", "2874": "itter", "2875": "opos", "2876": "opose", "2877": "pus", "2878": "rog", "2879": "ropos", "2880": "Propos", "2881": "Propose", "2882": "rove", "2883": "¢ŀ", "2884": "¦ä¸", "2885": "¦é", "2886": "§Ĥ", "2887": "«ĭ", "2888": "¬çļ", "2889": "®°", "2890": "°ä»", "2891": "³äº", "2892": "´§", "2893": "µİ", "2894": "·è", "2895": "¸é", "2896": "¹¦", "2897": "¹¿", "2898": "¹ä¸", "2899": "»Ĩ", "2900": "¼ĺ", "2901": "¿çĶ", "2902": "ä¸ĸ", "2903": "ä½¿", "2904": "ä½ķ", "2905": "å§", "2906": "æľĢ", "2907": "ç¾İ", "2908": "èį", "2909": "é©", "2910": "ĭçļ", "2911": "Ĳ«", "2912": "ĸé", "2913": "ĺ³", "2914": "Ļçļ", "2915": "Ļļ", "2916": "łè", "2917": "101", "2918": "16", "2919": "198", "2920": "23", "2921": "43", "2922": "500", "2923": "ANN", "2924": "AP", "2925": "Accor", "2926": "Ag", "2927": "ANNs", "2928": "Absol", "2929": "Accord", "2930": "Age", "2931": "All", "2932": "Alt", "2933": "Atten", "2934": "Behav", "2935": "By", "2936": "Base", "2937": "Behavi", "2938": "Bene", "2939": "Bird", "2940": "Bus", "2941": "Col", "2942": "Cov", "2943": "Care", "2944": "Caus", "2945": "Comm", "2946": "Cont", "2947": "Coun", "2948": "Cum", "2949": "Cur", "2950": "Cut", "2951": "Driv", "2952": "Eg", "2953": "Eu", "2954": "Eins", "2955": "Eur", "2956": "Exer", "2957": "Ext", "2958": "Fas", "2959": "Fir", "2960": "Flig", "2961": "Fligh", "2962": "Gali", "2963": "II", "2964": "Imp", "2965": "Inc", "2966": "Ing", "2967": "Ital", "2968": "Los", "2969": "Max", "2970": "May", "2971": "Men", "2972": "Mart", "2973": "Moun", "2974": "NLP", "2975": "Nation", "2976": "Nein", "2977": "Nev", "2978": "Onion", "2979": "Onl", "2980": "Pon", "2981": "Pos", "2982": "Poli", "2983": "Ponz", "2984": "Qu", "2985": "RF", "2986": "Reach", "2987": "Rem", "2988": "Row", "2989": "Regu", "2990": "Remov", "2991": "Sen", "2992": "Sou", "2993": "Self", "2994": "Smith", "2995": "South", "2996": "Stu", "2997": "TP", "2998": "Text", "2999": "UDP", "3000": "Ur", "3001": "Und", "3002": "Vaccin", "3003": "Wou", "3004": "Which", "3005": "Worl", "3006": "Woul", "3007": "aS", "3008": "affect", "3009": "aik", "3010": "aps", "3011": "ado", "3012": "aiku", "3013": "aina", "3014": "alp", "3015": "amon", "3016": "appears", "3017": "apple", "3018": "asan", "3019": "bad", "3020": "bloom", "3021": "boar", "3022": "banan", "3023": "batter", "3024": "board", "3025": "captain", "3026": "cated", "3027": "ceb", "3028": "aceb", "3029": "Faceb", "3030": "Facebo", "3031": "cefu", "3032": "acefu", "3033": "aceful", "3034": "cocon", "3035": "cof", "3036": "cool", "3037": "capabil", "3038": "carn", "3039": "cash", "3040": "coconu", "3041": "coff", "3042": "colu", "3043": "coni", "3044": "core", "3045": "cosy", "3046": "cru", "3047": "ctin", "3048": "ctor", "3049": "dim", "3050": "dou", "3051": "drain", "3052": "drated", "3053": "drov", "3054": "debu", "3055": "declar", "3056": "demon", "3057": "diagn", "3058": "dogs", "3059": "doub", "3060": "drove", "3061": "eCom", "3062": "eag", "3063": "eated", "3064": "ecos", "3065": "eepin", "3066": "eeth", "3067": "eez", "3068": "eog", "3069": "epar", "3070": "epu", "3071": "etch", "3072": "eComm", "3073": "earl", "3074": "east", "3075": "ecosy", "3076": "eena", "3077": "eeping", "3078": "eeze", "3079": "efores", "3080": "eform", "3081": "eles", "3082": "eogr", "3083": "equen", "3084": "eran", "3085": "eye", "3086": "fan", "3087": "fein", "3088": "ffein", "3089": "affein", "3090": "fon", "3091": "frau", "3092": "film", "3093": "foss", "3094": "fraud", "3095": "fuel", "3096": "geog", "3097": "geogr", "3098": "gives", "3099": "globe", "3100": "graphi", "3101": "haik", "3102": "hair", "3103": "hid", "3104": "haiku", "3105": "hidd", "3106": "iol", "3107": "ips", "3108": "itis", "3109": "iant", "3110": "imou", "3111": "ises", "3112": "itish", "3113": "jobs", "3114": "jum", "3115": "knig", "3116": "kilo", "3117": "knigh", "3118": "lcm", "3119": "lices", "3120": "lor", "3121": "luck", "3122": "label", "3123": "leave", "3124": "lori", "3125": "lost", "3126": "loved", "3127": "mid", "3128": "mph", "3129": "museu", "3130": "mathe", "3131": "memor", "3132": "mixt", "3133": "museum", "3134": "nem", "3135": "nor", "3136": "nos", "3137": "neut", "3138": "noun", "3139": "ocated", "3140": "located", "3141": "oces", "3142": "ois", "3143": "ocaly", "3144": "occur", "3145": "ocess", "3146": "olf", "3147": "onth", "3148": "oro", "3149": "osis", "3150": "otest", "3151": "ovin", "3152": "oxy", "3153": "pact", "3154": "pal", "3155": "pf", "3156": "pocal", "3157": "apocal", "3158": "apocaly", "3159": "poor", "3160": "pov", "3161": "perc", "3162": "perm", "3163": "phil", "3164": "pover", "3165": "pposed", "3166": "pyram", "3167": "quan", "3168": "refor", "3169": "retch", "3170": "ritis", "3171": "Britis", "3172": "British", "3173": "roces", "3174": "Proces", "3175": "Process", "3176": "rok", "3177": "rotes", "3178": "Protes", "3179": "Protest", "3180": "ramid", "3181": "rapidl", "3182": "rease", "3183": "rectan", "3184": "reform", "3185": "rely", "3186": "rema", "3187": "reme", "3188": "rill", "3189": "role", "3190": "sad", "3191": "say", "3192": "seein", "3193": "sequ", "3194": "sites", "3195": "slices", "3196": "soon", "3197": "speech", "3198": "spl", "3199": "stim", "3200": "save", "3201": "saves", "3202": "scale", "3203": "sector", "3204": "seeing", "3205": "sequen", "3206": "showed", "3207": "silen", "3208": "slowl", "3209": "snacks", "3210": "soli", "3211": "spli", "3212": "sprin", "3213": "stimu", "3214": "strategi", "3215": "survive", "3216": "tag", "3217": "td", "3218": "teak", "3219": "steak", "3220": "teeth", "3221": "ticed", "3222": "oticed", "3223": "noticed", "3224": "tips", "3225": "toy", "3226": "tretch", "3227": "stretch", "3228": "unch", "3229": "uppos", "3230": "suppos", "3231": "ultima", "3232": "vegan", "3233": "wol", "3234": "wom", "3235": "watchin", "3236": "waves", "3237": "withi", "3238": "wron", "3239": "ydrated", "3240": "hydrated", "3241": "yel", "3242": "yper", "3243": "yell", "3244": "zom", "3245": "zomb", "3246": "¢é", "3247": "¢Ĩ", "3248": "¤Ł", "3249": "©ä¸", "3250": "¯ı", "3251": "±äº", "3252": "´é", "3253": "µæ", "3254": "·é", "3255": "ºçļ", "3256": "ºĹ", "3257": "¿é", "3258": "¿ĳ", "3259": "¿Ĺ", "3260": "Â°", "3261": "ä½ĵ", "3262": "å¤§", "3263": "å¼Ģ", "3264": "åĪĻ", "3265": "æŃ£", "3266": "ç¿", "3267": "çģ", "3268": "çĪ", "3269": "çı", "3270": "çĶ±", "3271": "è£", "3272": "è¯´", "3273": "è¯ķ", "3274": "è¿Ĳ", "3275": "Ģæľ", "3276": "Ħĳ", "3277": "ħ¶", "3278": "ĨåĪ", "3279": "Ĩé", "3280": "Ĩį", "3281": "Į«", "3282": "Įä¸", "3283": "İħ", "3284": "ıä¸", "3285": "Ķ®", "3286": "ķé", "3287": "Ļæĺ", "3288": "łģ", "3289": "65", "3290": "Adv", "3291": "Alb", "3292": "Ant", "3293": "Ass", "3294": "Auf", "3295": "CS", "3296": "Cho", "3297": "Day", "3298": "Differ", "3299": "Differe", "3300": "From", "3301": "Green", "3302": "Gend", "3303": "Hey", "3304": "Mein", "3305": "Ment", "3306": "Pyth", "3307": "Plan", "3308": "Product", "3309": "Pytho", "3310": "Rome", "3311": "Sal", "3312": "Spl", "3313": "Shar", "3314": "Spli", "3315": "Tol", "3316": "Uns", "3317": "Verb", "3318": "Will", "3319": "eatt", "3320": "Seatt", "3321": "Seattl", "3322": "eid", "3323": "Leid", "3324": "Leider", "3325": "ebr", "3326": "emi", "3327": "eni", "3328": "ken", "3329": "ray", "3330": "¢ä¸", "3331": "¢ĥ", "3332": "¤æ", "3333": "§°", "3334": "§»", "3335": "¨ä»", "3336": "¨è®", "3337": "©çļ", "3338": "©è", "3339": "®ī", "3340": "¯¯", "3341": "°äº", "3342": "±çļ", "3343": "±Ģ", "3344": "±ķ", "3345": "·±", "3346": "ÃŁ", "3347": "äºĭ", "3348": "ä»£", "3349": "ä»¬", "3350": "åħ³", "3351": "åħ´", "3352": "æĲ", "3353": "æĸ¯", "3354": "æĺİ", "3355": "æľ¯", "3356": "ç¦", "3357": "çĶµ", "3358": "è·", "3359": "èİ", "3360": "è¯Ĩ", "3361": "é¢Ħ", "3362": "ģĶ", "3363": "ĥä¸", "3364": "Ĩç»", "3365": "ĩ´", "3366": "Ī±", "3367": "Īĺ", "3368": "īé", "3369": "İĨ", "3370": "ĲĹ", "3371": "ĳä»", "3372": "ĵé", "3373": "Ķ»", "3374": "Ķ¿", "3375": "ķä¸", "3376": "ķĪ", "3377": "Ĺç»", "3378": "Ļåı", "3379": "ļ¾", "3380": "Ŀ£", "3381": "ĿĤ", "3382": "ŀé", "3383": "łĳ", "3384": "'v", "3385": "'ve", "3386": "04", "3387": "05", "3388": "07", "3389": "140", "3390": "41", "3391": "45", "3392": "67", "3393": "AM", "3394": "ATP", "3395": "Acm", "3396": "Aim", "3397": "Apr", "3398": "Acme", "3399": "Alg", "3400": "Alth", "3401": "Apri", "3402": "Arr", "3403": "Bar", "3404": "Break", "3405": "Cam", "3406": "Cin", "3407": "Cog", "3408": "Cook", "3409": "CSS", "3410": "Cali", "3411": "Cases", "3412": "Cels", "3413": "Chal", "3414": "Cind", "3415": "Clim", "3416": "Cogg", "3417": "Cra", "3418": "Crim", "3419": "Dan", "3420": "Decl", "3421": "Declar", "3422": "Define", "3423": "Dell", "3424": "Desp", "3425": "Disp", "3426": "Elect", "3427": "Edu", "3428": "Empl", "3429": "Enj", "3430": "Ent", "3431": "Exc", "3432": "Exp", "3433": "Fiv", "3434": "Flor", "3435": "Flow", "3436": "FÃ¼", "3437": "Firs", "3438": "Five", "3439": "Flori", "3440": "Form", "3441": "Geb", "3442": "Gard", "3443": "Germ", "3444": "Har", "3445": "Hood", "3446": "Harr", "3447": "IP", "3448": "IS", "3449": "Irel", "3450": "Imag", "3451": "Irelan", "3452": "Ken", "3453": "Kil", "3454": "Kill", "3455": "Lim", "3456": "Litt", "3457": "Lass", "3458": "Limou", "3459": "Link", "3460": "Littl", "3461": "Mal", "3462": "Mer", "3463": "Mid", "3464": "Mob", "3465": "Mock", "3466": "Mari", "3467": "Mars", "3468": "Maxwel", "3469": "Midw", "3470": "Mind", "3471": "Mockin", "3472": "Moni", "3473": "Nach", "3474": "Nim", "3475": "Nimb", "3476": "Oa", "3477": "Occu", "3478": "Oth", "3479": "Oat", "3480": "Occup", "3481": "Othe", "3482": "Pott", "3483": "Prom", "3484": "Para", "3485": "Potter", "3486": "Promo", "3487": "Ras", "3488": "Rates", "3489": "Rear", "3490": "Rel", "3491": "Rid", "3492": "Ros", "3493": "Roth", "3494": "Rearr", "3495": "Rever", "3496": "Ridin", "3497": "Rowl", "3498": "Sin", "3499": "Sol", "3500": "Som", "3501": "Sor", "3502": "Sov", "3503": "Span", "3504": "Spor", "3505": "Swal", "3506": "Send", "3507": "Some", "3508": "Sovi", "3509": "Spani", "3510": "Sport", "3511": "Stir", "3512": "Sun", "3513": "Sup", "3514": "Swall", "3515": "Taqu", "3516": "Tas", "3517": "Tod", "3518": "Tou", "3519": "Trees", "3520": "Taquer", "3521": "Tele", "3522": "Thin", "3523": "Toda", "3524": "Tour", "3525": "Tur", "3526": "Two", "3527": "Util", "3528": "Unf", "3529": "Union", "3530": "Utili", "3531": "Ven", "3532": "Vir", "3533": "Vaccine", "3534": "Vegan", "3535": "Vege", "3536": "Wal", "3537": "Who", "3538": "Work", "3539": "YouT", "3540": "acis", "3541": "acu", "3542": "ais", "3543": "aor", "3544": "aper", "3545": "abov", "3546": "abr", "3547": "abu", "3548": "acism", "3549": "acts", "3550": "adj", "3551": "affeine", "3552": "agin", "3553": "alr", "3554": "alv", "3555": "asa", "3556": "asc", "3557": "avig", "3558": "avo", "3559": "bean", "3560": "blood", "3561": "bread", "3562": "brok", "3563": "backed", "3564": "baker", "3565": "bark", "3566": "bears", "3567": "bigg", "3568": "blockch", "3569": "blogg", "3570": "bond", "3571": "broken", "3572": "built", "3573": "cad", "3574": "caffein", "3575": "catch", "3576": "cim", "3577": "ciou", "3578": "coal", "3579": "coas", "3580": "caffeine", "3581": "case", "3582": "cast", "3583": "ches", "3584": "cimal", "3585": "cious", "3586": "cla", "3587": "clov", "3588": "coast", "3589": "cogg", "3590": "cooked", "3591": "cookin", "3592": "coron", "3593": "cras", "3594": "cris", "3595": "dI", "3596": "depr", "3597": "dial", "3598": "dies", "3599": "doin", "3600": "dram", "3601": "dang", "3602": "days", "3603": "declin", "3604": "dedi", "3605": "depres", "3606": "details", "3607": "dialo", "3608": "diges", "3609": "dimen", "3610": "disr", "3611": "doing", "3612": "drama", "3613": "eacefu", "3614": "eates", "3615": "ecam", "3616": "becam", "3617": "became", "3618": "ecim", "3619": "decim", "3620": "decimal", "3621": "eck", "3622": "eper", "3623": "epped", "3624": "etes", "3625": "eties", "3626": "eaceful", "3627": "eacti", "3628": "ealin", "3629": "earth", "3630": "eatest", "3631": "ecru", "3632": "emal", "3633": "enth", "3634": "ephan", "3635": "etrieval", "3636": "eus", "3637": "exh", "3638": "exi", "3639": "fau", "3640": "fear", "3641": "fem", "3642": "fix", "3643": "flig", "3644": "flood", "3645": "fract", "3646": "frag", "3647": "frequ", "3648": "fth", "3649": "facts", "3650": "failin", "3651": "femal", "3652": "figh", "3653": "files", "3654": "firm", "3655": "fish", "3656": "fligh", "3657": "flower", "3658": "font", "3659": "fracti", "3660": "frequen", "3661": "gb", "3662": "gd", "3663": "ged", "3664": "gases", "3665": "gradu", "3666": "guidan", "3667": "guide", "3668": "heav", "3669": "hex", "3670": "htt", "3671": "hyper", "3672": "hexa", "3673": "http", "3674": "icon", "3675": "icr", "3676": "ieties", "3677": "cieties", "3678": "ifth", "3679": "fifth", "3680": "iom", "3681": "ipes", "3682": "ipid", "3683": "ippin", "3684": "itig", "3685": "iconi", "3686": "icro", "3687": "ids", "3688": "inj", "3689": "ipping", "3690": "ired", "3691": "isis", "3692": "isl", "3693": "iso", "3694": "itiga", "3695": "itty", "3696": "jes", "3697": "join", "3698": "jest", "3699": "kid", "3700": "kitch", "3701": "kids", "3702": "kitchen", "3703": "leph", "3704": "Eleph", "3705": "Elephan", "3706": "lipid", "3707": "location", "3708": "live", "3709": "looked", "3710": "lovin", "3711": "lowes", "3712": "mam", "3713": "match", "3714": "mood", "3715": "mamm", "3716": "modi", "3717": "nal", "3718": "nation", "3719": "nav", "3720": "nfor", "3721": "nknow", "3722": "nlig", "3723": "nstruct", "3724": "navig", "3725": "nempl", "3726": "neur", "3727": "nknown", "3728": "nligh", "3729": "nodes", "3730": "nstructu", "3731": "ocieties", "3732": "oid", "3733": "ops", "3734": "otation", "3735": "obb", "3736": "odd", "3737": "onc", "3738": "oses", "3739": "osh", "3740": "osp", "3741": "oval", "3742": "ower", "3743": "ozen", "3744": "paper", "3745": "pb", "3746": "pd", "3747": "peacefu", "3748": "pean", "3749": "peated", "3750": "epeated", "3751": "pepper", "3752": "pict", "3753": "epict", "3754": "depict", "3755": "pk", "3756": "pou", "3757": "pps", "3758": "apps", "3759": "pth", "3760": "epth", "3761": "depth", "3762": "depths", "3763": "paren", "3764": "pda", "3765": "peaceful", "3766": "peers", "3767": "perp", "3768": "pply", "3769": "pris", "3770": "quo", "3771": "racis", "3772": "rates", "3773": "react", "3774": "reates", "3775": "greates", "3776": "greatest", "3777": "recr", "3778": "reez", "3779": "breez", "3780": "breeze", "3781": "refin", "3782": "repeated", "3783": "retriev", "3784": "reu", "3785": "roz", "3786": "rrou", "3787": "racism", "3788": "reacti", "3789": "reader", "3790": "readin", "3791": "received", "3792": "recru", "3793": "region", "3794": "repla", "3795": "repro", "3796": "reve", "3797": "rink", "3798": "rout", "3799": "rroun", "3800": "sab", "3801": "sacr", "3802": "scan", "3803": "scor", "3804": "seal", "3805": "sefu", "3806": "shel", "3807": "societies", "3808": "sadn", "3809": "scena", "3810": "score", "3811": "scri", "3812": "secti", "3813": "seemed", "3814": "seful", "3815": "shave", "3816": "shows", "3817": "sigh", "3818": "snake", "3819": "snakes", "3820": "sold", "3821": "stars", "3822": "supposed", "3823": "swa", "3824": "tS", "3825": "tead", "3826": "stead", "3827": "teen", "3828": "tepped", "3829": "stepped", "3830": "tick", "3831": "trag", "3832": "tril", "3833": "trol", "3834": "taken", "3835": "taxes", "3836": "teamw", "3837": "teena", "3838": "thl", "3839": "told", "3840": "toolk", "3841": "touc", "3842": "towar", "3843": "uis", "3844": "uited", "3845": "suited", "3846": "unem", "3847": "unfor", "3848": "unknow", "3849": "unlig", "3850": "sunlig", "3851": "sunligh", "3852": "unstruct", "3853": "uou", "3854": "urrou", "3855": "surrou", "3856": "surroun", "3857": "usefu", "3858": "unempl", "3859": "unknown", "3860": "unstructu", "3861": "useful", "3862": "vey", "3863": "rvey", "3864": "urvey", "3865": "survey", "3866": "viol", "3867": "vehicles", "3868": "viru", "3869": "wag", "3870": "wfou", "3871": "ewfou", "3872": "ewfoun", "3873": "newfou", "3874": "newfoun", "3875": "wash", "3876": "watched", "3877": "weaken", "3878": "wolf", "3879": "woman", "3880": "wro", "3881": "¡çļ", "3882": "¤è", "3883": "¥¿", "3884": "¬¦", "3885": "¬ä¸", "3886": "²ä¸", "3887": "²Ļ", "3888": "µĽ", "3889": "¶£", "3890": "·®", "3891": "¸®", "3892": "¹°", "3893": "¹åı", "3894": "ºĵ", "3895": "¼å", "3896": "½é", "3897": "½Ĵ", "3898": "¾·", "3899": "¿çļ", "3900": "äº§", "3901": "å£", "3902": "åĴĮ", "3903": "å¦Ĥä½", "3904": "å°ı", "3905": "å½ĵ", "3906": "åħ¨", "3907": "æ»", "3908": "æĳ", "3909": "æīĵ", "3910": "æĶ¹", "3911": "èĮ", "3912": "é»", "3913": "éĢļ", "3914": "éĤ£", "3915": "ĠĠĠĠĠĠ", "3916": "ĠĠĠĠĠĠĠĠ", "3917": "ĠĠĠĠĠĠĠĠĠ", "3918": "ĥé", "3919": "ĦåĪ", "3920": "Ĩåı", "3921": "Ĭ¤", "3922": "Įé", "3923": "įĩ", "3924": "įļ", "3925": "Ĳäº", "3926": "ĲĦ", "3927": "ĳ³", "3928": "ĳæĺ", "3929": "ĳçļ", "3930": "Ĵç", "3931": "Ĺä»", "3932": "Ĺæľ", "3933": "ĺé", "3934": "ļè¿", "3935": "Ľ¢", "3936": "ľĭ", "3937": "ĿĢ", "3938": "Ŀĩ", "3939": "ĿĲ", "3940": "ŀģ", "3941": "ł·", "3942": "łé", "3943": "26", "3944": "API", "3945": "Brain", "3946": "Cof", "3947": "Clou", "3948": "Cour", "3949": "Dank", "3950": "Dieses", "3951": "FÃ¼r", "3952": "Gov", "3953": "Geben", "3954": "Gern", "3955": "Gibt", "3956": "Jam", "3957": "Klas", "3958": "Neu", "3959": "Nu", "3960": "Norw", "3961": "Nun", "3962": "Oct", "3963": "Por", "3964": "Park", "3965": "Rich", "3966": "Trad", "3967": "Take", "3968": "anth", "3969": "esa", "3970": "gani", "3971": "itz", "3972": "legen", "3973": "ntes", "3974": "otos", "3975": "hotos", "3976": "Photos", "3977": "Photosy", "3978": "onk", "3979": "orf", "3980": "pack", "3981": "rgan", "3982": "Organ", "3983": "Organi", "3984": "roper", "3985": "Proper", "3986": "rogen", "3987": "¡º", "3988": "¢çļ", "3989": "£ħ", "3990": "£İ", "3991": "§Ĩ", "3992": "ªĹ", "3993": "¬ĳ", "3994": "°çļ", "3995": "±¡", "3996": "²¡", "3997": "²³", "3998": "²»", "3999": "²çļ", "4000": "´ä¸", "4001": "¶ä¸", "4002": "¶ħ", "4003": "¸ģ", "4004": "¹äº", "4005": "¼æ", "4006": "½»", "4007": "½ä¸", "4008": "¾¤", "4009": "¿ä¸", "4010": "¿ħ", "4011": "Ã©", "4012": "äºĮ", "4013": "ä¼ļ", "4014": "åĤ", "4015": "åĶ", "4016": "åł", "4017": "å¿«", "4018": "åĪĴ", "4019": "åıĺ", "4020": "æ¤", "4021": "æ·", "4022": "æĴ", "4023": "æĬĢ", "4024": "æĬĬ", "4025": "æķĻ", "4026": "æĸ°", "4027": "æŀĦ", "4028": "ç¢", "4029": "çħ", "4030": "ç»´", "4031": "èĪ", "4032": "èĳ", "4033": "è®º", "4034": "è¯¥", "4035": "è¯·", "4036": "è¿ĩ", "4037": "é¸", "4038": "éŀ", "4039": "Ģåı", "4040": "ĢĢ", "4041": "Ĥ¼", "4042": "Ĥé", "4043": "ħ§", "4044": "ħçļ", "4045": "Ĩµ", "4046": "ĨĴ", "4047": "ĩä¸", "4048": "īĩ", "4049": "Ĭä»", "4050": "Įæľ", "4051": "Įģ", "4052": "Įĳ", "4053": "įģ", "4054": "İ·", "4055": "ıæľ", "4056": "ıĹ", "4057": "ĳæĸ", "4058": "ĵª", "4059": "ĵ¶", "4060": "ĵçļ", "4061": "ķåĪ", "4062": "ķæĺ", "4063": "ĸåĨ", "4064": "ĸçļ", "4065": "ĸľ", "4066": "Ĺ¨", "4067": "ĺçļ", "4068": "ĺè", "4069": "ļä»", "4070": "ļĲ", "4071": "ļĸ", "4072": "Ľ¨", "4073": "ĽĽ", "4074": "Łĵ", "4075": "ł¡", "4076": "'l", "4077": "'r", "4078": "'ll", "4079": "'re", "4080": "08", "4081": "078", "4082": "132", "4083": "156", "4084": "192", "4085": "195", "4086": "196", "4087": "197", "4088": "300", "4089": "304", "4090": "31", "4091": "36", "4092": "37", "4093": "350", "4094": "53", "4095": "530", "4096": "64", "4097": "625", "4098": "650", "4099": "70", "4100": "75", "4101": "Accou", "4102": "Act", "4103": "Air", "4104": "Appear", "4105": "Ay", "4106": "Accoun", "4107": "Actor", "4108": "Ali", "4109": "Amb", "4110": "Anoth", "4111": "Ans", "4112": "Appli", "4113": "Ayu", "4114": "Bay", "4115": "Between", "4116": "Bitt", "4117": "Bon", "4118": "Book", "4119": "Brin", "4120": "Birm", "4121": "Bitte", "4122": "Brains", "4123": "Bring", "4124": "Buk", "4125": "CO", "4126": "Cir", "4127": "Cocon", "4128": "Cow", "4129": "CNNs", "4130": "Camou", "4131": "Carr", "4132": "Che", "4133": "Chil", "4134": "Cirr", "4135": "Coconu", "4136": "Coff", "4137": "Conc", "4138": "Covid", "4139": "DC", "4140": "DN", "4141": "Dar", "4142": "Dear", "4143": "Defor", "4144": "Den", "4145": "Depr", "4146": "Din", "4147": "Div", "4148": "Doct", "4149": "Dog", "4150": "Dor", "4151": "Dos", "4152": "Defini", "4153": "Defores", "4154": "Depres", "4155": "Dinn", "4156": "Divid", "4157": "Doctor", "4158": "Dogs", "4159": "Dori", "4160": "Dost", "4161": "Driven", "4162": "Duc", "4163": "Each", "4164": "Eas", "4165": "Egg", "4166": "Egy", "4167": "Electi", "4168": "Emm", "4169": "Encou", "4170": "Ens", "4171": "Est", "4172": "Facial", "4173": "Fact", "4174": "Fal", "4175": "Fis", "4176": "Fol", "4177": "Fos", "4178": "Fy", "4179": "Fals", "4180": "Fash", "4181": "Fish", "4182": "Flower", "4183": "Fores", "4184": "Fost", "4185": "Fut", "4186": "Fyod", "4187": "Gam", "4188": "Gan", "4189": "Gath", "4190": "Gian", "4191": "God", "4192": "Greas", "4193": "Grou", "4194": "Games", "4195": "Gant", "4196": "Garl", "4197": "Gathe", "4198": "Giant", "4199": "Godf", "4200": "Gover", "4201": "Grease", "4202": "Group", "4203": "HO", "4204": "Hab", "4205": "Happy", "4206": "Hob", "4207": "Hol", "4208": "Hou", "4209": "Haben", "4210": "Here", "4211": "Hist", "4212": "Hobb", "4213": "Hold", "4214": "Hous", "4215": "Hum", "4216": "Hun", "4217": "ID", "4218": "IR", "4219": "Iè", "4220": "IPP", "4221": "ISP", "4222": "Impl", "4223": "Ina", "4224": "Ini", "4225": "Isl", "4226": "Jack", "4227": "Jup", "4228": "KIP", "4229": "Kar", "4230": "Kin", "4231": "Kitch", "4232": "KIPP", "4233": "Kang", "4234": "Kens", "4235": "King", "4236": "Kitchen", "4237": "Lab", "4238": "Lar", "4239": "Lau", "4240": "Lev", "4241": "Lib", "4242": "Location", "4243": "Look", "4244": "Lark", "4245": "Laut", "4246": "Lever", "4247": "Liber", "4248": "Loss", "4249": "Mad", "4250": "Micr", "4251": "Mir", "4252": "Mix", "4253": "Mod", "4254": "Mov", "4255": "Mr", "4256": "Ms", "4257": "Male", "4258": "Many", "4259": "Marc", "4260": "Merc", "4261": "Micro", "4262": "Mobil", "4263": "Neg", "4264": "Non", "4265": "Nood", "4266": "Nov", "4267": "Nationa", "4268": "Nations", "4269": "Nevad", "4270": "Never", "4271": "Noodl", "4272": "Offer", "4273": "Oper", "4274": "Optim", "4275": "Octo", "4276": "Ohn", "4277": "Opera", "4278": "Pal", "4279": "Pas", "4280": "Pay", "4281": "Peopl", "4282": "Pepper", "4283": "Phon", "4284": "Pig", "4285": "Piv", "4286": "Pou", "4287": "Pow", "4288": "Pract", "4289": "Prid", "4290": "Prin", "4291": "Prog", "4292": "Ps", "4293": "Pand", "4294": "Pank", "4295": "People", "4296": "Pers", "4297": "Phone", "4298": "Pige", "4299": "Pivo", "4300": "Plag", "4301": "Plas", "4302": "Play", "4303": "Posi", "4304": "Pour", "4305": "Power", "4306": "Practi", "4307": "Pride", "4308": "Progr", "4309": "Pub", "4310": "Pun", "4311": "Ran", "4312": "Read", "4313": "Repor", "4314": "Repu", "4315": "Retriev", "4316": "Road", "4317": "Rob", "4318": "Rol", "4319": "Rand", "4320": "Rask", "4321": "Redd", "4322": "Regr", "4323": "Rele", "4324": "Rena", "4325": "Report", "4326": "Repub", "4327": "Reven", "4328": "Robo", "4329": "Rocke", "4330": "Roll", "4331": "Rothe", "4332": "Rul", "4333": "Run", "4334": "SV", "4335": "Scou", "4336": "Sier", "4337": "Slov", "4338": "Social", "4339": "Son", "4340": "Spen", "4341": "Spid", "4342": "SVM", "4343": "Salt", "4344": "Schen", "4345": "Scout", "4346": "Scri", "4347": "Sho", "4348": "Sierr", "4349": "Sind", "4350": "Song", "4351": "Sort", "4352": "Spend", "4353": "Spider", "4354": "Stay", "4355": "Stor", "4356": "Sub", "4357": "Sur", "4358": "Tax", "4359": "Tim", "4360": "Tok", "4361": "Tom", "4362": "Tow", "4363": "Takin", "4364": "Task", "4365": "Time", "4366": "Toky", "4367": "Tolk", "4368": "Tomor", "4369": "Trade", "4370": "UTC", "4371": "Ultim", "4372": "Ultima", "4373": "Uran", "4374": "VI", "4375": "Val", "4376": "Var", "4377": "Vin", "4378": "Valu", "4379": "Vari", "4380": "Venu", "4381": "Very", "4382": "Vinc", "4383": "Viru", "4384": "WHO", "4385": "Wid", "4386": "Witt", "4387": "Won", "4388": "Wall", "4389": "Wash", "4390": "Whe", "4391": "Whil", "4392": "Whol", "4393": "Wint", "4394": "Wonk", "4395": "XY", "4396": "XYZ", "4397": "Yest", "4398": "Zuck", "4399": "Zucker", "4400": "acation", "4401": "aces", "4402": "afer", "4403": "aject", "4404": "ajes", "4405": "apar", "4406": "apol", "4407": "apr", "4408": "abe", "4409": "acill", "4410": "ackn", "4411": "acuu", "4412": "adm", "4413": "adu", "4414": "aged", "4415": "agg", "4416": "ago", "4417": "ahead", "4418": "aidin", "4419": "aims", "4420": "aine", "4421": "airp", "4422": "ajector", "4423": "ajest", "4424": "alin", "4425": "alis", "4426": "alk", "4427": "alth", "4428": "amen", "4429": "ams", "4430": "apart", "4431": "apolo", "4432": "apri", "4433": "aqua", "4434": "arp", "4435": "arv", "4436": "aser", "4437": "athl", "4438": "atist", "4439": "atta", "4440": "atti", "4441": "ayed", "4442": "aze", "4443": "bag", "4444": "bath", "4445": "beav", "4446": "bed", "4447": "bies", "4448": "biom", "4449": "blow", "4450": "bott", "4451": "box", "4452": "broad", "4453": "brou", "4454": "backg", "4455": "backs", "4456": "band", "4457": "bars", "4458": "beaver", "4459": "becomes", "4460": "broug", "4461": "button", "4462": "cab", "4463": "categ", "4464": "catt", "4465": "cem", "4466": "cian", "4467": "cn", "4468": "coin", "4469": "coz", "4470": "cabl", "4471": "cades", "4472": "calor", "4473": "canc", "4474": "cans", "4475": "canv", "4476": "catchy", "4477": "categor", "4478": "catter", "4479": "cele", "4480": "cemb", "4481": "cni", "4482": "codin", "4483": "comes", "4484": "conj", "4485": "cookies", "4486": "corn", "4487": "corp", "4488": "cozy", "4489": "cst", "4490": "cub", "4491": "cues", "4492": "cyb", "4493": "cyt", "4494": "dead", "4495": "deal", "4496": "decen", "4497": "decor", "4498": "defor", "4499": "depl", "4500": "detes", "4501": "died", "4502": "dipl", "4503": "dopl", "4504": "dration", "4505": "drin", "4506": "drog", "4507": "drou", "4508": "dyin", "4509": "danc", "4510": "decent", "4511": "decora", "4512": "defores", "4513": "deple", "4514": "detailed", "4515": "detecti", "4516": "detest", "4517": "devas", "4518": "diplom", "4519": "disa", "4520": "doors", "4521": "drains", "4522": "dreams", "4523": "drink", "4524": "drogen", "4525": "droug", "4526": "dying", "4527": "eWitt", "4528": "DeWitt", "4529": "ecad", "4530": "decad", "4531": "decades", "4532": "ecem", "4533": "Decem", "4534": "Decemb", "4535": "ecov", "4536": "ecs", "4537": "eeper", "4538": "deeper", "4539": "eepl", "4540": "deepl", "4541": "deeply", "4542": "eju", "4543": "eken", "4544": "eeken", "4545": "eker", "4546": "eeker", "4547": "eom", "4548": "eov", "4549": "epair", "4550": "eager", "4551": "eary", "4552": "echan", "4553": "echo", "4554": "ecover", "4555": "ecst", "4556": "eda", "4557": "eden", "4558": "eder", "4559": "edn", "4560": "edy", "4561": "eeds", "4562": "eekend", "4563": "eekers", "4564": "egies", "4565": "egm", "4566": "ejud", "4567": "emer", "4568": "enf", "4569": "eome", "4570": "epara", "4571": "epare", "4572": "ephy", "4573": "eput", "4574": "erF", "4575": "ettin", "4576": "evid", "4577": "evs", "4578": "exe", "4579": "fah", "4580": "feath", "4581": "fen", "4582": "fool", "4583": "fox", "4584": "frig", "4585": "efrig", "4586": "efriger", "4587": "fahr", "4588": "fails", "4589": "failu", "4590": "fairer", "4591": "fairy", "4592": "fals", "4593": "fant", "4594": "fasc", "4595": "faul", "4596": "feathe", "4597": "feeds", "4598": "fest", "4599": "fifths", "4600": "file", "4601": "fisc", "4602": "fixt", "4603": "floodin", "4604": "frames", "4605": "gI", "4606": "gal", "4607": "gaps", "4608": "gaz", "4609": "geom", "4610": "gian", "4611": "glow", "4612": "goes", "4613": "greas", "4614": "gaze", "4615": "gears", "4616": "geome", "4617": "giant", "4618": "goodb", "4619": "grades", "4620": "grease", "4621": "greenn", "4622": "grown", "4623": "hed", "4624": "heer", "4625": "hos", "4626": "hyg", "4627": "hall", "4628": "happene", "4629": "heavy", "4630": "homi", "4631": "howe", "4632": "hygien", "4633": "hyperb", "4634": "iPhon", "4635": "iab", "4636": "ias", "4637": "bias", "4638": "icel", "4639": "ician", "4640": "iciou", "4641": "icn", "4642": "icy", "4643": "ifes", "4644": "ipal", "4645": "cipal", "4646": "icipal", "4647": "ipper", "4648": "ities", "4649": "cities", "4650": "iPhone", "4651": "ibr", "4652": "icell", "4653": "icious", "4654": "icni", "4655": "idi", "4656": "iene", "4657": "ifest", "4658": "igr", "4659": "igu", "4660": "imer", "4661": "ino", "4662": "ippery", "4663": "iri", "4664": "irin", "4665": "iron", "4666": "irs", "4667": "iser", "4668": "ison", "4669": "isp", "4670": "itzer", "4671": "izen", "4672": "jog", "4673": "jogg", "4674": "jur", "4675": "keepin", "4676": "km", "4677": "kw", "4678": "keeping", "4679": "keywor", "4680": "lak", "4681": "lates", "4682": "leepin", "4683": "lifes", "4684": "lipper", "4685": "liz", "4686": "lunch", "4687": "labor", "4688": "lake", "4689": "latest", "4690": "leeping", "4691": "legal", "4692": "legis", "4693": "lemu", "4694": "lifest", "4695": "lions", "4696": "lippery", "4697": "loves", "4698": "matt", "4699": "mech", "4700": "mitig", "4701": "mois", "4702": "multim", "4703": "matter", "4704": "meant", "4705": "mechan", "4706": "metha", "4707": "midd", "4708": "minc", "4709": "mirr", "4710": "mitiga", "4711": "mixed", "4712": "mode", "4713": "moist", "4714": "multimed", "4715": "nab", "4716": "ncov", "4717": "near", "4718": "nfol", "4719": "nicipal", "4720": "nies", "4721": "nis", "4722": "nnies", "4723": "nois", "4724": "notation", "4725": "noth", "4726": "npl", "4727": "nabl", "4728": "nami", "4729": "ncover", "4730": "nego", "4731": "nfold", "4732": "node", "4733": "noise", "4734": "norm", "4735": "nothi", "4736": "nplu", "4737": "nthe", "4738": "oak", "4739": "oev", "4740": "oof", "4741": "oog", "4742": "Goog", "4743": "Googl", "4744": "oops", "4745": "opped", "4746": "opper", "4747": "hopper", "4748": "hoppers", "4749": "otech", "4750": "iotech", "4751": "biotech", "4752": "biotechn", "4753": "otect", "4754": "obt", "4755": "ochon", "4756": "ochu", "4757": "ocke", "4758": "odc", "4759": "odor", "4760": "ofi", "4761": "omi", "4762": "oms", "4763": "onn", "4764": "oplas", "4765": "oran", "4766": "osin", "4767": "ouf", "4768": "oved", "4769": "oves", "4770": "paces", "4771": "pad", "4772": "pam", "4773": "pect", "4774": "pian", "4775": "pices", "4776": "piciou", "4777": "picn", "4778": "pien", "4779": "ipien", "4780": "cipien", "4781": "cipient", "4782": "ecipien", "4783": "ecipient", "4784": "pies", "4785": "opies", "4786": "copies", "4787": "pir", "4788": "pitch", "4789": "pod", "4790": "poth", "4791": "ppil", "4792": "appil", "4793": "appily", "4794": "happil", "4795": "happily", "4796": "ppoin", "4797": "appoin", "4798": "appoint", "4799": "ptiv", "4800": "aptiv", "4801": "aptiva", "4802": "captiv", "4803": "captiva", "4804": "px", "4805": "paths", "4806": "peanu", "4807": "pest", "4808": "picious", "4809": "picni", "4810": "pke", "4811": "podc", "4812": "polar", "4813": "pond", "4814": "pothe", "4815": "poun", "4816": "ppli", "4817": "pum", "4818": "rah", "4819": "raid", "4820": "fraid", "4821": "afraid", "4822": "rail", "4823": "rais", "4824": "raject", "4825": "reath", "4826": "breath", "4827": "recipien", "4828": "recov", "4829": "reein", "4830": "freein", "4831": "freeing", "4832": "refrig", "4833": "refu", "4834": "reju", "4835": "Preju", "4836": "Prejud", "4837": "repair", "4838": "repar", "4839": "Prepar", "4840": "Prepare", "4841": "repu", "4842": "retail", "4843": "rial", "4844": "rices", "4845": "Prices", "4846": "rick", "4847": "ripes", "4848": "rippin", "4849": "grippin", "4850": "gripping", "4851": "roch", "4852": "broch", "4853": "brochu", "4854": "rock", "4855": "rof", "4856": "roof", "4857": "ror", "4858": "rotect", "4859": "Protect", "4860": "rpas", "4861": "rpr", "4862": "ruck", "4863": "ryin", "4864": "rajector", "4865": "reaches", "4866": "recipient", "4867": "recover", "4868": "referr", "4869": "refine", "4870": "reflects", "4871": "refriger", "4872": "remo", "4873": "reput", "4874": "retrieval", "4875": "reus", "4876": "reven", "4877": "ridl", "4878": "rient", "4879": "rigor", "4880": "rival", "4881": "rivi", "4882": "rows", "4883": "rozen", "4884": "rpass", "4885": "rpris", "4886": "rying", "4887": "sC", "4888": "safer", "4889": "sail", "4890": "sar", "4891": "scatt", "4892": "scl", "4893": "scu", "4894": "secr", "4895": "seeker", "4896": "seg", "4897": "sem", "4898": "separ", "4899": "sheer", "4900": "shon", "4901": "shopper", "4902": "sician", "4903": "sleepin", "4904": "slipper", "4905": "snow", "4906": "sooth", "4907": "soy", "4908": "spaces", "4909": "spam", "4910": "spar", "4911": "spices", "4912": "spiciou", "4913": "spin", "4914": "stag", "4915": "stak", "4916": "station", "4917": "strol", "4918": "sacra", "4919": "salt", "4920": "scall", "4921": "scann", "4922": "scatter", "4923": "scle", "4924": "scul", "4925": "sealed", "4926": "secre", "4927": "seekers", "4928": "seemin", "4929": "segm", "4930": "semi", "4931": "send", "4932": "separa", "4933": "settl", "4934": "seven", "4935": "shaver", "4936": "shelf", "4937": "shone", "4938": "shoppers", "4939": "shout", "4940": "shower", "4941": "situations", "4942": "sized", "4943": "sizes", "4944": "sleeping", "4945": "slippery", "4946": "sola", "4947": "solo", "4948": "soul", "4949": "spark", "4950": "speciali", "4951": "speeds", "4952": "spicious", "4953": "spro", "4954": "stage", "4955": "stake", "4956": "steadil", "4957": "stroll", "4958": "tC", "4959": "tT", "4960": "tatis", "4961": "statis", "4962": "statist", "4963": "teal", "4964": "steal", "4965": "stealin", "4966": "tein", "4967": "otein", "4968": "rotein", "4969": "Protein", "4970": "tev", "4971": "tib", "4972": "ptib", "4973": "eptib", "4974": "ceptib", "4975": "sceptib", "4976": "ticu", "4977": "eticu", "4978": "Reticu", "4979": "Reticul", "4980": "tiz", "4981": "itiz", "4982": "citiz", "4983": "citizen", "4984": "tmeal", "4985": "toch", "4986": "itoch", "4987": "itochon", "4988": "tof", "4989": "tood", "4990": "stood", "4991": "topped", "4992": "tract", "4993": "traject", "4994": "tream", "4995": "stream", "4996": "trem", "4997": "trick", "4998": "trien", "4999": "tripes"}, "merges": {"t h": 0, "e s": 1, "i n": 2, "o n": 3, "a n": 4, "th e": 5, "e r": 6, "e n": 7, "o r": 8, "i s": 9, "a s": 10, "p r": 11, "e l": 12, "e d": 13, "a l": 14, "an d": 15, "a r": 16, "in g": 17, "c t": 18, "th a": 19, "o m": 20, "i on": 21, "o f": 22, "o u": 23, "o w": 24, "Ċ Ċ": 25, "pr o": 26, "c h": 27, "p l": 28, "ä ¸": 29, "es p": 30, "c r": 31, "en t": 32, "I n": 33, "c om": 34, "o l": 35, "es t": 36, "e x": 37, "i l": 38, "q u": 39, "i d": 40, "i v": 41, "T h": 42, "c on": 43, "o v": 44, "f or": 45, "i r": 46, "p u": 47, "i b": 48, "t es": 49, "e m": 50, "i th": 51, "ct i": 52, "com p": 53, "i m": 54, "el o": 55, "in s": 56, "ç ļ": 57, "es c": 58, "Th e": 59, "as k": 60, "a m": 61, "B el": 62, "e qu": 63, "Bel o": 64, "w ith": 65, "t as": 66, "W r": 67, "Wr i": 68, "a d": 69, "tas k": 70, "a b": 71, "i g": 72, "u ct": 73, "r equ": 74, "Ġ Ġ": 75, "p pr": 76, "a ppr": 77, "es s": 78, "appr o": 79, "In s": 80, "R es": 81, "requ es": 82, "Res p": 83, "e v": 84, "o s": 85, "c u": 86, "a g": 87, "c es": 88, "o d": 89, "f u": 90, "t ion": 91, "w h": 92, "c l": 93, "con t": 94, "a k": 95, "D u": 96, "p er": 97, "ar e": 98, "c an": 99, "in e": 100, "a y": 101, "al l": 102, "a in": 103, "l ow": 104, "a v": 105, "e ar": 106, "ä¸ Ģ": 107, "o g": 108, "ä º": 109, "i es": 110, "a ir": 111, "in t": 112, "w or": 113, "ol l": 114, "å Ī": 115, "in p": 116, "c k": 117, "er e": 118, "in c": 119, "e g": 120, "an t": 121, "çļ Ħ": 122, "ä »": 123, "ou r": 124, "fu r": 125, "y ou": 126, "th i": 127, "a u": 128, "t t": 129, "p air": 130, "In p": 131, "pair ed": 132, "ig h": 133, "s en": 134, "i ch": 135, "en er": 136, "f ol": 137, "æ ĺ": 138, "is t": 139, "r om": 140, "fol l": 141, "on s": 142, "in d": 143, "e as": 144, "å ı": 145, "i z": 146, "c al": 147, "e ct": 148, "sen t": 149, "o th": 150, "o b": 151, "ou l": 152, "as s": 153, "f rom": 154, "å ħ": 155, "a ch": 156, "ç Ķ": 157, "il l": 158, "w as": 159, "e y": 160, "pl e": 161, "æ ľ": 162, "p h": 163, "an g": 164, "ex t": 165, "t em": 166, "è ¿": 167, "i en": 168, "ak e": 169, "ä ½": 170, "è ¯": 171, "I t": 172, "el l": 173, "e en": 174, "c ou": 175, "m in": 176, "al s": 177, "a ct": 178, "or i": 179, "os t": 180, "el e": 181, "iv en": 182, "ç »": 183, "å Ń": 184, "l es": 185, "e al": 186, "å ®": 187, "è ®": 188, "e b": 189, "æ ĸ": 190, "t im": 191, "cr e": 192, "' s": 193, "t ed": 194, "f er": 195, "æ Ī": 196, "g iv": 197, "h el": 198, "av e": 199, "m ak": 200, "o k": 201, "id e": 202, "â Ģ": 203, "cu r": 204, "h av": 205, "h ou": 206, "pl a": 207, "A I": 208, "as t": 209, "å ¤": 210, "e in": 211, "0 0": 212, "f y": 213, "an c": 214, "p or": 215, "hel p": 216, "ª å": 217, "am e": 218, "å Ĳ": 219, "o od": 220, "e ch": 221, "p ar": 222, "æ ķ": 223, "cu s": 224, "ex p": 225, "oth e": 226, "wh i": 227, "S h": 228, "e ad": 229, "o ok": 230, "è ¾": 231, "ed u": 232, "ab l": 233, "er v": 234, "å Ĩ": 235, "f in": 236, "ear n": 237, "giv en": 238, "pr e": 239, "in f": 240, "ces s": 241, "is i": 242, "r el": 243, "æĺ ¯": 244, "S t": 245, "i al": 246, "i k": 247, "om er": 248, "ov er": 249, "W h": 250, "c ar": 251, "e ach": 252, "r in": 253, "an y": 254, "pr es": 255, "å ľ": 256, "G en": 257, "hav e": 258, "A l": 259, "ech n": 260, "c y": 261, "e th": 262, "wor d": 263, "C r": 264, "s hou": 265, "l ear": 266, "lear n": 267, "Ã ¶": 268, "ä ¹": 269, "Sh e": 270, "Th is": 271, "pl i": 272, "shou l": 273, "ar i": 274, "com m": 275, "d is": 276, "er g": 277, "ä¸ ĭ": 278, "å º": 279, "Gen er": 280, "con s": 281, "tt er": 282, "å ĩ": 283, "K Ã¶": 284, "KÃ¶ n": 285, "f fer": 286, "p pl": 287, "ev el": 288, "p s": 289, "ev er": 290, "you r": 291, "a ck": 292, "e ed": 293, "A n": 294, "eal th": 295, "h ad": 296, "s tem": 297, "t ech": 298, "ä¸ ª": 299, "im p": 300, "il e": 301, "i ffer": 302, "s ol": 303, "tech n": 304, "w eb": 305, "an i": 306, "iffer e": 307, "m y": 308, "th r": 309, "l ik": 310, "y stem": 311, "s ystem": 312, "ç §": 313, "ar g": 314, "in es": 315, "E x": 316, "ab ou": 317, "c ces": 318, "cces s": 319, "tim e": 320, "wor k": 321, "ex a": 322, "d iffer": 323, "mak e": 324, "pl an": 325, "¯ ä¸": 326, "è §": 327, "differ e": 328, "h eal": 329, "il i": 330, "im pr": 331, "w ay": 332, "Cr e": 333, "es i": 334, "A d": 335, "heal th": 336, "w il": 337, "C h": 338, "D es": 339, "a th": 340, "o y": 341, "pr i": 342, "e an": 343, "er n": 344, "cou n": 345, "ev en": 346, "¥ ä¸": 347, "è¾ ĵ": 348, "S u": 349, "i an": 350, "n en": 351, "a ppl": 352, "c s": 353, "a il": 354, "a tion": 355, "d ev": 356, "en c": 357, "m os": 358, "Ã ¼": 359, "æ ı": 360, "ä¸ º": 361, "ç ®": 362, "au t": 363, "c ien": 364, "c or": 365, "n ow": 366, "or y": 367, "w r": 368, "wil l": 369, "å °": 370, "c ial": 371, "er y": 372, "p os": 373, "ç ī": 374, "N ex": 375, "Nex t": 376, "lik e": 377, "p an": 378, "Ħ è": 379, "c is": 380, "p as": 381, "ä» ¥": 382, "en g": 383, "é ĩ": 384, "Ad d": 385, "c cu": 386, "h ow": 387, "i tion": 388, "on g": 389, "t ak": 390, "w een": 391, "t ween": 392, "e tween": 393, "web s": 394, "åħ ¥": 395, "è ¡": 396, "I ch": 397, "Wh a": 398, "Ã¼ r": 399, "é Ģ": 400, "ad v": 401, "al g": 402, "ar a": 403, "c en": 404, "el s": 405, "p en": 406, "per s": 407, "ĵ åħ": 408, "l ich": 409, "b etween": 410, "e con": 411, "Ļ ä¸": 412, "in v": 413, "th m": 414, "ĥ ½": 415, "j u": 416, "t Ã¼": 417, "a tÃ¼": 418, "N atÃ¼": 419, "NatÃ¼ r": 420, "å Ľ": 421, "æ ł": 422, "C om": 423, "ccu r": 424, "o pl": 425, "wr i": 426, "æ Ń": 427, "Al s": 428, "c in": 429, "å ¸": 430, "a tes": 431, "appl i": 432, "c os": 433, "t il": 434, "æ Ŀ": 435, "F in": 436, "act i": 437, "r iv": 438, "t ex": 439, "tex t": 440, "å ¼": 441, "D as": 442, "is s": 443, "of f": 444, "å į": 445, "au s": 446, "cis i": 447, "con c": 448, "e cis": 449, "d ecis": 450, "decis i": 451, "f ect": 452, "f fect": 453, "p ol": 454, "por t": 455, "r am": 456, "r ou": 457, "rin g": 458, "s om": 459, "som e": 460, "t ar": 461, "é ¢": 462, "a ccu": 463, "accu r": 464, "e ak": 465, "e opl": 466, "e tt": 467, "eopl e": 468, "for m": 469, "h ig": 470, "p in": 471, "âĢ Ļ": 472, "æ Ģ": 473, "Ĵ Į": 474, "a tt": 475, "i er": 476, "o in": 477, "§ į": 478, "» º": 479, "æ ³": 480, "æ ī": 481, "ag e": 482, "hig h": 483, "wh o": 484, "æ ŀ": 485, "U n": 486, "v an": 487, "Y ou": 488, "c au": 489, "cen t": 490, "l ead": 491, "on i": 492, "p eopl": 493, "peopl e": 494, "r ow": 495, "t ch": 496, "w el": 497, "wor l": 498, "ä¸ Ń": 499, "G iv": 500, "ein e": 501, "y ear": 502, "å ¥": 503, "c el": 504, "cl e": 505, "cou l": 506, "ex pl": 507, "m od": 508, "mos t": 509, "par t": 510, "wh il": 511, "Des c": 512, "Ex pl": 513, "O n": 514, "å Į": 515, "cau s": 516, "cl as": 517, "wel l": 518, "æ Ĺ": 519, "c ol": 520, "ov e": 521, "t eg": 522, "åĨ Ļ": 523, "0 2": 524, "E s": 525, "e ffect": 526, "k now": 527, "pas s": 528, "s w": 529, "ä ¼": 530, "C on": 531, "a x": 532, "al u": 533, "2 02": 534, "d ay": 535, "g ood": 536, "pu r": 537, "s ou": 538, "º ä¸": 539, "æ Ĭ": 540, "æ į": 541, "å ·": 542, "å ½": 543, "é Ĺ": 544, "Ĭ ¨": 545, "D ein": 546, "In t": 547, "b een": 548, "cos t": 549, "e com": 550, "in n": 551, "m ain": 552, "å ¯": 553, "of t": 554, "Dein e": 555, "a cces": 556, "acces s": 557, "b oth": 558, "cr i": 559, "cu l": 560, "ex c": 561, "i cal": 562, "id en": 563, "m ach": 564, "mach in": 565, "n eed": 566, "o h": 567, "on l": 568, "on m": 569, "s el": 570, "t iv": 571, "v ar": 572, "a teg": 573, "Com p": 574, "K an": 575, "econ o": 576, "en v": 577, "i tt": 578, "is k": 579, "l ev": 580, "l ob": 581, "r each": 582, "¦ ģ": 583, "å ĵ": 584, "r ig": 585, "ad e": 586, "ch o": 587, "f as": 588, "k il": 589, "l ig": 590, "n am": 591, "var i": 592, "w ou": 593, "wh a": 594, "é Ŀ": 595, "1 9": 596, "es u": 597, "ä ¾": 598, "ä½ ł": 599, "å ¾": 600, "W as": 601, "cien t": 602, "dev el": 603, "e es": 604, "ed g": 605, "ein g": 606, "f am": 607, "fu l": 608, "i cien": 609, "f icien": 610, "f ficien": 611, "j ect": 612, "mak in": 613, "o ck": 614, "r ev": 615, "wou l": 616, "Ģ ä¸": 617, "Kan n": 618, "N am": 619, "Nam e": 620, "å ¿": 621, "C l": 622, "I d": 623, "b ook": 624, "e fficien": 625, "ett er": 626, "g row": 627, "l og": 628, "p on": 629, "per f": 630, "r em": 631, "rel a": 632, "¦ Ĥ": 633, "æ µ": 634, "F or": 635, "Id en": 636, "e wr": 637, "ewr i": 638, "im a": 639, "is h": 640, "l iv": 641, "p ag": 642, "r ad": 643, "ç «": 644, "ç Ĳ": 645, "d riv": 646, "f ir": 647, "f ou": 648, "lob al": 649, "tak e": 650, "Fin d": 651, "c er": 652, "rig h": 653, "w al": 654, "ª ç": 655, "ä ¿": 656, "R ewr": 657, "Rewr i": 658, "c m": 659, "con v": 660, "e am": 661, "e pr": 662, "f act": 663, "fin d": 664, "lig h": 665, "m ay": 666, "p ow": 667, "wh en": 668, "æ ¯": 669, "ç ±": 670, "è¿ Ļ": 671, "e u": 672, "i el": 673, "o on": 674, "0 1": 675, "D er": 676, "ab il": 677, "es o": 678, "lev el": 679, "or s": 680, "r av": 681, "r eg": 682, "å ¹": 683, "çĶ Ł": 684, "ł æĺ": 685, "r ien": 686, "¢ ĺ": 687, "æ °": 688, "ç ¨": 689, "C u": 690, "J oh": 691, "K l": 692, "e for": 693, "ig n": 694, "kil l": 695, "o cial": 696, "pu l": 697, "s ig": 698, "sou r": 699, "t A": 700, "I m": 701, "a h": 702, "g an": 703, "r ain": 704, "Ĥ ¨": 705, "A u": 706, "E n": 707, "Joh n": 708, "U m": 709, "an k": 710, "ar o": 711, "att er": 712, "e fin": 713, "fu n": 714, "g lob": 715, "i ted": 716, "l ook": 717, "m ean": 718, "n til": 719, "ov i": 720, "pag e": 721, "s kil": 722, "skil l": 723, "u ntil": 724, "y z": 725, "year s": 726, "¸ ¸": 727, "åĪ Ľ": 728, "ç Ľ": 729, "b in": 730, "f rien": 731, "frien d": 732, "¥ è": 733, "åĪ Ĺ": 734, "ç» Ļ": 735, "ar m": 736, "b ack": 737, "c og": 738, "dis c": 739, "e ath": 740, "em b": 741, "epr es": 742, "f ood": 743, "j ob": 744, "o ol": 745, "o or": 746, "ol e": 747, "pol i": 748, "r ateg": 749, "r ov": 750, "rel e": 751, "s ocial": 752, "t rateg": 753, "s trateg": 754, "¨ ĭ": 755, "å İ": 756, "Ĳ ä¸": 757, "A s": 758, "H ow": 759, "M ar": 760, "2 00": 761, "2 01": 762, "E in": 763, "b ecom": 764, "b ein": 765, "bein g": 766, "e au": 767, "b eau": 768, "beau t": 769, "eas on": 770, "fact or": 771, "g am": 772, "i cu": 773, "l ov": 774, "les s": 775, "mod el": 776, "o pu": 777, "opu l": 778, "p opu": 779, "popu l": 780, "s pr": 781, "sig n": 782, "sol u": 783, "wh er": 784, "ª é": 785, "¯ è": 786, "æ Į": 787, "æ Ļ": 788, "è ½": 789, "į ķ": 790, "Ĺ è": 791, "Cl as": 792, "Giv en": 793, "Kl ar": 794, "er b": 795, "p y": 796, "¼ ı": 797, "åľ ¨": 798, "è ´": 799, "ĭ é": 800, "1 5": 801, "A r": 802, "b rin": 803, "brin g": 804, "dev i": 805, "e cen": 806, "ecen t": 807, "fam il": 808, "fou n": 809, "i u": 810, "ich er": 811, "im pl": 812, "m ad": 813, "mad e": 814, "n ig": 815, "nig h": 816, "o cu": 817, "p m": 818, "p por": 819, "r epr": 820, "s ib": 821, "t ain": 822, "th y": 823, "y in": 824, "å ĳ": 825, "ĵ ģ": 826, "O u": 827, "St a": 828, "ch e": 829, "ch i": 830, "çĶ ¨": 831, "è¿ °": 832, "1 00": 833, "1 1": 834, "S ich": 835, "Sich er": 836, "U S": 837, "Un i": 838, "c am": 839, "cog n": 840, "con f": 841, "cor d": 842, "d an": 843, "efficien t": 844, "f iv": 845, "fin a": 846, "fir s": 847, "fiv e": 848, "glob al": 849, "i x": 850, "m eth": 851, "n on": 852, "o es": 853, "ph r": 854, "pow er": 855, "s cien": 856, "s id": 857, "s tar": 858, "system s": 859, "t f": 860, "tem p": 861, "w id": 862, "wh y": 863, "å ģ": 864, "ç ½": 865, "ç İ": 866, "è® ¡": 867, "ŀ ĭ": 868, "A m": 869, "B u": 870, "eg in": 871, "g er": 872, "t is": 873, "£ é": 874, "¥ é": 875, "ä¸ ī": 876, "æ ´": 877, "æ İ": 878, "Ħ ä¸": 879, "ĩ Ĭ": 880, "C al": 881, "ad d": 882, "as es": 883, "b ett": 884, "bett er": 885, "d eb": 886, "e cog": 887, "e cu": 888, "e er": 889, "ecog n": 890, "f il": 891, "f low": 892, "g ram": 893, "gram m": 894, "h om": 895, "i pl": 896, "k ey": 897, "o em": 898, "o x": 899, "ob j": 900, "pos s": 901, "ppor t": 902, "r ecog": 903, "recog n": 904, "requ i": 905, "s im": 906, "sol v": 907, "t b": 908, "· æ": 909, "P rov": 910, "Prov id": 911, "cr a": 912, "m es": 913, "r een": 914, "º ı": 915, "ç º": 916, "Ģ é": 917, "00 0": 918, "1 2": 919, "a tem": 920, "al y": 921, "ar y": 922, "au d": 923, "b eg": 924, "car e": 925, "cer t": 926, "cor r": 927, "d iv": 928, "e ig": 929, "e on": 930, "ecu r": 931, "eig h": 932, "i tem": 933, "ib l": 934, "ien t": 935, "is m": 936, "ju s": 937, "know l": 938, "l ion": 939, "m ax": 940, "meth o": 941, "or r": 942, "os s": 943, "p oem": 944, "pin g": 945, "pl o": 946, "r ecen": 947, "r ees": 948, "recen t": 949, "repr es": 950, "t rad": 951, "uct u": 952, "v eg": 953, "z in": 954, "ä¸ į": 955, "äº º": 956, "æ ĥ": 957, "æ ĭ": 958, "ç Ń": 959, "ı è¿": 960, "Ń å": 961, "E d": 962, "a z": 963, "¨ ä¸": 964, "® é": 965, "å° Ĩ": 966, "ç ¾": 967, "è§ £": 968, "An al": 969, "Giv e": 970, "On e": 971, "St r": 972, "Su m": 973, "U s": 974, "b an": 975, "b efor": 976, "befor e": 977, "c as": 978, "c cou": 979, "ccou n": 980, "com b": 981, "dis t": 982, "e el": 983, "eas u": 984, "effect i": 985, "ex pr": 986, "gam e": 987, "grow th": 988, "icu l": 989, "is u": 990, "j or": 991, "a jor": 992, "m eas": 993, "m em": 994, "meas u": 995, "o al": 996, "o il": 997, "oin t": 998, "pen d": 999, "per a": 1000, "r eal": 1001, "r uct": 1002, "s ecu": 1003, "secu r": 1004, "t ipl": 1005, "l tipl": 1006, "t ool": 1007, "u ltipl": 1008, "æ Ķ": 1009, "ç ¡": 1010, "è Ĳ": 1011, "é Ķ": 1012, "L is": 1013, "P l": 1014, "Su g": 1015, "am a": 1016, "b ir": 1017, "cou r": 1018, "ear c": 1019, "er f": 1020, "n ct": 1021, "o per": 1022, "« ł": 1023, "æı ı": 1024, "Ĳ Ĩ": 1025, "' t": 1026, "D ies": 1027, "M ak": 1028, "W el": 1029, "a tch": 1030, "atem en": 1031, "cl im": 1032, "col l": 1033, "cr o": 1034, "d efin": 1035, "e cr": 1036, "eas i": 1037, "f ig": 1038, "hom e": 1039, "i qu": 1040, "i tch": 1041, "iel d": 1042, "l au": 1043, "m ajor": 1044, "m ultipl": 1045, "min u": 1046, "n ex": 1047, "ou g": 1048, "p es": 1049, "p oin": 1050, "par a": 1051, "poin t": 1052, "r ack": 1053, "r ead": 1054, "r eas": 1055, "ruct u": 1056, "s av": 1057, "s ear": 1058, "s is": 1059, "sear c": 1060, "star t": 1061, "t atem": 1062, "s tatem": 1063, "statem en": 1064, "t ruct": 1065, "s truct": 1066, "struct u": 1067, "th c": 1068, "wal k": 1069, "ä¸ ¤": 1070, "æ ²": 1071, "ç Ĥ": 1072, "I s": 1073, "Lis t": 1074, "åĪ ¶": 1075, "ç ķ": 1076, "è ĩ": 1077, "è ī": 1078, "Ļ ¨": 1079, "Mak e": 1080, "W in": 1081, "Wel c": 1082, "a ccou": 1083, "accou n": 1084, "am ou": 1085, "av a": 1086, "b on": 1087, "becom e": 1088, "c ook": 1089, "cal c": 1090, "d ig": 1091, "d oes": 1092, "e av": 1093, "em is": 1094, "f icu": 1095, "f ficu": 1096, "fficu l": 1097, "g reen": 1098, "i fficu": 1099, "ifficu l": 1100, "im m": 1101, "look in": 1102, "multipl e": 1103, "o oth": 1104, "o pen": 1105, "p att": 1106, "p ed": 1107, "p ical": 1108, "patt er": 1109, "r eak": 1110, "s how": 1111, "s iz": 1112, "t ien": 1113, "a tien": 1114, "atien t": 1115, "p atien": 1116, "patien t": 1117, "t rack": 1118, "t rees": 1119, "tion s": 1120, "y pical": 1121, "t ypical": 1122, "æ ¬": 1123, "æ Ħ": 1124, "æī ¾": 1125, "è µ": 1126, "é ķ": 1127, "Con s": 1128, "Ed i": 1129, "P ar": 1130, "b rig": 1131, "brig h": 1132, "hou s": 1133, "r ag": 1134, "ä¸ »": 1135, "ä¸ Ĭ": 1136, "å Ļ": 1137, "æľ ī": 1138, "ç ´": 1139, "é ¡": 1140, "é ĺ": 1141, "Ĭ ¡": 1142, "ļ ä¸": 1143, "Cal c": 1144, "Des i": 1145, "Fin a": 1146, "St e": 1147, "W ar": 1148, "a ted": 1149, "b ear": 1150, "b ow": 1151, "c ies": 1152, "cel l": 1153, "ch as": 1154, "d ed": 1155, "d ifficu": 1156, "difficu l": 1157, "e cau": 1158, "b ecau": 1159, "becau s": 1160, "e cies": 1161, "e ith": 1162, "econ d": 1163, "eith e": 1164, "em pl": 1165, "er o": 1166, "f iel": 1167, "fiel d": 1168, "h on": 1169, "i tes": 1170, "ian g": 1171, "n ov": 1172, "nam e": 1173, "nov el": 1174, "ob il": 1175, "oper a": 1176, "p ecies": 1177, "pl or": 1178, "pol l": 1179, "pu b": 1180, "r ian": 1181, "rian g": 1182, "s pecies": 1183, "strateg ies": 1184, "t og": 1185, "t on": 1186, "t ow": 1187, "t rian": 1188, "trian g": 1189, "veg e": 1190, "w an": 1191, "wan t": 1192, "£ ç": 1193, "¹ ł": 1194, "äº İ": 1195, "æ ģ": 1196, "ç ¯": 1197, "ī è": 1198, "Ł è": 1199, "F u": 1200, "M y": 1201, "n ch": 1202, "od a": 1203, "ou d": 1204, "t wor": 1205, "® µ": 1206, "äº Ĩ": 1207, "åı ¯": 1208, "æ ®": 1209, "ç ¤": 1210, "ç ¬": 1211, "ç ³": 1212, "Ļ º": 1213, "Con v": 1214, "M ach": 1215, "M on": 1216, "N N": 1217, "S m": 1218, "a id": 1219, "car b": 1220, "d ir": 1221, "dir e": 1222, "e ces": 1223, "e ps": 1224, "ecr e": 1225, "es h": 1226, "f eel": 1227, "fas t": 1228, "fig u": 1229, "for c": 1230, "g oal": 1231, "g rou": 1232, "i or": 1233, "know n": 1234, "m ol": 1235, "mem b": 1236, "mol e": 1237, "o ct": 1238, "oct or": 1239, "p eed": 1240, "p id": 1241, "per i": 1242, "qu ar": 1243, "rel i": 1244, "s econ": 1245, "s peed": 1246, "s qu": 1247, "secon d": 1248, "sim pl": 1249, "spr e": 1250, "squ ar": 1251, "t eam": 1252, "t ect": 1253, "tog e": 1254, "typical l": 1255, "was t": 1256, "with o": 1257, "½ çļ": 1258, "è °": 1259, "è Ĥ": 1260, "é £": 1261, "é Ļ": 1262, "Ĥ ¹": 1263, "Ĩ è": 1264, "Ar t": 1265, "D ev": 1266, "W ow": 1267, "a cr": 1268, "l os": 1269, "¯ ĩ": 1270, "¸ ħ": 1271, "æ ±": 1272, "è ģ": 1273, "é ¦": 1274, "Am er": 1275, "C as": 1276, "H ier": 1277, "Mach in": 1278, "Ou t": 1279, "Th er": 1280, "Th r": 1281, "Wh en": 1282, "Win d": 1283, "al t": 1284, "b reak": 1285, "beg in": 1286, "c ean": 1287, "cam p": 1288, "ch al": 1289, "cl os": 1290, "cy cl": 1291, "d ar": 1292, "e twor": 1293, "eath e": 1294, "eces s": 1295, "ecom m": 1296, "effect s": 1297, "el t": 1298, "er in": 1299, "etwor k": 1300, "f for": 1301, "fu t": 1302, "h ear": 1303, "i ct": 1304, "il a": 1305, "il k": 1306, "lead in": 1307, "m ob": 1308, "m ooth": 1309, "mob il": 1310, "mos p": 1311, "n eces": 1312, "neces s": 1313, "need s": 1314, "o cean": 1315, "ocu s": 1316, "oin g": 1317, "p eak": 1318, "p pin": 1319, "p tion": 1320, "o ption": 1321, "pas t": 1322, "ph y": 1323, "ppin g": 1324, "r ecom": 1325, "recom m": 1326, "rev i": 1327, "rev ol": 1328, "s al": 1329, "s am": 1330, "s cal": 1331, "s mooth": 1332, "sam e": 1333, "scien c": 1334, "t eas": 1335, "t eps": 1336, "s teps": 1337, "t mos": 1338, "a tmos": 1339, "atmos p": 1340, "t rav": 1341, "tiv a": 1342, "trad i": 1343, "u ation": 1344, "t uation": 1345, "i tuation": 1346, "s ituation": 1347, "u il": 1348, "w en": 1349, "w w": 1350, "wen t": 1351, "» Ħ": 1352, "½ į": 1353, "âĢ ĵ": 1354, "âĢ ľ": 1355, "å Ł": 1356, "åĩ º": 1357, "æĪ ĳ": 1358, "ç ©": 1359, "ģ ¥": 1360, "ľ ä¸": 1361, "Au s": 1362, "O v": 1363, "Ov er": 1364, "a ph": 1365, "er p": 1366, "l ack": 1367, "mes s": 1368, "p per": 1369, "ph on": 1370, "³ »": 1371, "µ è": 1372, "½ ±": 1373, "å ±": 1374, "åĪ °": 1375, "æ ¨": 1376, "ģ ¯": 1377, "ĸ æ": 1378, "Ń ĸ": 1379, "Dev el": 1380, "E con": 1381, "Econ o": 1382, "L in": 1383, "Y es": 1384, "a tas": 1385, "a way": 1386, "ach i": 1387, "ar ed": 1388, "atas e": 1389, "b od": 1390, "b uil": 1391, "bod y": 1392, "c ation": 1393, "c cor": 1394, "c od": 1395, "c ov": 1396, "ccor d": 1397, "cov er": 1398, "d atas": 1399, "d oct": 1400, "datas e": 1401, "defin i": 1402, "dig i": 1403, "doct or": 1404, "e cor": 1405, "e fu": 1406, "e pl": 1407, "e tect": 1408, "em o": 1409, "eth i": 1410, "f ocu": 1411, "focu s": 1412, "g th": 1413, "i cl": 1414, "i ed": 1415, "itt l": 1416, "j oy": 1417, "l ect": 1418, "lau n": 1419, "m ix": 1420, "my s": 1421, "n etwor": 1422, "n ev": 1423, "networ k": 1424, "nex t": 1425, "o cal": 1426, "o om": 1427, "ol is": 1428, "p tim": 1429, "pos t": 1430, "pu t": 1431, "r ol": 1432, "reas on": 1433, "reg u": 1434, "s cr": 1435, "s eas": 1436, "seas on": 1437, "sid e": 1438, "siz e": 1439, "t ail": 1440, "t rin": 1441, "s trin": 1442, "strin g": 1443, "tak in": 1444, "teas p": 1445, "trav el": 1446, "u ck": 1447, "u pon": 1448, "way s": 1449, "y og": 1450, "y on": 1451, "¤ Ħ": 1452, "¨ é": 1453, "´ »": 1454, "¶ é": 1455, "å ķ": 1456, "æ Ľ": 1457, "ç ł": 1458, "è® ¾": 1459, "é ģ": 1460, "Į ĸ": 1461, "E O": 1462, "S ch": 1463, "col or": 1464, "ol i": 1465, "s of": 1466, "t os": 1467, "y th": 1468, "£ Ł": 1469, "« ĺ": 1470, "¯ ä»": 1471, "åĪ Ĩ": 1472, "æł ¹": 1473, "ç ¼": 1474, "ç ĸ": 1475, "é ª": 1476, "Ń è": 1477, "' m": 1478, "1 3": 1479, "19 9": 1480, "C an": 1481, "Ch an": 1482, "Ch in": 1483, "Fu r": 1484, "In cr": 1485, "M L": 1486, "S el": 1487, "a tis": 1488, "ab as": 1489, "ab ol": 1490, "al on": 1491, "au th": 1492, "av or": 1493, "bir d": 1494, "c ir": 1495, "cir c": 1496, "cr ed": 1497, "d ecr": 1498, "d em": 1499, "d etect": 1500, "decr e": 1501, "e cial": 1502, "e cl": 1503, "e hav": 1504, "ehav i": 1505, "en h": 1506, "en j": 1507, "equ a": 1508, "f eed": 1509, "fas h": 1510, "g ain": 1511, "giv e": 1512, "goal s": 1513, "hear t": 1514, "i ck": 1515, "i cs": 1516, "i fu": 1517, "i ou": 1518, "ib er": 1519, "iqu e": 1520, "j ou": 1521, "jou r": 1522, "k ed": 1523, "l ett": 1524, "lov e": 1525, "m ig": 1526, "m ou": 1527, "n iqu": 1528, "nev er": 1529, "niqu e": 1530, "non y": 1531, "o ad": 1532, "o tiv": 1533, "ob o": 1534, "on y": 1535, "option s": 1536, "or es": 1537, "or th": 1538, "otiv a": 1539, "p ecial": 1540, "pl as": 1541, "pos i": 1542, "ptim i": 1543, "r eam": 1544, "rem ov": 1545, "s ev": 1546, "s peak": 1547, "s pecial": 1548, "s tain": 1549, "s til": 1550, "sel f": 1551, "stil l": 1552, "t ock": 1553, "s tock": 1554, "t od": 1555, "t rain": 1556, "tim es": 1557, "tod a": 1558, "u niqu": 1559, "u stain": 1560, "s ustain": 1561, "u x": 1562, "uniqu e": 1563, "w eath": 1564, "weath e": 1565, "y non": 1566, "s ynon": 1567, "synon y": 1568, "± æŃ": 1569, "» é": 1570, "âĢ Ŀ": 1571, "å Ģ": 1572, "åı ¥": 1573, "æĬ ±": 1574, "æŃ ī": 1575, "ç ĭ": 1576, "è Ĭ": 1577, "é Ľ": 1578, "ĠĠ ĠĠ": 1579, "İ Ĵ": 1580, "Ķ ä¸": 1581, "ļ çļ": 1582, "D is": 1583, "N or": 1584, "On c": 1585, "T ech": 1586, "Tech n": 1587, "Us e": 1588, "an u": 1589, "ateg or": 1590, "f el": 1591, "i cial": 1592, "tt en": 1593, "´ ł": 1594, "å »º": 1595, "å¥ ½": 1596, "æ £": 1597, "ç Ł": 1598, "Ŀ ¡": 1599, "1 4": 1600, "B as": 1601, "C NN": 1602, "Ch r": 1603, "H T": 1604, "Sm ar": 1605, "Th es": 1606, "a im": 1607, "acr o": 1608, "au c": 1609, "b ak": 1610, "b ar": 1611, "book s": 1612, "bow l": 1613, "cl i": 1614, "cl ou": 1615, "d ocu": 1616, "d oor": 1617, "deb t": 1618, "dis p": 1619, "docu m": 1620, "e em": 1621, "e por": 1622, "e tail": 1623, "ecor d": 1624, "efficien c": 1625, "epor t": 1626, "ev al": 1627, "f al": 1628, "f av": 1629, "f es": 1630, "fam ou": 1631, "feel in": 1632, "for g": 1633, "g as": 1634, "g oin": 1635, "g ov": 1636, "g rav": 1637, "goin g": 1638, "gov er": 1639, "h icl": 1640, "e hicl": 1641, "hon e": 1642, "i ag": 1643, "d iag": 1644, "i ces": 1645, "in in": 1646, "ion i": 1647, "l eav": 1648, "l itt": 1649, "lett er": 1650, "lik el": 1651, "liv ed": 1652, "liv es": 1653, "log o": 1654, "m otiv": 1655, "mean in": 1656, "mod er": 1657, "motiv a": 1658, "mou n": 1659, "n eg": 1660, "o ppin": 1661, "o ppor": 1662, "o ptim": 1663, "oppin g": 1664, "oppor t": 1665, "optim i": 1666, "p ay": 1667, "p el": 1668, "p ics": 1669, "o pics": 1670, "ph o": 1671, "qu er": 1672, "r act": 1673, "r ecor": 1674, "r id": 1675, "r ob": 1676, "recor d": 1677, "s low": 1678, "s pen": 1679, "sid es": 1680, "smooth i": 1681, "sof t": 1682, "t each": 1683, "t opics": 1684, "th s": 1685, "til i": 1686, "tow n": 1687, "u ppor": 1688, "s uppor": 1689, "suppor t": 1690, "u tt": 1691, "v ehicl": 1692, "w atch": 1693, "w av": 1694, "w is": 1695, "w on": 1696, "wal l": 1697, "wid e": 1698, "y pes": 1699, "yog u": 1700, "¤ º": 1701, "¯ çļ": 1702, "½ ¢": 1703, "âĢ ĺ": 1704, "å¾ Ī": 1705, "è ¶": 1706, "é ļ": 1707, "ī ²": 1708, "ķ Ĩ": 1709, "ł ä¸": 1710, "A ppl": 1711, "Dies e": 1712, "H is": 1713, "J u": 1714, "Mar k": 1715, "Ou r": 1716, "S ar": 1717, "W or": 1718, "er w": 1719, "¨ çļ": 1720, "° é": 1721, "¸ è": 1722, "» ½": 1723, "âĢ ¢": 1724, "å ¦Ĥ": 1725, "å¥ ¹": 1726, "å® ļ": 1727, "æ Ł": 1728, "æı Ĳ": 1729, "æľ º": 1730, "Ģ ģ": 1731, "ģ é": 1732, "Ħ ı": 1733, "Ĺ ħ": 1734, "1 8": 1735, "B en": 1736, "Can a": 1737, "Cas h": 1738, "Ch ar": 1739, "Com e": 1740, "Cu b": 1741, "G lob": 1742, "Glob al": 1743, "H ig": 1744, "Hig h": 1745, "How e": 1746, "I f": 1747, "Mon a": 1748, "O b": 1749, "S EO": 1750, "Sar a": 1751, "T w": 1752, "Th en": 1753, "a pid": 1754, "ag en": 1755, "atis f": 1756, "b log": 1757, "b or": 1758, "b utt": 1759, "buil d": 1760, "c com": 1761, "a ccom": 1762, "c ed": 1763, "c id": 1764, "c il": 1765, "a cil": 1766, "cam e": 1767, "cod e": 1768, "cu t": 1769, "d am": 1770, "d eath": 1771, "d og": 1772, "d ream": 1773, "dam a": 1774, "driv er": 1775, "e iv": 1776, "c eiv": 1777, "e ceiv": 1778, "e z": 1779, "efu l": 1780, "ex er": 1781, "ex is": 1782, "f ail": 1783, "f lect": 1784, "e flect": 1785, "f ram": 1786, "feed b": 1787, "fil l": 1788, "good s": 1789, "grou p": 1790, "h al": 1791, "h oppin": 1792, "hav in": 1793, "hoppin g": 1794, "hou r": 1795, "ict i": 1796, "il an": 1797, "l ab": 1798, "l ib": 1799, "l tim": 1800, "lead er": 1801, "lib er": 1802, "litt l": 1803, "m eal": 1804, "m oon": 1805, "mig h": 1806, "n ed": 1807, "og r": 1808, "om or": 1809, "on es": 1810, "or k": 1811, "p ain": 1812, "par k": 1813, "pl u": 1814, "r apid": 1815, "r eceiv": 1816, "r eflect": 1817, "r oad": 1818, "rob o": 1819, "s atis": 1820, "s au": 1821, "s ett": 1822, "s hoppin": 1823, "s il": 1824, "satis f": 1825, "sau c": 1826, "scien t": 1827, "sev er": 1828, "shoppin g": 1829, "sol ar": 1830, "spen d": 1831, "sustain a": 1832, "sw i": 1833, "t ypes": 1834, "th u": 1835, "tim el": 1836, "u rin": 1837, "urin g": 1838, "wh e": 1839, "won d": 1840, "¤ ç": 1841, "§ ģ": 1842, "¿ Ŀ": 1843, "å ¢": 1844, "æŀ ľ": 1845, "é ħ": 1846, "é ľ": 1847, "Ģ ł": 1848, "Ĭ Ĥ": 1849, "ĭ ¬": 1850, "ı £": 1851, "Ĳ ¥": 1852, "Ł çļ": 1853, "An d": 1854, "C ateg": 1855, "Categ or": 1856, "H u": 1857, "HT ML": 1858, "In d": 1859, "P an": 1860, "Sch r": 1861, "V er": 1862, "V iel": 1863, "al e": 1864, "k er": 1865, "y g": 1866, "¤ ä¸": 1867, "¨ Ģ": 1868, "¬ ¡": 1869, "® ¹": 1870, "° ±": 1871, "¾ ĭ": 1872, "ä» ĸ": 1873, "ä½ ľ": 1874, "å ī": 1875, "å ĸ": 1876, "ç Ħ": 1877, "è ¨": 1878, "è Ļ": 1879, "Ĩ ä¸": 1880, "Ĭ ł": 1881, "Ĳ ½": 1882, "Ĳ é": 1883, "ķ ¥": 1884, "Ľ é": 1885, "ŀ Ĳ": 1886, "ł ¼": 1887, "A tt": 1888, "Au t": 1889, "B an": 1890, "B eg": 1891, "Beg in": 1892, "C ar": 1893, "E ar": 1894, "Ear th": 1895, "En g": 1896, "Ex am": 1897, "G P": 1898, "Im pr": 1899, "Lin u": 1900, "O h": 1901, "P u": 1902, "R en": 1903, "R is": 1904, "R iv": 1905, "R u": 1906, "S cr": 1907, "S er": 1908, "Ser v": 1909, "T C": 1910, "Th a": 1911, "Viel en": 1912, "a ccor": 1913, "a cial": 1914, "accom p": 1915, "accor d": 1916, "ah r": 1917, "al m": 1918, "al w": 1919, "am pl": 1920, "ar in": 1921, "ar is": 1922, "att en": 1923, "c ak": 1924, "cak e": 1925, "car d": 1926, "car s": 1927, "cl o": 1928, "com f": 1929, "d ecl": 1930, "d eg": 1931, "d etail": 1932, "d id": 1933, "d urin": 1934, "dar k": 1935, "deg r": 1936, "div id": 1937, "driv en": 1938, "driv in": 1939, "durin g": 1940, "e cid": 1941, "d ecid": 1942, "e cy": 1943, "e ein": 1944, "e pen": 1945, "d epen": 1946, "depen d": 1947, "ead l": 1948, "ecy cl": 1949, "eein g": 1950, "en l": 1951, "f ar": 1952, "fel t": 1953, "g ir": 1954, "g rad": 1955, "gir l": 1956, "grav i": 1957, "grow in": 1958, "h ab": 1959, "h eig": 1960, "heig h": 1961, "i ox": 1962, "d iox": 1963, "diox id": 1964, "id d": 1965, "item s": 1966, "iv o": 1967, "l ocal": 1968, "l ock": 1969, "liv in": 1970, "log i": 1971, "los s": 1972, "m ath": 1973, "max im": 1974, "n eu": 1975, "nam ed": 1976, "neg a": 1977, "o tion": 1978, "o tt": 1979, "ood l": 1980, "open e": 1981, "or q": 1982, "ow ed": 1983, "p ear": 1984, "p pear": 1985, "p pen": 1986, "a ppen": 1987, "h appen": 1988, "p py": 1989, "a ppy": 1990, "pel l": 1991, "pow d": 1992, "r ecy": 1993, "r epor": 1994, "reach ed": 1995, "recy cl": 1996, "repor t": 1997, "riv er": 1998, "rol l": 1999, "row n": 2000, "s ect": 2001, "s eem": 2002, "s por": 2003, "sav in": 2004, "sel e": 2005, "sen s": 2006, "sou n": 2007, "spor t": 2008, "sw e": 2009, "t nam": 2010, "e tnam": 2011, "i etnam": 2012, "V ietnam": 2013, "t pu": 2014, "tak es": 2015, "teach er": 2016, "tool s": 2017, "u id": 2018, "w eak": 2019, "you n": 2020, "z es": 2021, "¡ ¹": 2022, "¡ ä¸": 2023, "° ĳ": 2024, "¾ åĩ": 2025, "¾ åĪ": 2026, "ã Ģ": 2027, "æ ¡": 2028, "æ º": 2029, "ç Ĭ": 2030, "ç» ı": 2031, "è ĭ": 2032, "Ģ Ĥ": 2033, "ī ä¸": 2034, "ļ é": 2035, "Bu il": 2036, "C ou": 2037, "G ib": 2038, "GP T": 2039, "M is": 2040, "R eg": 2041, "Res e": 2042, "S pr": 2043, "T u": 2044, "W en": 2045, "W ith": 2046, "Wen n": 2047, "aph or": 2048, "bir th": 2049, "l eg": 2050, "min i": 2051, "o ar": 2052, "o os": 2053, "o pr": 2054, "o z": 2055, "t aph": 2056, "e taph": 2057, "etaph or": 2058, "t z": 2059, "v iv": 2060, "¤ Ĳ": 2061, "§ ¯": 2062, "ª ¤": 2063, "« Ļ": 2064, "´ çļ": 2065, "º Ĳ": 2066, "» ç»": 2067, "¼ è": 2068, "ãĢ Ĭ": 2069, "ä¸ ļ": 2070, "äº Ķ": 2071, "å ¡": 2072, "å Ŀ": 2073, "æ ¶": 2074, "æ Ĥ¨": 2075, "è Ħ": 2076, "è® ®": 2077, "é ¤": 2078, "Ģ ¼": 2079, "ģ çļ": 2080, "Ĩ ä»": 2081, "Ī æĬ": 2082, "Ĭ ©": 2083, "ĭ ©": 2084, "Į »": 2085, "ĳ ä¸": 2086, "Ľ ä¸": 2087, "Ł é": 2088, "B ir": 2089, "Ban a": 2090, "C ath": 2091, "C el": 2092, "C or": 2093, "E m": 2094, "H av": 2095, "H eal": 2096, "Heal th": 2097, "L ear": 2098, "Lear n": 2099, "Mis s": 2100, "Nor th": 2101, "Par as": 2102, "Ris k": 2103, "Riv er": 2104, "St ar": 2105, "Th an": 2106, "Us in": 2107, "V eg": 2108, "War u": 2109, "You r": 2110, "a ffor": 2111, "acil i": 2112, "affor d": 2113, "am b": 2114, "an x": 2115, "appl es": 2116, "as in": 2117, "ates t": 2118, "b ehav": 2119, "b ig": 2120, "b ject": 2121, "b oy": 2122, "b row": 2123, "ban k": 2124, "behav i": 2125, "brow n": 2126, "butt er": 2127, "can d": 2128, "can n": 2129, "car r": 2130, "cel s": 2131, "ch or": 2132, "cin e": 2133, "cin n": 2134, "cl u": 2135, "con u": 2136, "cos e": 2137, "d om": 2138, "d rag": 2139, "dis e": 2140, "dis h": 2141, "div is": 2142, "e fer": 2143, "e ffor": 2144, "eas y": 2145, "effor t": 2146, "en o": 2147, "en r": 2148, "f air": 2149, "f ict": 2150, "f is": 2151, "f s": 2152, "fav or": 2153, "fict i": 2154, "fol d": 2155, "fou r": 2156, "fram e": 2157, "g uid": 2158, "giv in": 2159, "hab i": 2160, "had ow": 2161, "hal f": 2162, "i ar": 2163, "ib il": 2164, "ig a": 2165, "in q": 2166, "iqu i": 2167, "ir r": 2168, "l er": 2169, "l iqu": 2170, "l ood": 2171, "l oor": 2172, "f loor": 2173, "lead s": 2174, "lev er": 2175, "liqu i": 2176, "ltim a": 2177, "m etaph": 2178, "m otion": 2179, "mak es": 2180, "metaph or": 2181, "min d": 2182, "n ack": 2183, "n ak": 2184, "n ar": 2185, "nar r": 2186, "need ed": 2187, "o as": 2188, "o con": 2189, "o pin": 2190, "ocon u": 2191, "om en": 2192, "om es": 2193, "pain t": 2194, "pan d": 2195, "r au": 2196, "r oom": 2197, "real i": 2198, "reflect i": 2199, "rom an": 2200, "s had": 2201, "s ical": 2202, "s nak": 2203, "s pel": 2204, "sal es": 2205, "scr a": 2206, "sel l": 2207, "sett in": 2208, "shad ow": 2209, "spel l": 2210, "t ates": 2211, "s tates": 2212, "trad e": 2213, "train e": 2214, "u bject": 2215, "u cos": 2216, "l ucos": 2217, "g lucos": 2218, "glucos e": 2219, "u ltim": 2220, "u til": 2221, "util i": 2222, "v ir": 2223, "vehicl e": 2224, "ww w": 2225, "¨ äº": 2226, "® ä¸": 2227, "® çļ": 2228, "¸ ©": 2229, "¹ ´": 2230, "¹ ī": 2231, "º äº": 2232, "¿ µ": 2233, "¿ ĥ": 2234, "Ã ¤": 2235, "ä» Ģ": 2236, "å¯ ¹": 2237, "å»º è®": 2238, "åı ĳ": 2239, "åŃ ¦": 2240, "æĢ »": 2241, "ç ¥": 2242, "ģ ļ": 2243, "Ĥ ²": 2244, "ħ į": 2245, "Ĩ ħ": 2246, "Ĭ Ł": 2247, "İ Ł": 2248, "ĳ è": 2249, "Ķ é": 2250, "Ĺ ä¸": 2251, "Ľ çļ": 2252, "Appl e": 2253, "D el": 2254, "Dis c": 2255, "Du r": 2256, "G er": 2257, "H er": 2258, "R om": 2259, "W er": 2260, "W il": 2261, "ar c": 2262, "n th": 2263, "o ch": 2264, "pos e": 2265, "r od": 2266, "t ies": 2267, "th d": 2268, "¡ è": 2269, "¡ Ī": 2270, "¢ «": 2271, "© é": 2272, "® å®": 2273, "¯ ¼": 2274, "³ é": 2275, "» ä¸": 2276, "¼ Ķ": 2277, "¾ è®": 2278, "ä¸ İ": 2279, "ä» İ": 2280, "å¦Ĥ æŀ": 2281, "åĪ «": 2282, "åĽ ½": 2283, "æ¯ Ķ": 2284, "æ° ´": 2285, "ç¡ ®": 2286, "ç» ĵ": 2287, "è¿ Ľ": 2288, "é ¥": 2289, "é Ĥ": 2290, "éĢ ī": 2291, "Ģ ĥ": 2292, "Ģ ħ": 2293, "ģ Į": 2294, "ĥ ¨": 2295, "Ī é": 2296, "ī ¯": 2297, "Ĭ ä¸": 2298, "ĭ ä¸": 2299, "į ä¸": 2300, "İ é": 2301, "Ł ä¸": 2302, "ł çļ": 2303, "' d": 2304, "3 5": 2305, "6 2": 2306, "Al ex": 2307, "Am a": 2308, "Bas i": 2309, "Bu t": 2310, "C au": 2311, "C os": 2312, "Cath o": 2313, "Cor r": 2314, "Cos t": 2315, "Cr is": 2316, "Cu s": 2317, "D P": 2318, "D efin": 2319, "Ein e": 2320, "En d": 2321, "F ah": 2322, "Fah r": 2323, "G al": 2324, "G ar": 2325, "Hav e": 2326, "In f": 2327, "In v": 2328, "It s": 2329, "J av": 2330, "Jav a": 2331, "L as": 2332, "L on": 2333, "Lon d": 2334, "M ed": 2335, "M in": 2336, "M ou": 2337, "Med i": 2338, "Ob j": 2339, "P er": 2340, "P ol": 2341, "Pl a": 2342, "R ed": 2343, "R ev": 2344, "Ren e": 2345, "S ag": 2346, "S of": 2347, "Sag en": 2348, "Sel e": 2349, "Sof t": 2350, "Spr in": 2351, "Su s": 2352, "T ex": 2353, "TC P": 2354, "a ppear": 2355, "a qu": 2356, "ab s": 2357, "ag a": 2358, "al an": 2359, "appr e": 2360, "ar es": 2361, "as m": 2362, "ax es": 2363, "ay in": 2364, "b att": 2365, "b lack": 2366, "b lock": 2367, "b oos": 2368, "b rav": 2369, "bak in": 2370, "becom in": 2371, "beg an": 2372, "bin a": 2373, "boos t": 2374, "brav e": 2375, "break f": 2376, "c cin": 2377, "a ccin": 2378, "cal m": 2379, "col d": 2380, "com in": 2381, "com pr": 2382, "dan e": 2383, "death s": 2384, "deb a": 2385, "decid ed": 2386, "defin e": 2387, "dem an": 2388, "diag r": 2389, "div er": 2390, "dom es": 2391, "drag on": 2392, "driv e": 2393, "e ech": 2394, "e ph": 2395, "e pin": 2396, "e pper": 2397, "eg g": 2398, "en es": 2399, "equ al": 2400, "er h": 2401, "eu m": 2402, "ey es": 2403, "f acial": 2404, "f acil": 2405, "f os": 2406, "facil i": 2407, "fal l": 2408, "fir e": 2409, "food s": 2410, "for w": 2411, "g ear": 2412, "g el": 2413, "g f": 2414, "g ol": 2415, "gam es": 2416, "gol d": 2417, "green h": 2418, "grou n": 2419, "h appy": 2420, "hel l": 2421, "i ced": 2422, "i ev": 2423, "il ar": 2424, "im b": 2425, "im en": 2426, "in m": 2427, "is c": 2428, "itch en": 2429, "ju d": 2430, "ju i": 2431, "l em": 2432, "l oom": 2433, "l oy": 2434, "lau g": 2435, "leav es": 2436, "loy al": 2437, "m ir": 2438, "m om": 2439, "main t": 2440, "mean s": 2441, "mom en": 2442, "n dan": 2443, "n iv": 2444, "n od": 2445, "n ood": 2446, "n ou": 2447, "ndan e": 2448, "nex p": 2449, "niv er": 2450, "nood l": 2451, "o an": 2452, "l oan": 2453, "o cation": 2454, "o ccu": 2455, "o py": 2456, "c opy": 2457, "copy rig": 2458, "o tes": 2459, "oar d": 2460, "oas t": 2461, "og g": 2462, "on in": 2463, "opin i": 2464, "or in": 2465, "p ab": 2466, "a pab": 2467, "c apab": 2468, "p ath": 2469, "p eech": 2470, "p eer": 2471, "p il": 2472, "p iv": 2473, "p ped": 2474, "p pos": 2475, "p tain": 2476, "a ptain": 2477, "pay m": 2478, "per v": 2479, "piv o": 2480, "pr on": 2481, "q Ob": 2482, "e qOb": 2483, "eqOb j": 2484, "r aph": 2485, "g raph": 2486, "r ated": 2487, "r ation": 2488, "r ect": 2489, "r efer": 2490, "r epl": 2491, "r eqOb": 2492, "f reqOb": 2493, "freqOb j": 2494, "r ich": 2495, "r iev": 2496, "r il": 2497, "r viv": 2498, "ract i": 2499, "rain s": 2500, "reach in": 2501, "real l": 2502, "receiv e": 2503, "reg ar": 2504, "reg r": 2505, "rem in": 2506, "rid e": 2507, "rou g": 2508, "s ag": 2509, "s aid": 2510, "s cen": 2511, "s een": 2512, "s eu": 2513, "s hav": 2514, "s nack": 2515, "s ubject": 2516, "sag e": 2517, "scal a": 2518, "seu m": 2519, "sim il": 2520, "speak in": 2521, "strateg y": 2522, "t B": 2523, "t ation": 2524, "t ax": 2525, "t ig": 2526, "t ol": 2527, "t ook": 2528, "t ou": 2529, "t riev": 2530, "e triev": 2531, "track in": 2532, "u cl": 2533, "n ucl": 2534, "nucl e": 2535, "u les": 2536, "r ules": 2537, "u ndan": 2538, "m undan": 2539, "mundan e": 2540, "u nex": 2541, "u niv": 2542, "u rviv": 2543, "s urviv": 2544, "u sag": 2545, "u seu": 2546, "u sical": 2547, "m usical": 2548, "unex p": 2549, "univ er": 2550, "usag e": 2551, "useu m": 2552, "w eig": 2553, "w ood": 2554, "weig h": 2555, "wh is": 2556, "wid el": 2557, "wil d": 2558, "y er": 2559, "yin g": 2560, "z ed": 2561, "¡ é": 2562, "¯ é": 2563, "° ä¸": 2564, "² æ": 2565, "º «": 2566, "¼ ł": 2567, "¾ Ĺ": 2568, "å¤ ©": 2569, "æ ļ": 2570, "æķ °": 2571, "æľ ¬": 2572, "ç¼ ĸ": 2573, "è ¦ģ": 2574, "è¾ ĥ": 2575, "ģ ĵ": 2576, "ħ é": 2577, "ĩ é": 2578, "ĩ Į": 2579, "Ī ĸ": 2580, "ī į": 2581, "Ĭ ¶": 2582, "į é": 2583, "İ ä¸": 2584, "İ åĽ": 2585, "İ è": 2586, "Ĳ çļ": 2587, "Ĵ è": 2588, "Ķ è¾": 2589, "ķ Į": 2590, "ĸ »": 2591, "Ĺ çļ": 2592, "Ŀ å": 2593, "Ń Į": 2594, "A b": 2595, "An g": 2596, "Ju l": 2597, "L P": 2598, "M an": 2599, "N oin": 2600, "Noin p": 2601, "P rod": 2602, "R ock": 2603, "T ak": 2604, "T el": 2605, "Tw itt": 2606, "e act": 2607, "eb o": 2608, "el on": 2609, "ez e": 2610, "im al": 2611, "itt er": 2612, "o pos": 2613, "opos e": 2614, "pu s": 2615, "r og": 2616, "r opos": 2617, "P ropos": 2618, "Propos e": 2619, "rov e": 2620, "¢ ŀ": 2621, "¦ ä¸": 2622, "¦ é": 2623, "§ Ĥ": 2624, "« ĭ": 2625, "¬ çļ": 2626, "® °": 2627, "° ä»": 2628, "³ äº": 2629, "´ §": 2630, "µ İ": 2631, "· è": 2632, "¸ é": 2633, "¹ ¦": 2634, "¹ ¿": 2635, "¹ ä¸": 2636, "» Ĩ": 2637, "¼ ĺ": 2638, "¿ çĶ": 2639, "ä¸ ĸ": 2640, "ä½ ¿": 2641, "ä½ ķ": 2642, "å §": 2643, "æľ Ģ": 2644, "ç¾ İ": 2645, "è į": 2646, "é ©": 2647, "ĭ çļ": 2648, "Ĳ «": 2649, "ĸ é": 2650, "ĺ ³": 2651, "Ļ çļ": 2652, "Ļ ļ": 2653, "ł è": 2654, "1 01": 2655, "1 6": 2656, "19 8": 2657, "2 3": 2658, "4 3": 2659, "5 00": 2660, "A NN": 2661, "A P": 2662, "A ccor": 2663, "A g": 2664, "ANN s": 2665, "Ab sol": 2666, "Accor d": 2667, "Ag e": 2668, "Al l": 2669, "Al t": 2670, "Att en": 2671, "B ehav": 2672, "B y": 2673, "Bas e": 2674, "Behav i": 2675, "Ben e": 2676, "Bir d": 2677, "Bu s": 2678, "C ol": 2679, "C ov": 2680, "Car e": 2681, "Cau s": 2682, "Com m": 2683, "Con t": 2684, "Cou n": 2685, "Cu m": 2686, "Cu r": 2687, "Cu t": 2688, "D riv": 2689, "E g": 2690, "E u": 2691, "Ein s": 2692, "Eu r": 2693, "Ex er": 2694, "Ex t": 2695, "F as": 2696, "F ir": 2697, "F lig": 2698, "Flig h": 2699, "Gal i": 2700, "I I": 2701, "Im p": 2702, "In c": 2703, "In g": 2704, "It al": 2705, "L os": 2706, "M ax": 2707, "M ay": 2708, "M en": 2709, "Mar t": 2710, "Mou n": 2711, "N LP": 2712, "N ation": 2713, "N ein": 2714, "N ev": 2715, "On ion": 2716, "On l": 2717, "P on": 2718, "P os": 2719, "Pol i": 2720, "Pon z": 2721, "Q u": 2722, "R F": 2723, "R each": 2724, "R em": 2725, "R ow": 2726, "Reg u": 2727, "Rem ov": 2728, "S en": 2729, "S ou": 2730, "Sel f": 2731, "Sm ith": 2732, "Sou th": 2733, "St u": 2734, "T P": 2735, "Tex t": 2736, "U DP": 2737, "U r": 2738, "Un d": 2739, "V accin": 2740, "W ou": 2741, "Wh ich": 2742, "Wor l": 2743, "Wou l": 2744, "a S": 2745, "a ffect": 2746, "a ik": 2747, "a ps": 2748, "ad o": 2749, "aik u": 2750, "ain a": 2751, "al p": 2752, "am on": 2753, "appear s": 2754, "appl e": 2755, "as an": 2756, "b ad": 2757, "b loom": 2758, "b oar": 2759, "ban an": 2760, "batt er": 2761, "boar d": 2762, "c aptain": 2763, "c ated": 2764, "c eb": 2765, "a ceb": 2766, "F aceb": 2767, "Faceb o": 2768, "c efu": 2769, "a cefu": 2770, "acefu l": 2771, "c ocon": 2772, "c of": 2773, "c ool": 2774, "capab il": 2775, "car n": 2776, "cas h": 2777, "cocon u": 2778, "cof f": 2779, "col u": 2780, "con i": 2781, "cor e": 2782, "cos y": 2783, "cr u": 2784, "ct in": 2785, "ct or": 2786, "d im": 2787, "d ou": 2788, "d rain": 2789, "d rated": 2790, "d rov": 2791, "deb u": 2792, "decl ar": 2793, "dem on": 2794, "diag n": 2795, "dog s": 2796, "dou b": 2797, "drov e": 2798, "e Com": 2799, "e ag": 2800, "e ated": 2801, "e cos": 2802, "e epin": 2803, "e eth": 2804, "e ez": 2805, "e og": 2806, "e par": 2807, "e pu": 2808, "e tch": 2809, "eCom m": 2810, "ear l": 2811, "eas t": 2812, "ecos y": 2813, "een a": 2814, "eepin g": 2815, "eez e": 2816, "efor es": 2817, "efor m": 2818, "el es": 2819, "eog r": 2820, "equ en": 2821, "er an": 2822, "ey e": 2823, "f an": 2824, "f ein": 2825, "f fein": 2826, "a ffein": 2827, "f on": 2828, "f rau": 2829, "fil m": 2830, "fos s": 2831, "frau d": 2832, "fu el": 2833, "g eog": 2834, "geog r": 2835, "giv es": 2836, "glob e": 2837, "graph i": 2838, "h aik": 2839, "h air": 2840, "h id": 2841, "haik u": 2842, "hid d": 2843, "i ol": 2844, "i ps": 2845, "i tis": 2846, "ian t": 2847, "im ou": 2848, "is es": 2849, "itis h": 2850, "job s": 2851, "ju m": 2852, "k nig": 2853, "kil o": 2854, "knig h": 2855, "l cm": 2856, "l ices": 2857, "l or": 2858, "l uck": 2859, "lab el": 2860, "leav e": 2861, "lor i": 2862, "los t": 2863, "lov ed": 2864, "m id": 2865, "m ph": 2866, "m useu": 2867, "math e": 2868, "mem or": 2869, "mix t": 2870, "museu m": 2871, "n em": 2872, "n or": 2873, "n os": 2874, "neu t": 2875, "nou n": 2876, "o cated": 2877, "l ocated": 2878, "o ces": 2879, "o is": 2880, "ocal y": 2881, "occu r": 2882, "oces s": 2883, "ol f": 2884, "on th": 2885, "or o": 2886, "os is": 2887, "otes t": 2888, "ov in": 2889, "ox y": 2890, "p act": 2891, "p al": 2892, "p f": 2893, "p ocal": 2894, "a pocal": 2895, "apocal y": 2896, "p oor": 2897, "p ov": 2898, "per c": 2899, "per m": 2900, "ph il": 2901, "pov er": 2902, "ppos ed": 2903, "py ram": 2904, "qu an": 2905, "r efor": 2906, "r etch": 2907, "r itis": 2908, "B ritis": 2909, "Britis h": 2910, "r oces": 2911, "P roces": 2912, "Proces s": 2913, "r ok": 2914, "r otes": 2915, "P rotes": 2916, "Protes t": 2917, "ram id": 2918, "rapid l": 2919, "reas e": 2920, "rect an": 2921, "refor m": 2922, "rel y": 2923, "rem a": 2924, "rem e": 2925, "ril l": 2926, "rol e": 2927, "s ad": 2928, "s ay": 2929, "s eein": 2930, "s equ": 2931, "s ites": 2932, "s lices": 2933, "s oon": 2934, "s peech": 2935, "s pl": 2936, "s tim": 2937, "sav e": 2938, "sav es": 2939, "scal e": 2940, "sect or": 2941, "seein g": 2942, "sequ en": 2943, "show ed": 2944, "sil en": 2945, "slow l": 2946, "snack s": 2947, "sol i": 2948, "spl i": 2949, "spr in": 2950, "stim u": 2951, "strateg i": 2952, "surviv e": 2953, "t ag": 2954, "t d": 2955, "t eak": 2956, "s teak": 2957, "t eeth": 2958, "t iced": 2959, "o ticed": 2960, "n oticed": 2961, "t ips": 2962, "t oy": 2963, "t retch": 2964, "s tretch": 2965, "u nch": 2966, "u ppos": 2967, "s uppos": 2968, "ultim a": 2969, "veg an": 2970, "w ol": 2971, "w om": 2972, "watch in": 2973, "wav es": 2974, "with i": 2975, "wr on": 2976, "y drated": 2977, "h ydrated": 2978, "y el": 2979, "y per": 2980, "yel l": 2981, "z om": 2982, "zom b": 2983, "¢ é": 2984, "¢ Ĩ": 2985, "¤ Ł": 2986, "© ä¸": 2987, "¯ ı": 2988, "± äº": 2989, "´ é": 2990, "µ æ": 2991, "· é": 2992, "º çļ": 2993, "º Ĺ": 2994, "¿ é": 2995, "¿ ĳ": 2996, "¿ Ĺ": 2997, "Â °": 2998, "ä½ ĵ": 2999, "å¤ §": 3000, "å¼ Ģ": 3001, "åĪ Ļ": 3002, "æŃ £": 3003, "ç ¿": 3004, "ç ģ": 3005, "ç Ī": 3006, "ç ı": 3007, "çĶ ±": 3008, "è £": 3009, "è¯ ´": 3010, "è¯ ķ": 3011, "è¿ Ĳ": 3012, "Ģ æľ": 3013, "Ħ ĳ": 3014, "ħ ¶": 3015, "Ĩ åĪ": 3016, "Ĩ é": 3017, "Ĩ į": 3018, "Į «": 3019, "Į ä¸": 3020, "İ ħ": 3021, "ı ä¸": 3022, "Ķ ®": 3023, "ķ é": 3024, "Ļ æĺ": 3025, "ł ģ": 3026, "6 5": 3027, "Ad v": 3028, "Al b": 3029, "An t": 3030, "As s": 3031, "Au f": 3032, "C S": 3033, "Ch o": 3034, "D ay": 3035, "D iffer": 3036, "Differ e": 3037, "F rom": 3038, "G reen": 3039, "Gen d": 3040, "H ey": 3041, "M ein": 3042, "Men t": 3043, "P yth": 3044, "Pl an": 3045, "Prod uct": 3046, "Pyth o": 3047, "Rom e": 3048, "S al": 3049, "S pl": 3050, "Sh ar": 3051, "Spl i": 3052, "T ol": 3053, "Un s": 3054, "Ver b": 3055, "Wil l": 3056, "e att": 3057, "S eatt": 3058, "Seatt l": 3059, "e id": 3060, "L eid": 3061, "Leid er": 3062, "eb r": 3063, "em i": 3064, "en i": 3065, "k en": 3066, "r ay": 3067, "¢ ä¸": 3068, "¢ ĥ": 3069, "¤ æ": 3070, "§ °": 3071, "§ »": 3072, "¨ ä»": 3073, "¨ è®": 3074, "© çļ": 3075, "© è": 3076, "® ī": 3077, "¯ ¯": 3078, "° äº": 3079, "± çļ": 3080, "± Ģ": 3081, "± ķ": 3082, "· ±": 3083, "Ã Ł": 3084, "äº ĭ": 3085, "ä» £": 3086, "ä» ¬": 3087, "åħ ³": 3088, "åħ ´": 3089, "æ Ĳ": 3090, "æĸ ¯": 3091, "æĺ İ": 3092, "æľ ¯": 3093, "ç ¦": 3094, "çĶ µ": 3095, "è ·": 3096, "è İ": 3097, "è¯ Ĩ": 3098, "é¢ Ħ": 3099, "ģ Ķ": 3100, "ĥ ä¸": 3101, "Ĩ ç»": 3102, "ĩ ´": 3103, "Ī ±": 3104, "Ī ĺ": 3105, "ī é": 3106, "İ Ĩ": 3107, "Ĳ Ĺ": 3108, "ĳ ä»": 3109, "ĵ é": 3110, "Ķ »": 3111, "Ķ ¿": 3112, "ķ ä¸": 3113, "ķ Ī": 3114, "Ĺ ç»": 3115, "Ļ åı": 3116, "ļ ¾": 3117, "Ŀ £": 3118, "Ŀ Ĥ": 3119, "ŀ é": 3120, "ł ĳ": 3121, "' v": 3122, "'v e": 3123, "0 4": 3124, "0 5": 3125, "0 7": 3126, "14 0": 3127, "4 1": 3128, "4 5": 3129, "6 7": 3130, "A M": 3131, "A TP": 3132, "A cm": 3133, "A im": 3134, "A pr": 3135, "Acm e": 3136, "Al g": 3137, "Al th": 3138, "Apr i": 3139, "Ar r": 3140, "B ar": 3141, "B reak": 3142, "C am": 3143, "C in": 3144, "C og": 3145, "C ook": 3146, "CS S": 3147, "Cal i": 3148, "Cas es": 3149, "Cel s": 3150, "Ch al": 3151, "Cin d": 3152, "Cl im": 3153, "Cog g": 3154, "Cr a": 3155, "Cr im": 3156, "D an": 3157, "D ecl": 3158, "Decl ar": 3159, "Defin e": 3160, "Del l": 3161, "Des p": 3162, "Dis p": 3163, "E lect": 3164, "Ed u": 3165, "Em pl": 3166, "En j": 3167, "En t": 3168, "Ex c": 3169, "Ex p": 3170, "F iv": 3171, "F lor": 3172, "F low": 3173, "F Ã¼": 3174, "Fir s": 3175, "Fiv e": 3176, "Flor i": 3177, "For m": 3178, "G eb": 3179, "Gar d": 3180, "Ger m": 3181, "H ar": 3182, "H ood": 3183, "Har r": 3184, "I P": 3185, "I S": 3186, "I rel": 3187, "Im ag": 3188, "Irel an": 3189, "K en": 3190, "K il": 3191, "Kil l": 3192, "L im": 3193, "L itt": 3194, "Las s": 3195, "Lim ou": 3196, "Lin k": 3197, "Litt l": 3198, "M al": 3199, "M er": 3200, "M id": 3201, "M ob": 3202, "M ock": 3203, "Mar i": 3204, "Mar s": 3205, "Max wel": 3206, "Mid w": 3207, "Min d": 3208, "Mock in": 3209, "Mon i": 3210, "N ach": 3211, "N im": 3212, "Nim b": 3213, "O a": 3214, "O ccu": 3215, "O th": 3216, "Oa t": 3217, "Occu p": 3218, "Oth e": 3219, "P ott": 3220, "P rom": 3221, "Par a": 3222, "Pott er": 3223, "Prom o": 3224, "R as": 3225, "R ates": 3226, "R ear": 3227, "R el": 3228, "R id": 3229, "R os": 3230, "R oth": 3231, "Rear r": 3232, "Rev er": 3233, "Rid in": 3234, "Row l": 3235, "S in": 3236, "S ol": 3237, "S om": 3238, "S or": 3239, "S ov": 3240, "S pan": 3241, "S por": 3242, "S wal": 3243, "Sen d": 3244, "Som e": 3245, "Sov i": 3246, "Span i": 3247, "Spor t": 3248, "St ir": 3249, "Su n": 3250, "Su p": 3251, "Swal l": 3252, "T aqu": 3253, "T as": 3254, "T od": 3255, "T ou": 3256, "T rees": 3257, "Taqu er": 3258, "Tel e": 3259, "Th in": 3260, "Tod a": 3261, "Tou r": 3262, "Tu r": 3263, "Tw o": 3264, "U til": 3265, "Un f": 3266, "Un ion": 3267, "Util i": 3268, "V en": 3269, "V ir": 3270, "Vaccin e": 3271, "Veg an": 3272, "Veg e": 3273, "W al": 3274, "Wh o": 3275, "Wor k": 3276, "You T": 3277, "a cis": 3278, "a cu": 3279, "a is": 3280, "a or": 3281, "a per": 3282, "ab ov": 3283, "ab r": 3284, "ab u": 3285, "acis m": 3286, "act s": 3287, "ad j": 3288, "affein e": 3289, "ag in": 3290, "al r": 3291, "al v": 3292, "as a": 3293, "as c": 3294, "av ig": 3295, "av o": 3296, "b ean": 3297, "b lood": 3298, "b read": 3299, "b rok": 3300, "back ed": 3301, "bak er": 3302, "bar k": 3303, "bear s": 3304, "big g": 3305, "block ch": 3306, "blog g": 3307, "bon d": 3308, "brok en": 3309, "buil t": 3310, "c ad": 3311, "c affein": 3312, "c atch": 3313, "c im": 3314, "c iou": 3315, "c oal": 3316, "c oas": 3317, "caffein e": 3318, "cas e": 3319, "cas t": 3320, "ch es": 3321, "cim al": 3322, "ciou s": 3323, "cl a": 3324, "cl ov": 3325, "coas t": 3326, "cog g": 3327, "cook ed": 3328, "cook in": 3329, "cor on": 3330, "cr as": 3331, "cr is": 3332, "d I": 3333, "d epr": 3334, "d ial": 3335, "d ies": 3336, "d oin": 3337, "d ram": 3338, "dan g": 3339, "day s": 3340, "decl in": 3341, "ded i": 3342, "depr es": 3343, "detail s": 3344, "dial o": 3345, "dig es": 3346, "dim en": 3347, "dis r": 3348, "doin g": 3349, "dram a": 3350, "e acefu": 3351, "e ates": 3352, "e cam": 3353, "b ecam": 3354, "becam e": 3355, "e cim": 3356, "d ecim": 3357, "decim al": 3358, "e ck": 3359, "e per": 3360, "e pped": 3361, "e tes": 3362, "e ties": 3363, "eacefu l": 3364, "eact i": 3365, "eal in": 3366, "ear th": 3367, "eates t": 3368, "ecr u": 3369, "em al": 3370, "en th": 3371, "eph an": 3372, "etriev al": 3373, "eu s": 3374, "ex h": 3375, "ex i": 3376, "f au": 3377, "f ear": 3378, "f em": 3379, "f ix": 3380, "f lig": 3381, "f lood": 3382, "f ract": 3383, "f rag": 3384, "f requ": 3385, "f th": 3386, "fact s": 3387, "fail in": 3388, "fem al": 3389, "fig h": 3390, "fil es": 3391, "fir m": 3392, "fis h": 3393, "flig h": 3394, "flow er": 3395, "fon t": 3396, "fract i": 3397, "frequ en": 3398, "g b": 3399, "g d": 3400, "g ed": 3401, "gas es": 3402, "grad u": 3403, "guid an": 3404, "guid e": 3405, "h eav": 3406, "h ex": 3407, "h tt": 3408, "h yper": 3409, "hex a": 3410, "htt p": 3411, "i con": 3412, "i cr": 3413, "i eties": 3414, "c ieties": 3415, "i fth": 3416, "f ifth": 3417, "i om": 3418, "i pes": 3419, "i pid": 3420, "i ppin": 3421, "i tig": 3422, "icon i": 3423, "icr o": 3424, "id s": 3425, "in j": 3426, "ippin g": 3427, "ir ed": 3428, "is is": 3429, "is l": 3430, "is o": 3431, "itig a": 3432, "itt y": 3433, "j es": 3434, "j oin": 3435, "jes t": 3436, "k id": 3437, "k itch": 3438, "kid s": 3439, "kitch en": 3440, "l eph": 3441, "E leph": 3442, "Eleph an": 3443, "l ipid": 3444, "l ocation": 3445, "liv e": 3446, "look ed": 3447, "lov in": 3448, "low es": 3449, "m am": 3450, "m atch": 3451, "m ood": 3452, "mam m": 3453, "mod i": 3454, "n al": 3455, "n ation": 3456, "n av": 3457, "n for": 3458, "n know": 3459, "n lig": 3460, "n struct": 3461, "nav ig": 3462, "nem pl": 3463, "neu r": 3464, "nknow n": 3465, "nlig h": 3466, "nod es": 3467, "nstruct u": 3468, "o cieties": 3469, "o id": 3470, "o ps": 3471, "o tation": 3472, "ob b": 3473, "od d": 3474, "on c": 3475, "os es": 3476, "os h": 3477, "os p": 3478, "ov al": 3479, "ow er": 3480, "oz en": 3481, "p aper": 3482, "p b": 3483, "p d": 3484, "p eacefu": 3485, "p ean": 3486, "p eated": 3487, "e peated": 3488, "p epper": 3489, "p ict": 3490, "e pict": 3491, "d epict": 3492, "p k": 3493, "p ou": 3494, "p ps": 3495, "a pps": 3496, "p th": 3497, "e pth": 3498, "d epth": 3499, "depth s": 3500, "par en": 3501, "pd a": 3502, "peacefu l": 3503, "peer s": 3504, "per p": 3505, "ppl y": 3506, "pr is": 3507, "qu o": 3508, "r acis": 3509, "r ates": 3510, "r eact": 3511, "r eates": 3512, "g reates": 3513, "greates t": 3514, "r ecr": 3515, "r eez": 3516, "b reez": 3517, "breez e": 3518, "r efin": 3519, "r epeated": 3520, "r etriev": 3521, "r eu": 3522, "r oz": 3523, "r rou": 3524, "racis m": 3525, "react i": 3526, "read er": 3527, "read in": 3528, "receiv ed": 3529, "recr u": 3530, "reg ion": 3531, "repl a": 3532, "repr o": 3533, "rev e": 3534, "rin k": 3535, "rou t": 3536, "rrou n": 3537, "s ab": 3538, "s acr": 3539, "s can": 3540, "s cor": 3541, "s eal": 3542, "s efu": 3543, "s hel": 3544, "s ocieties": 3545, "sad n": 3546, "scen a": 3547, "scor e": 3548, "scr i": 3549, "sect i": 3550, "seem ed": 3551, "sefu l": 3552, "shav e": 3553, "show s": 3554, "sig h": 3555, "snak e": 3556, "snak es": 3557, "sol d": 3558, "star s": 3559, "suppos ed": 3560, "sw a": 3561, "t S": 3562, "t ead": 3563, "s tead": 3564, "t een": 3565, "t epped": 3566, "s tepped": 3567, "t ick": 3568, "t rag": 3569, "t ril": 3570, "t rol": 3571, "tak en": 3572, "tax es": 3573, "team w": 3574, "teen a": 3575, "th l": 3576, "tol d": 3577, "tool k": 3578, "tou c": 3579, "tow ar": 3580, "u is": 3581, "u ited": 3582, "s uited": 3583, "u nem": 3584, "u nfor": 3585, "u nknow": 3586, "u nlig": 3587, "s unlig": 3588, "sunlig h": 3589, "u nstruct": 3590, "u ou": 3591, "u rrou": 3592, "s urrou": 3593, "surrou n": 3594, "u sefu": 3595, "unem pl": 3596, "unknow n": 3597, "unstruct u": 3598, "usefu l": 3599, "v ey": 3600, "r vey": 3601, "u rvey": 3602, "s urvey": 3603, "v iol": 3604, "vehicl es": 3605, "vir u": 3606, "w ag": 3607, "w fou": 3608, "e wfou": 3609, "ewfou n": 3610, "n ewfou": 3611, "newfou n": 3612, "was h": 3613, "watch ed": 3614, "weak en": 3615, "wol f": 3616, "wom an": 3617, "wr o": 3618, "¡ çļ": 3619, "¤ è": 3620, "¥ ¿": 3621, "¬ ¦": 3622, "¬ ä¸": 3623, "² ä¸": 3624, "² Ļ": 3625, "µ Ľ": 3626, "¶ £": 3627, "· ®": 3628, "¸ ®": 3629, "¹ °": 3630, "¹ åı": 3631, "º ĵ": 3632, "¼ å": 3633, "½ é": 3634, "½ Ĵ": 3635, "¾ ·": 3636, "¿ çļ": 3637, "äº §": 3638, "å £": 3639, "å ĴĮ": 3640, "å¦Ĥ ä½": 3641, "å° ı": 3642, "å½ ĵ": 3643, "åħ ¨": 3644, "æ »": 3645, "æ ĳ": 3646, "æī ĵ": 3647, "æĶ ¹": 3648, "è Į": 3649, "é »": 3650, "éĢ ļ": 3651, "éĤ £": 3652, "ĠĠ ĠĠĠĠ": 3653, "ĠĠ ĠĠĠĠĠĠ": 3654, "ĠĠĠĠĠĠĠĠ Ġ": 3655, "ĥ é": 3656, "Ħ åĪ": 3657, "Ĩ åı": 3658, "Ĭ ¤": 3659, "Į é": 3660, "į ĩ": 3661, "į ļ": 3662, "Ĳ äº": 3663, "Ĳ Ħ": 3664, "ĳ ³": 3665, "ĳ æĺ": 3666, "ĳ çļ": 3667, "Ĵ ç": 3668, "Ĺ ä»": 3669, "Ĺ æľ": 3670, "ĺ é": 3671, "ļ è¿": 3672, "Ľ ¢": 3673, "ľ ĭ": 3674, "Ŀ Ģ": 3675, "Ŀ ĩ": 3676, "Ŀ Ĳ": 3677, "ŀ ģ": 3678, "ł ·": 3679, "ł é": 3680, "2 6": 3681, "AP I": 3682, "B rain": 3683, "C of": 3684, "Cl ou": 3685, "Cou r": 3686, "Dan k": 3687, "Dies es": 3688, "FÃ¼ r": 3689, "G ov": 3690, "Geb en": 3691, "Ger n": 3692, "Gib t": 3693, "J am": 3694, "Kl as": 3695, "N eu": 3696, "N u": 3697, "Nor w": 3698, "Nu n": 3699, "O ct": 3700, "P or": 3701, "Par k": 3702, "R ich": 3703, "T rad": 3704, "Tak e": 3705, "an th": 3706, "es a": 3707, "gan i": 3708, "i tz": 3709, "leg en": 3710, "n tes": 3711, "o tos": 3712, "h otos": 3713, "P hotos": 3714, "Photos y": 3715, "on k": 3716, "or f": 3717, "p ack": 3718, "r gan": 3719, "O rgan": 3720, "Organ i": 3721, "r oper": 3722, "P roper": 3723, "rog en": 3724, "¡ º": 3725, "¢ çļ": 3726, "£ ħ": 3727, "£ İ": 3728, "§ Ĩ": 3729, "ª Ĺ": 3730, "¬ ĳ": 3731, "° çļ": 3732, "± ¡": 3733, "² ¡": 3734, "² ³": 3735, "² »": 3736, "² çļ": 3737, "´ ä¸": 3738, "¶ ä¸": 3739, "¶ ħ": 3740, "¸ ģ": 3741, "¹ äº": 3742, "¼ æ": 3743, "½ »": 3744, "½ ä¸": 3745, "¾ ¤": 3746, "¿ ä¸": 3747, "¿ ħ": 3748, "Ã ©": 3749, "äº Į": 3750, "ä¼ ļ": 3751, "å Ĥ": 3752, "å Ķ": 3753, "å ł": 3754, "å¿ «": 3755, "åĪ Ĵ": 3756, "åı ĺ": 3757, "æ ¤": 3758, "æ ·": 3759, "æ Ĵ": 3760, "æĬ Ģ": 3761, "æĬ Ĭ": 3762, "æķ Ļ": 3763, "æĸ °": 3764, "æŀ Ħ": 3765, "ç ¢": 3766, "ç ħ": 3767, "ç» ´": 3768, "è Ī": 3769, "è ĳ": 3770, "è® º": 3771, "è¯ ¥": 3772, "è¯ ·": 3773, "è¿ ĩ": 3774, "é ¸": 3775, "é ŀ": 3776, "Ģ åı": 3777, "Ģ Ģ": 3778, "Ĥ ¼": 3779, "Ĥ é": 3780, "ħ §": 3781, "ħ çļ": 3782, "Ĩ µ": 3783, "Ĩ Ĵ": 3784, "ĩ ä¸": 3785, "ī ĩ": 3786, "Ĭ ä»": 3787, "Į æľ": 3788, "Į ģ": 3789, "Į ĳ": 3790, "į ģ": 3791, "İ ·": 3792, "ı æľ": 3793, "ı Ĺ": 3794, "ĳ æĸ": 3795, "ĵ ª": 3796, "ĵ ¶": 3797, "ĵ çļ": 3798, "ķ åĪ": 3799, "ķ æĺ": 3800, "ĸ åĨ": 3801, "ĸ çļ": 3802, "ĸ ľ": 3803, "Ĺ ¨": 3804, "ĺ çļ": 3805, "ĺ è": 3806, "ļ ä»": 3807, "ļ Ĳ": 3808, "ļ ĸ": 3809, "Ľ ¨": 3810, "Ľ Ľ": 3811, "Ł ĵ": 3812, "ł ¡": 3813, "' l": 3814, "' r": 3815, "'l l": 3816, "'r e": 3817, "0 8": 3818, "07 8": 3819, "13 2": 3820, "15 6": 3821, "19 2": 3822, "19 5": 3823, "19 6": 3824, "19 7": 3825, "3 00": 3826, "3 04": 3827, "3 1": 3828, "3 6": 3829, "3 7": 3830, "35 0": 3831, "5 3": 3832, "53 0": 3833, "6 4": 3834, "62 5": 3835, "65 0": 3836, "7 0": 3837, "7 5": 3838, "A ccou": 3839, "A ct": 3840, "A ir": 3841, "A ppear": 3842, "A y": 3843, "Accou n": 3844, "Act or": 3845, "Al i": 3846,
[...]
