{"vocab_size": 5000, "bos_token": "<s>", "eos_token": "</s>", "pad_token": "<pad>", "all_special": ["<s>", "</s>", "<pad>", "<sys>", "<usr>", "<ai>"], "token_to_id": {"<s>": 0, "</s>": 1, "<pad>": 2, "<sys>": 3, "<usr>": 4, "<ai>": 5, "Ā": 6, "ā": 7, "Ă": 8, "ă": 9, "Ą": 10, "ą": 11, "Ć": 12, "ć": 13, "Ĉ": 14, "ĉ": 15, "Ċ": 16, "ċ": 17, "Č": 18, "č": 19, "Ď": 20, "ď": 21, "Đ": 22, "đ": 23, "Ē": 24, "ē": 25, "Ĕ": 26, "ĕ": 27, "Ė": 28, "ė": 29, "Ę": 30, "ę": 31, "Ě": 32, "ě": 33, "Ĝ": 34, "ĝ": 35, "Ğ": 36, "ğ": 37, "Ġ": 38, "!": 39, "\"": 40, "#": 41, "$": 42, "%": 43, "&": 44, "'": 45, "(": 46, ")": 47, "*": 48, "+": 49, ",": 50, "-": 51, ".": 52, "/": 53, "0": 54, "1": 55, "2": 56, "3": 57, "4": 58, "5": 59, "6": 60, "7": 61, "8": 62, "9": 63, ":": 64, ";": 65, "<": 66, "=": 67, ">": 68, "?": 69, "@": 70, "A": 71, "B": 72, "C": 73, "D": 74, "E": 75, "F": 76, "G": 77, "H": 78, "I": 79, "J": 80, "K": 81, "L": 82, "M": 83, "N": 84, "O": 85, "P": 86, "Q": 87, "R": 88, "S": 89, "T": 90, "U": 91, "V": 92, "W": 93, "X": 94, "Y": 95, "Z": 96, "[": 97, "\\": 98, "]": 99, "^": 100, "_": 101, "`": 102, "a": 103, "b": 104, "c": 105, "d": 106, "e": 107, "f": 108, "g": 109, "h": 110, "i": 111, "j": 112, "k": 113, "l": 114, "m": 115, "n": 116, "o": 117, "p": 118, "q": 119, "r": 120, "s": 121, "t": 122, "u": 123, "v": 124, "w": 125, "x": 126, "y": 127, "z": 128, "{": 129, "|": 130, "}": 131, "~": 132, "ġ": 133, "Ģ": 134, "ģ": 135, "Ĥ": 136, "ĥ": 137, "Ħ": 138, "ħ": 139, "Ĩ": 140, "ĩ": 141, "Ī": 142, "ī": 143, "Ĭ": 144, "ĭ": 145, "Į": 146, "į": 147, "İ": 148, "ı": 149, "Ĳ": 150, "ĳ": 151, "Ĵ": 152, "ĵ": 153, "Ķ": 154, "ķ": 155, "ĸ": 156, "Ĺ": 157, "ĺ": 158, "Ļ": 159, "ļ": 160, "Ľ": 161, "ľ": 162, "Ŀ": 163, "ŀ": 164, "Ł": 165, "ł": 166, "¡": 167, "¢": 168, "£": 169, "¤": 170, "¥": 171, "¦": 172, "§": 173, "¨": 174, "©": 175, "ª": 176, "«": 177, "¬": 178, "Ń": 179, "®": 180, "¯": 181, "°": 182, "±": 183, "²": 184, "³": 185, "´": 186, "µ": 187, "¶": 188, "·": 189, "¸": 190, "¹": 191, "º": 192, "»": 193, "¼": 194, "½": 195, "¾": 196, "¿": 197, "À": 198, "Á": 199, "Â": 200, "Ã": 201, "Ä": 202, "Å": 203, "Æ": 204, "Ç": 205, "È": 206, "É": 207, "Ê": 208, "Ë": 209, "Ì": 210, "Í": 211, "Î": 212, "Ï": 213, "Ð": 214, "Ñ": 215, "Ò": 216, "Ó": 217, "Ô": 218, "Õ": 219, "Ö": 220, "×": 221, "Ø": 222, "Ù": 223, "Ú": 224, "Û": 225, "Ü": 226, "Ý": 227, "Þ": 228, "ß": 229, "à": 230, "á": 231, "â": 232, "ã": 233, "ä": 234, "å": 235, "æ": 236, "ç": 237, "è": 238, "é": 239, "ê": 240, "ë": 241, "ì": 242, "í": 243, "î": 244, "ï": 245, "ð": 246, "ñ": 247, "ò": 248, "ó": 249, "ô": 250, "õ": 251, "ö": 252, "÷": 253, "ø": 254, "ù": 255, "ú": 256, "û": 257, "ü": 258, "ý": 259, "þ": 260, "ÿ": 261, "nextĠstudio": 262, "NextĠStudio": 263, "NextStudio": 264, "ä¸ĭä¸Ģä»£å·¥ä½ľå®¤": 265, "ä¸ĭä¸Ģä¸ªå·¥ä½ľå®¤": 266, "NextAI": 267, "nextai": 268, "ä¸ĭä¸Ģä¸ªAI": 269, "th": 270, "in": 271, "es": 272, "on": 273, "an": 274, "at": 275, "er": 276, "en": 277, "re": 278, "el": 279, "the": 280, "st": 281, "ri": 282, "ti": 283, "or": 284, "ing": 285, "as": 286, "ow": 287, "al": 288, "is": 289, "and": 290, "ro": 291, "le": 292, "to": 293, "se": 294, "te": 295, "uc": 296, "that": 297, "tion": 298, "ar": 299, "elow": 300, "co": 301, "Below": 302, "he": 303, "ic": 304, "of": 305, "pro": 306, "ĊĊ": 307, "ou": 308, "str": 309, "mp": 310, "ent": 311, "ed": 312, "struc": 313, "esp": 314, "ch": 315, "espon": 316, "struction": 317, "esponse": 318, "it": 319, "In": 320, "The": 321, "ap": 322, "des": 323, "ion": 324, "de": 325, "for": 326, "ut": 327, "ate": 328, "ur": 329, "be": 330, "qu": 331, "est": 332, "ac": 333, "ve": 334, "con": 335, "ol": 336, "me": 337, "comp": 338, "wi": 339, "rite": 340, "vi": 341, "cri": 342, "un": 343, "ce": 344, "ation": 345, "li": 346, "mo": 347, "Write": 348, "ge": 349, "ab": 350, "pri": 351, "ask": 352, "with": 353, "ely": 354, "task": 355, "comple": 356, "ma": 357, "descri": 358, "requ": 359, "ther": 360, "put": 361, "ly": 362, "appro": 363, "ĠĠ": 364, "ately": 365, "ess": 366, "describ": 367, "tes": 368, "response": 369, "request": 370, "instruction": 371, "ul": 372, "appropri": 373, "are": 374, "describes": 375, "ad": 376, "Instruction": 377, "Response": 378, "appropriately": 379, "completes": 380, "pl": 381, "ver": 382, "us": 383, "red": 384, "ne": 385, "wh": 386, "ine": 387, "gh": 388, "si": 389, "lo": 390, "low": 391, "ter": 392, "ai": 393, "ment": 394, "di": 395, "ain": 396, "ay": 397, "ke": 398, "Du": 399, "so": 400, "ie": 401, "wor": 402, "ex": 403, "ener": 404, "ers": 405, "op": 406, "ts": 407, "can": 408, "il": 409, "provi": 410, "ence": 411, "ec": 412, "our": 413, "um": 414, "tr": 415, "we": 416, "am": 417, "ir": 418, "tex": 419, "text": 420, "sh": 421, "use": 422, "ff": 423, "sp": 424, "cre": 425, "lowing": 426, "able": 427, "input": 428, "po": 429, "ich": 430, "ant": 431, "fol": 432, "fur": 433, "ld": 434, "om": 435, "provides": 436, "oo": 437, "age": 438, "gr": 439, "further": 440, "by": 441, "ure": 442, "following": 443, "enti": 444, "context": 445, "out": 446, "pai": 447, "Input": 448, "paired": 449, "Ich": 450, "De": 451, "et": 452, "ci": 453, "all": 454, "Al": 455, "Th": 456, "em": 457, "ght": 458, "was": 459, "ive": 460, "åĪ": 461, "der": 462, "ven": 463, "gn": 464, "cl": 465, "cess": 466, "ally": 467, "sent": 468, "ust": 469, "ind": 470, "enerate": 471, "up": 472, "ted": 473, "one": 474, "pe": 475, "ces": 476, "form": 477, "ty": 478, "ave": 479, "king": 480, "ĠĠĠĠ": 481, "Nat": 482, "rom": 483, "ze": 484, "com": 485, "suc": 486, "res": 487, "ity": 488, "ag": 489, "è¾": 490, "end": 491, "Generate": 492, "Wh": 493, "è¾ĵ": 494, "Die": 495, "has": 496, "sentence": 497, "from": 498, "ast": 499, "ort": 500, "gi": 501, "ä¸": 502, "its": 503, "ds": 504, "go": 505, "ew": 506, "per": 507, "imp": 508, "Das": 509, "ame": 510, "used": 511, "duc": 512, "im": 513, "gy": 514, "more": 515, "Als": 516, "He": 517, "çĶ": 518, "ach": 519, "ann": 520, "fy": 521, "ould": 522, "ct": 523, "also": 524, "Des": 525, "ase": 526, "dat": 527, "have": 528, "tic": 529, "no": 530, "ang": 531, "bo": 532, "Cre": 533, "cont": 534, "ous": 535, "tions": 536, "ere": 537, "ful": 538, "'s": 539, "such": 540, "vel": 541, "oun": 542, "su": 543, "Create": 544, "Deine": 545, "par": 546, "hi": 547, "This": 548, "their": 549, "ting": 550, "What": 551, "bet": 552, "work": 553, "âĢ": 554, "del": 555, "Ex": 556, "ll": 557, "sy": 558, "ree": 559, "Kann": 560, "do": 561, "ater": 562, "which": 563, "Co": 564, "plain": 565, "au": 566, "ance": 567, "id": 568, "hel": 569, "Kannst": 570, "ated": 571, "fe": 572, "mar": 573, "ans": 574, "ble": 575, "ell": 576, "fic": 577, "ffer": 578, "tive": 579, "ations": 580, "cribe": 581, "ack": 582, "sol": 583, "Describe": 584, "data": 585, "ies": 586, "ser": 587, "Es": 588, "ace": 589, "ile": 590, "br": 591, "ning": 592, "any": 593, "val": 594, "ange": 595, "ect": 596, "lear": 597, "ep": 598, "help": 599, "ist": 600, "other": 601, "comm": 602, "ical": 603, "new": 604, "clu": 605, "should": 606, "Was": 607, "ms": 608, "cor": 609, "æı": 610, "An": 611, "produc": 612, "ves": 613, "Der": 614, "ph": 615, "ased": 616, "ear": 617, "way": 618, "ari": 619, "vic": 620, "Pro": 621, "ier": 622, "cis": 623, "icher": 624, "incre": 625, "your": 626, "åĨ": 627, "ak": 628, "Explain": 629, "Sicher": 630, "coun": 631, "inter": 632, "own": 633, "ving": 634, "cur": 635, "ake": 636, "ca": 637, "dis": 638, "differ": 639, "ite": 640, "iz": 641, "inclu": 642, "process": 643, "about": 644, "che": 645, "It": 646, "ative": 647, "lar": 648, "atur": 649, "stem": 650, "ating": 651, "ding": 652, "given": 653, "line": 654, "She": 655, "ween": 656, "AI": 657, "list": 658, "vir": 659, "gg": 660, "åĨĻ": 661, "æĪ": 662, "between": 663, "eff": 664, "most": 665, "ass": 666, "stor": 667, "çĶŁ": 668, "10": 669, "ber": 670, "ue": 671, "ign": 672, "è¿": 673, "Gi": 674, "alth": 675, "energy": 676, "int": 677, "system": 678, "assi": 679, "ties": 680, "les": 681, "ood": 682, "pre": 683, "und": 684, "Comp": 685, "ard": 686, "cul": 687, "ient": 688, "ill": 689, "model": 690, "sk": 691, "web": 692, "Ch": 693, "act": 694, "ary": 695, "ople": 696, "æĪĳ": 697, "è¿Ļ": 698, "entify": 699, "ia": 700, "man": 701, "ors": 702, "reduc": 703, "time": 704, "ustom": 705, "make": 706, "bu": 707, "chn": 708, "ore": 709, "tri": 710, "Name": 711, "Ad": 712, "app": 713, "gre": 714, "into": 715, "ong": 716, "will": 717, "âĢĻ": 718, "dr": 719, "Find": 720, "med": 721, "pr": 722, "Id": 723, "net": 724, "è®": 725, "Klar": 726, "ight": 727, "import": 728, "led": 729, "like": 730, "ments": 731, "plan": 732, "gram": 733, "åĪĽ": 734, "get": 735, "ial": 736, "over": 737, "ower": 738, "world": 739, "20": 740, "cial": 741, "decis": 742, "eng": 743, "people": 744, "using": 745, "oc": 746, "decision": 747, "lim": 748, "while": 749, "åĪĹ": 750, "than": 751, "ats": 752, "ev": 753, "techn": 754, "they": 755, "Con": 756, "aly": 757, "sing": 758, "ences": 759, "ever": 760, "day": 761, "ud": 762, "ä»": 763, "Rew": 764, "cr": 765, "col": 766, "num": 767, "stand": 768, "ved": 769, "cal": 770, "erson": 771, "learning": 772, "ob": 773, "power": 774, "tur": 775, "fi": 776, "Rewrite": 777, "dition": 778, "water": 779, "Identify": 780, "custom": 781, "how": 782, "ick": 783, "min": 784, "als": 785, "this": 786, "bl": 787, "fin": 788, "ä¸º": 789, "æıı": 790, "his": 791, "peri": 792, "tain": 793, "cer": 794, "high": 795, "ates": 796, "olo": 797, "ound": 798, "under": 799, "ho": 800, "ication": 801, "iness": 802, "not": 803, "ources": 804, "pic": 805, "St": 806, "amp": 807, "art": 808, "bal": 809, "come": 810, "health": 811, "light": 812, "who": 813, "ility": 814, "important": 815, "reduce": 816, "story": 817, "åľ": 818, "Given": 819, "ases": 820, "cy": 821, "word": 822, "è§": 823, "My": 824, "appl": 825, "ction": 826, "create": 827, "some": 828, "stud": 829, "tra": 830, "viron": 831, "fl": 832, "Um": 833, "è§£": 834, "cent": 835, "ip": 836, "ish": 837, "read": 838, "rou": 839, "velop": 840, "å°": 841, "æī": 842, "Dies": 843, "acti": 844, "bus": 845, "kn": 846, "lassi": 847, "ren": 848, "rize": 849, "comput": 850, "gan": 851, "off": 852, "thing": 853, "ese": 854, "Wow": 855, "include": 856, "there": 857, "vice": 858, "words": 859, "fr": 860, "struct": 861, "if": 862, "oy": 863, "round": 864, "vide": 865, "åľ¨": 866, "æī¾": 867, "Re": 868, "accur": 869, "different": 870, "lead": 871, "provide": 872, "vis": 873, "Addition": 874, "Additionally": 875, "List": 876, "ens": 877, "ents": 878, "but": 879, "been": 880, "cap": 881, "ize": 882, "ution": 883, "ink": 884, "tw": 885, "two": 886, "life": 887, "making": 888, "pres": 889, "technolo": 890, "when": 891, "äº": 892, "aph": 893, "ggest": 894, "tim": 895, "è¯": 896, "atures": 897, "cu": 898, "environ": 899, "impro": 900, "inform": 901, "person": 902, "å¥": 903, "Ein": 904, "En": 905, "af": 906, "examp": 907, "os": 908, "ose": 909, "order": 910, "redic": 911, "æł": 912, "commun": 913, "conom": 914, "ele": 915, "hum": 916, "set": 917, "tom": 918, "understand": 919, "çĶ¨": 920, "They": 921, "Wie": 922, "less": 923, "rough": 924, "vers": 925, "19": 926, "On": 927, "We": 928, "Wel": 929, "ability": 930, "av": 931, "angu": 932, "ature": 933, "business": 934, "pur": 935, "reco": 936, "å°Ĩ": 937, "Classi": 938, "Classify": 939, "air": 940, "care": 941, "example": 942, "ple": 943, "pot": 944, "ential": 945, "Su": 946, "Tr": 947, "arr": 948, "develop": 949, "experi": 950, "hn": 951, "Jo": 952, "my": 953, "ook": 954, "well": 955, "John": 956, "ics": 957, "char": 958, "inv": 959, "limate": 960, "mer": 961, "umma": 962, "back": 963, "aw": 964, "change": 965, "ded": 966, "econom": 967, "glo": 968, "mag": 969, "network": 970, "pat": 971, "pol": 972, "prof": 973, "rect": 974, "emp": 975, "spe": 976, "Un": 977, "ten": 978, "ck": 979, "ail": 980, "anguage": 981, "food": 982, "ok": 983, "predic": 984, "potential": 985, "recogn": 986, "sign": 987, "success": 988, "technology": 989, "turn": 990, "year": 991, "Provide": 992, "Summa": 993, "conne": 994, "graph": 995, "loy": 996, "spec": 997, "vices": 998, "Cal": 999, "Summarize": 1000, "based": 1001, "blo": 1002, "culate": 1003, "orts": 1004, "play": 1005, "pos": 1006, "social": 1007, "strate": 1008, "tasks": 1009, "type": 1010, "ustr": 1011, "ular": 1012, "what": 1013, "ä½": 1014, "æł¹": 1015, "ition": 1016, "mon": 1017, "sm": 1018, "side": 1019, "vation": 1020, "How": 1021, "both": 1022, "environment": 1023, "gener": 1024, "ited": 1025, "ject": 1026, "ming": 1027, "need": 1028, "quick": 1029, "resul": 1030, "ries": 1031, "car": 1032, "site": 1033, "through": 1034, "website": 1035, "Be": 1036, "ide": 1037, "atural": 1038, "ced": 1039, "fun": 1040, "good": 1041, "ily": 1042, "mach": 1043, "natural": 1044, "ä¸Ģ": 1045, "As": 1046, "War": 1047, "area": 1048, "bers": 1049, "better": 1050, "cm": 1051, "coul": 1052, "could": 1053, "def": 1054, "design": 1055, "exp": 1056, "fac": 1057, "find": 1058, "mem": 1059, "od": 1060, "page": 1061, "proble": 1062, "program": 1063, "ques": 1064, "sel": 1065, "æľ": 1066, "Hier": 1067, "ben": 1068, "ef": 1069, "many": 1070, "right": 1071, "uch": 1072, "uni": 1073, "ath": 1074, "adv": 1075, "bi": 1076, "being": 1077, "climate": 1078, "contain": 1079, "eas": 1080, "ects": 1081, "effic": 1082, "gu": 1083, "ific": 1084, "increase": 1085, "ings": 1086, "language": 1087, "part": 1088, "rel": 1089, "three": 1090, "vari": 1091, "æıĲ": 1092, "ç»": 1093, "ĠĠĠĠĠĠĠĠ": 1094, "Make": 1095, "Suggest": 1096, "clo": 1097, "cep": 1098, "ficial": 1099, "team": 1100, "è®¡": 1101, "Give": 1102, "around": 1103, "allow": 1104, "analy": 1105, "each": 1106, "ewable": 1107, "fore": 1108, "ications": 1109, "information": 1110, "qual": 1111, "return": 1112, "ual": 1113, "uses": 1114, "would": 1115, "ather": 1116, "book": 1117, "dri": 1118, "vid": 1119, "¦Ĥ": 1120, "For": 1121, "had": 1122, "Sch": 1123, "tt": 1124, "aut": 1125, "arti": 1126, "customer": 1127, "ession": 1128, "fir": 1129, "iel": 1130, "ice": 1131, "improve": 1132, "items": 1133, "long": 1134, "media": 1135, "models": 1136, "ori": 1137, "online": 1138, "opp": 1139, "range": 1140, "reg": 1141, "she": 1142, "sum": 1143, "sur": 1144, "Design": 1145, "ball": 1146, "bre": 1147, "chang": 1148, "ines": 1149, "land": 1150, "mis": 1151, "gori": 1152, "ot": 1153, "rest": 1154, "sible": 1155, "ä»¥": 1156, "æĬ": 1157, "202": 1158, "Calculate": 1159, "So": 1160, "acy": 1161, "consi": 1162, "enn": 1163, "ffic": 1164, "global": 1165, "human": 1166, "ions": 1167, "love": 1168, "machine": 1169, "ouse": 1170, "pass": 1171, "prote": 1172, "product": 1173, "ric": 1174, "sources": 1175, "ste": 1176, "take": 1177, "try": 1178, "were": 1179, "ways": 1180, "why": 1181, "gin": 1182, "ized": 1183, "lig": 1184, "mul": 1185, "sup": 1186, "tiv": 1187, "ticle": 1188, "Fin": 1189, "One": 1190, "ables": 1191, "action": 1192, "cause": 1193, "count": 1194, "fam": 1195, "five": 1196, "ghts": 1197, "gorith": 1198, "house": 1199, "head": 1200, "home": 1201, "joy": 1202, "know": 1203, "made": 1204, "may": 1205, "marke": 1206, "mean": 1207, "ness": 1208, "number": 1209, "perform": 1210, "poem": 1211, "que": 1212, "quickly": 1213, "stay": 1214, "store": 1215, "test": 1216, "tool": 1217, "where": 1218, "å¦Ĥ": 1219, "US": 1220, "Welche": 1221, "ash": 1222, "employ": 1223, "gen": 1224, "issu": 1225, "pose": 1226, "sis": 1227, "sts": 1228, "ually": 1229, "event": 1230, "Construct": 1231, "asing": 1232, "autom": 1233, "cle": 1234, "content": 1235, "educ": 1236, "gies": 1237, "hand": 1238, "ili": 1239, "level": 1240, "nam": 1241, "phr": 1242, "reat": 1243, "ros": 1244, "sci": 1245, "ship": 1246, "systems": 1247, "tal": 1248, "Analy": 1249, "aking": 1250, "arch": 1251, "atch": 1252, "correct": 1253, "ective": 1254, "mper": 1255, "vert": 1256, "åı": 1257, "'t": 1258, "Im": 1259, "mi": 1260, "Viel": 1261, "article": 1262, "efficient": 1263, "elect": 1264, "game": 1265, "last": 1266, "patient": 1267, "sitive": 1268, "state": 1269, "step": 1270, "successful": 1271, "tern": 1272, "trans": 1273, "value": 1274, "virus": 1275, "å¾": 1276, "ama": 1277, "acter": 1278, "ages": 1279, "ctor": 1280, "Do": 1281, "hy": 1282, "hed": 1283, "let": 1284, "tics": 1285, "ural": 1286, "äºº": 1287, "Ar": 1288, "avi": 1289, "access": 1290, "algorith": 1291, "allowing": 1292, "certain": 1293, "communication": 1294, "customers": 1295, "economy": 1296, "education": 1297, "face": 1298, "features": 1299, "first": 1300, "gs": 1301, "great": 1302, "imag": 1303, "ically": 1304, "inno": 1305, "increased": 1306, "mary": 1307, "movi": 1308, "movie": 1309, "ner": 1310, "often": 1311, "old": 1312, "only": 1313, "ory": 1314, "phrase": 1315, "pically": 1316, "present": 1317, "service": 1318, "sph": 1319, "uture": 1320, "view": 1321, "å¥¹": 1322, "å¾Ī": 1323, "åĪĨ": 1324, "ç»Ļ": 1325, "è®¾": 1326, "Br": 1327, "Sie": 1328, "bel": 1329, "blic": 1330, "inu": 1331, "ital": 1332, "move": 1333, "roduc": 1334, "services": 1335, "sky": 1336, "temper": 1337, "ublic": 1338, "åĪ¶": 1339, "15": 1340, "Amer": 1341, "Americ": 1342, "Ne": 1343, "ancial": 1344, "applications": 1345, "atform": 1346, "atmo": 1347, "atmosph": 1348, "ctions": 1349, "ire": 1350, "complex": 1351, "equ": 1352, "even": 1353, "earch": 1354, "ellig": 1355, "ending": 1356, "ends": 1357, "expl": 1358, "feel": 1359, "ien": 1360, "ious": 1361, "just": 1362, "key": 1363, "large": 1364, "mil": 1365, "much": 1366, "organ": 1367, "place": 1368, "platform": 1369, "recent": 1370, "rele": 1371, "resources": 1372, "sal": 1373, "sun": 1374, "self": 1375, "small": 1376, "study": 1377, "supp": 1378, "tran": 1379, "typically": 1380, "understanding": 1381, "uring": 1382, "war": 1383, "å¯": 1384, "Analyze": 1385, "Convert": 1386, "akes": 1387, "sn": 1388, "anim": 1389, "bt": 1390, "cept": 1391, "cour": 1392, "due": 1393, "gative": 1394, "thou": 1395, "wal": 1396, "Compare": 1397, "Er": 1398, "Vielen": 1399, "Wer": 1400, "aur": 1401, "abl": 1402, "ons": 1403, "ank": 1404, "Fr": 1405, "ational": 1406, "businesses": 1407, "cover": 1408, "country": 1409, "creating": 1410, "down": 1411, "dep": 1412, "decisions": 1413, "ered": 1414, "every": 1415, "experience": 1416, "found": 1417, "fru": 1418, "grow": 1419, "ills": 1420, "mine": 1421, "mental": 1422, "multi": 1423, "open": 1424, "price": 1425, "processing": 1426, "rees": 1427, "rep": 1428, "restaur": 1429, "ses": 1430, "sit": 1431, "something": 1432, "ster": 1433, "trees": 1434, "years": 1435, "ãĢ": 1436, "ä¸ĭ": 1437, "æĺ": 1438, "Once": 1439, "anke": 1440, "bat": 1441, "tle": 1442, "cho": 1443, "phy": 1444, "termine": 1445, "these": 1446, "ung": 1447, "vol": 1448, "weet": 1449, "»º": 1450, "å»º": 1451, "12": 1452, "18": 1453, "Eine": 1454, "France": 1455, "accurate": 1456, "atmosphere": 1457, "benef": 1458, "character": 1459, "color": 1460, "computers": 1461, "don": 1462, "deli": 1463, "very": 1464, "does": 1465, "elements": 1466, "future": 1467, "images": 1468, "infl": 1469, "including": 1470, "increasing": 1471, "intellig": 1472, "iss": 1473, "job": 1474, "la": 1475, "larg": 1476, "learn": 1477, "ledge": 1478, "lives": 1479, "maj": 1480, "manage": 1481, "novel": 1482, "numbers": 1483, "ox": 1484, "pap": 1485, "pop": 1486, "planet": 1487, "problem": 1488, "rial": 1489, "solut": 1490, "spread": 1491, "structure": 1492, "tical": 1493, "ãĢĬ": 1494, "Au": 1495, "Da": 1496, "Danke": 1497, "Wor": 1498, "den": 1499, "dy": 1500, "fle": 1501, "fri": 1502, "public": 1503, "syn": 1504, "ony": 1505, "ult": 1506, "ustain": 1507, "âĢľ": 1508, "å¥½": 1509, "Finally": 1510, "Schri": 1511, "Schritt": 1512, "Trans": 1513, "away": 1514, "account": 1515, "application": 1516, "ards": 1517, "artificial": 1518, "ati": 1519, "best": 1520, "become": 1521, "cure": 1522, "caused": 1523, "cise": 1524, "computer": 1525, "ders": 1526, "din": 1527, "eth": 1528, "explain": 1529, "fer": 1530, "gl": 1531, "gether": 1532, "going": 1533, "healthcare": 1534, "ideas": 1535, "insp": 1536, "internet": 1537, "itch": 1538, "knowledge": 1539, "levels": 1540, "meaning": 1541, "oney": 1542, "oper": 1543, "pain": 1544, "paper": 1545, "performance": 1546, "production": 1547, "respon": 1548, "restaurant": 1549, "sentences": 1550, "show": 1551, "statement": 1552, "together": 1553, "topic": 1554, "tries": 1555, "ustry": 1556, "Compose": 1557, "Health": 1558, "Se": 1559, "Tw": 1560, "ah": 1561, "ones": 1562, "ax": 1563, "ane": 1564, "divid": 1565, "ieren": 1566, "itor": 1567, "mat": 1568, "run": 1569, "ture": 1570, "¡®": 1571, "åħ": 1572, "å¯¹": 1573, "æĢ": 1574, "æĤ": 1575, "ç¡®": 1576, "éĢ": 1577, "Diese": 1578, "Ren": 1579, "Wenn": 1580, "When": 1581, "accuracy": 1582, "activi": 1583, "activities": 1584, "bon": 1585, "cted": 1586, "cling": 1587, "creative": 1588, "curi": 1589, "deci": 1590, "differences": 1591, "fact": 1592, "fiz": 1593, "financial": 1594, "green": 1595, "impact": 1596, "individ": 1597, "industry": 1598, "interest": 1599, "ird": 1600, "ism": 1601, "must": 1602, "max": 1603, "major": 1604, "name": 1605, "networks": 1606, "ock": 1607, "oftw": 1608, "oftware": 1609, "poll": 1610, "promo": 1611, "quality": 1612, "question": 1613, "revol": 1614, "renewable": 1615, "require": 1616, "sound": 1617, "scienti": 1618, "secure": 1619, "sil": 1620, "simp": 1621, "signific": 1622, "skills": 1623, "sports": 1624, "species": 1625, "tree": 1626, "tional": 1627, "utions": 1628, "solutions": 1629, "users": 1630, "verse": 1631, "won": 1632, "zing": 1633, "æ¯": 1634, "æĢ»": 1635, "æĤ¨": 1636, "201": 1637, "Cate": 1638, "Hey": 1639, "aging": 1640, "ants": 1641, "Pl": 1642, "auty": 1643, "connect": 1644, "dom": 1645, "decre": 1646, "dem": 1647, "dia": 1648, "fast": 1649, "fizieren": 1650, "generate": 1651, "hop": 1652, "los": 1653, "py": 1654, "personal": 1655, "sustain": 1656, "speed": 1657, "Ab": 1658, "Absolut": 1659, "Chin": 1660, "HT": 1661, "If": 1662, "States": 1663, "United": 1664, "Warum": 1665, "abili": 1666, "abor": 1667, "advant": 1668, "ason": 1669, "aten": 1670, "because": 1671, "benefits": 1672, "buil": 1673, "cie": 1674, "cus": 1675, "cessary": 1676, "chall": 1677, "colle": 1678, "ues": 1679, "coming": 1680, "common": 1681, "cycling": 1682, "dro": 1683, "dig": 1684, "dist": 1685, "dise": 1686, "enable": 1687, "events": 1688, "few": 1689, "flow": 1690, "free": 1691, "family": 1692, "gover": 1693, "greater": 1694, "happ": 1695, "ither": 1696, "either": 1697, "idea": 1698, "inc": 1699, "introduc": 1700, "intelligence": 1701, "invol": 1702, "leep": 1703, "leading": 1704, "look": 1705, "mid": 1706, "money": 1707, "multiple": 1708, "now": 1709, "necessary": 1710, "nex": 1711, "next": 1712, "object": 1713, "output": 1714, "passage": 1715, "pollution": 1716, "possible": 1717, "purpose": 1718, "revolution": 1719, "root": 1720, "ross": 1721, "search": 1722, "see": 1723, "short": 1724, "significant": 1725, "socie": 1726, "strategies": 1727, "today": 1728, "train": 1729, "æ¯Ķ": 1730, "Mach": 1731, "Me": 1732, "Out": 1733, "chain": 1734, "concept": 1735, "ey": 1736, "hard": 1737, "influ": 1738, "mart": 1739, "nature": 1740, "night": 1741, "ney": 1742, "ona": 1743, "phys": 1744, "sche": 1745, "thes": 1746, "¾İ": 1747, "æĺ¯": 1748, "ç¾İ": 1749, "è¯Ĩ": 1750, "Ap": 1751, "HTM": 1752, "HTML": 1753, "Is": 1754, "aring": 1755, "Wind": 1756, "ows": 1757, "agraph": 1758, "aver": 1759, "aving": 1760, "abilities": 1761, "actions": 1762, "actice": 1763, "aged": 1764, "amoun": 1765, "audi": 1766, "auth": 1767, "auti": 1768, "autiful": 1769, "below": 1770, "beautiful": 1771, "beauty": 1772, "before": 1773, "belie": 1774, "blue": 1775, "block": 1776, "cats": 1777, "cip": 1778, "clou": 1779, "commend": 1780, "compan": 1781, "contro": 1782, "countries": 1783, "date": 1784, "deep": 1785, "dern": 1786, "diffic": 1787, "difference": 1788, "effects": 1789, "electric": 1790, "ense": 1791, "ength": 1792, "ering": 1793, "exist": 1794, "facto": 1795, "fiel": 1796, "sub": 1797, "fig": 1798, "forest": 1799, "govern": 1800, "higher": 1801, "ible": 1802, "inks": 1803, "innovation": 1804, "ise": 1805, "ju": 1806, "law": 1807, "lay": 1808, "men": 1809, "oking": 1810, "oods": 1811, "ountain": 1812, "past": 1813, "paragraph": 1814, "period": 1815, "positive": 1816, "powerful": 1817, "real": 1818, "recor": 1819, "resulting": 1820, "ribu": 1821, "robo": 1822, "sea": 1823, "sequ": 1824, "single": 1825, "space": 1826, "sty": 1827, "working": 1828, "100": 1829, "Bu": 1830, "Change": 1831, "Char": 1832, "Fren": 1833, "French": 1834, "There": 1835, "angle": 1836, "aste": 1837, "chool": 1838, "cook": 1839, "els": 1840, "function": 1841, "ges": 1842, "ierend": 1843, "Bas": 1844, "Basierend": 1845, "issue": 1846, "mal": 1847, "ploy": 1848, "point": 1849, "prev": 1850, "riting": 1851, "unch": 1852, "No": 1853, "ä½ľ": 1854, "æŀ": 1855, "'m": 1856, "Cor": 1857, "Custom": 1858, "Come": 1859, "Person": 1860, "Renewable": 1861, "Using": 1862, "ared": 1863, "array": 1864, "atus": 1865, "automate": 1866, "base": 1867, "break": 1868, "cir": 1869, "centr": 1870, "class": 1871, "company": 1872, "cond": 1873, "convers": 1874, "consider": 1875, "curity": 1876, "demand": 1877, "descrip": 1878, "development": 1879, "doctor": 1880, "ected": 1881, "electricity": 1882, "ety": 1883, "far": 1884, "factorial": 1885, "follow": 1886, "fort": 1887, "him": 1888, "heart": 1889, "history": 1890, "ian": 1891, "identify": 1892, "keep": 1893, "logo": 1894, "mus": 1895, "modern": 1896, "mole": 1897, "options": 1898, "outh": 1899, "ource": 1900, "pie": 1901, "plant": 1902, "plants": 1903, "platforms": 1904, "prin": 1905, "project": 1906, "problems": 1907, "profit": 1908, "providing": 1909, "purch": 1910, "recognition": 1911, "school": 1912, "software": 1913, "security": 1914, "start": 1915, "tag": 1916, "ters": 1917, "vo": 1918, "fil": 1919, "star": 1920, "those": 1921, "tools": 1922, "transp": 1923, "user": 1924, "ush": 1925, "values": 1926, "verb": 1927, "without": 1928, "zed": 1929, "Catego": 1930, "Categorize": 1931, "Ear": 1932, "GP": 1933, "Ge": 1934, "GPT": 1935, "Inter": 1936, "Or": 1937, "Res": 1938, "ute": 1939, "Three": 1940, "anan": 1941, "deploy": 1942, "elling": 1943, "engine": 1944, "ester": 1945, "fs": 1946, "force": 1947, "ination": 1948, "comb": 1949, "ling": 1950, "lef": 1951, "loss": 1952, "mor": 1953, "meth": 1954, "oot": 1955, "special": 1956, "though": 1957, "win": 1958, "Ed": 1959, "Edit": 1960, "walk": 1961, "æ°": 1962, "æĶ": 1963, "æĬĬ": 1964, "ç¼": 1965, "Austr": 1966, "And": 1967, "Austral": 1968, "Can": 1969, "Customer": 1970, "Let": 1971, "Machine": 1972, "Noinput": 1973, "Ste": 1974, "ps": 1975, "Tex": 1976, "Welch": 1977, "Yes": 1978, "across": 1979, "active": 1980, "ada": 1981, "advantages": 1982, "ager": 1983, "algorithms": 1984, "andem": 1985, "andemic": 1986, "animal": 1987, "answ": 1988, "areas": 1989, "ationship": 1990, "avail": 1991, "bar": 1992, "bur": 1993, "begin": 1994, "call": 1995, "camp": 1996, "challeng": 1997, "ched": 1998, "cloud": 1999, "coll": 2000, "contr": 2001, "cry": 2002, "defin": 2003, "delivery": 2004, "did": 2005, "difficult": 2006, "diseases": 2007, "dress": 2008, "easier": 2009, "emiss": 2010, "emissions": 2011, "fect": 2012, "feed": 2013, "feeling": 2014, "functions": 2015, "goods": 2016, "generally": 2017, "government": 2018, "grad": 2019, "iti": 2020, "icate": 2021, "iet": 2022, "indust": 2023, "inging": 2024, "invest": 2025, "iture": 2026, "item": 2027, "lines": 2028, "lement": 2029, "might": 2030, "mark": 2031, "meet": 2032, "motiv": 2033, "niture": 2034, "never": 2035, "news": 2036, "obj": 2037, "oft": 2038, "others": 2039, "ourney": 2040, "pattern": 2041, "physical": 2042, "playing": 2043, "post": 2044, "predictions": 2045, "primary": 2046, "produce": 2047, "rup": 2048, "recommend": 2049, "relationship": 2050, "resh": 2051, "role": 2052, "source": 2053, "seen": 2054, "sever": 2055, "simple": 2056, "snack": 2057, "solar": 2058, "still": 2059, "sto": 2060, "stead": 2061, "steps": 2062, "suggest": 2063, "sustainable": 2064, "trust": 2065, "travel": 2066, "ule": 2067, "unique": 2068, "ures": 2069, "press": 2070, "vity": 2071, "adi": 2072, "veget": 2073, "voice": 2074, "wind": 2075, "ä»ĸ": 2076, "æľī": 2077, "æŀĦ": 2078, "ç¼ĸ": 2079, "éĢī": 2080, "16": 2081, "200": 2082, "Australia": 2083, "Mar": 2084, "Mon": 2085, "Nor": 2086, "SE": 2087, "These": 2088, "Water": 2089, "Zut": 2090, "Zutaten": 2091, "aching": 2092, "asso": 2093, "ashion": 2094, "bri": 2095, "craf": 2096, "ecti": 2097, "ene": 2098, "entiment": 2099, "mel": 2100, "ome": 2101, "research": 2102, "room": 2103, "temperature": 2104, "ç®": 2105, "America": 2106, "China": 2107, "Fur": 2108, "Gats": 2109, "Gatsby": 2110, "Offer": 2111, "South": 2112, "Step": 2113, "Text": 2114, "achie": 2115, "after": 2116, "algorithm": 2117, "ances": 2118, "argu": 2119, "associ": 2120, "associated": 2121, "ator": 2122, "audience": 2123, "available": 2124, "bright": 2125, "battle": 2126, "blog": 2127, "blockchain": 2128, "board": 2129, "books": 2130, "buy": 2131, "came": 2132, "cast": 2133, "clear": 2134, "cred": 2135, "carbon": 2136, "changed": 2137, "changing": 2138, "circle": 2139, "code": 2140, "cold": 2141, "colors": 2142, "collabor": 2143, "comes": 2144, "concentr": 2145, "confl": 2146, "ict": 2147, "connected": 2148, "considered": 2149, "continu": 2150, "cules": 2151, "dden": 2152, "dget": 2153, "debt": 2154, "determine": 2155, "depend": 2156, "digital": 2157, "drast": 2158, "easily": 2159, "ection": 2160, "economic": 2161, "effective": 2162, "employment": 2163, "ended": 2164, "ext": 2165, "extre": 2166, "essential": 2167, "everyone": 2168, "explor": 2169, "extreme": 2170, "fashion": 2171, "fu": 2172, "figure": 2173, "forestation": 2174, "fruit": 2175, "gging": 2176, "giving": 2177, "goals": 2178, "gration": 2179, "growth": 2180, "hab": 2181, "hai": 2182, "hol": 2183, "iency": 2184, "inst": 2185, "includes": 2186, "ished": 2187, "issues": 2188, "iting": 2189, "izing": 2190, "journey": 2191, "larger": 2192, "lied": 2193, "lies": 2194, "limited": 2195, "lower": 2196, "mess": 2197, "mist": 2198, "market": 2199, "marketing": 2200, "meas": 2201, "member": 2202, "molecules": 2203, "negative": 2204, "oth": 2205, "occur": 2206, "offer": 2207, "onavirus": 2208, "optim": 2209, "opping": 2210, "orted": 2211, "ought": 2212, "oung": 2213, "patterns": 2214, "peace": 2215, "pho": 2216, "pieces": 2217, "popular": 2218, "practice": 2219, "pression": 2220, "protect": 2221, "protection": 2222, "resp": 2223, "rors": 2224, "errors": 2225, "ref": 2226, "represent": 2227, "recognize": 2228, "regul": 2229, "related": 2230, "relev": 2231, "result": 2232, "rot": 2233, "sat": 2234, "sentiment": 2235, "smo": 2236, "sort": 2237, "solution": 2238, "someone": 2239, "storage": 2240, "strong": 2241, "strategy": 2242, "suit": 2243, "suitable": 2244, "tar": 2245, "tor": 2246, "tow": 2247, "techni": 2248, "temperatures": 2249, "theme": 2250, "tit": 2251, "At": 2252, "upon": 2253, "usually": 2254, "various": 2255, "weather": 2256, "wild": 2257, "young": 2258, "ä½ł": 2259, "èĩ": 2260, "ĠĠĠĠĠĠ": 2261, "Ben": 2262, "Deep": 2263, "Eu": 2264, "Extra": 2265, "Gre": 2266, "Inv": 2267, "Linu": 2268, "Linux": 2269, "Med": 2270, "Sh": 2271, "Sup": 2272, "Tit": 2273, "Tour": 2274, "adition": 2275, "assen": 2276, "ground": 2277, "inf": 2278, "known": 2279, "lin": 2280, "lands": 2281, "lik": 2282, "mail": 2283, "monitor": 2284, "onents": 2285, "oog": 2286, "Goog": 2287, "Google": 2288, "oose": 2289, "redient": 2290, "redients": 2291, "storm": 2292, "uate": 2293, "xa": 2294, "¦ģ": 2295, "å¤": 2296, "åı¯": 2297, "æķ": 2298, "æĸ": 2299, "æĹ": 2300, "è¦ģ": 2301, "All": 2302, "American": 2303, "Bri": 2304, "Dis": 2305, "Develop": 2306, "Euro": 2307, "Gener": 2308, "Ger": 2309, "Ist": 2310, "Set": 2311, "Transl": 2312, "Windows": 2313, "Zu": 2314, "abase": 2315, "aditional": 2316, "again": 2317, "allows": 2318, "anch": 2319, "anti": 2320, "analysis": 2321, "ape": 2322, "apo": 2323, "appe": 2324, "ars": 2325, "argument": 2326, "aries": 2327, "avo": 2328, "bats": 2329, "budget": 2330, "build": 2331, "cell": 2332, "cup": 2333, "cean": 2334, "cerem": 2335, "ceremony": 2336, "characters": 2337, "close": 2338, "components": 2339, "consu": 2340, "consum": 2341, "contact": 2342, "container": 2343, "contains": 2344, "conversation": 2345, "database": 2346, "dete": 2347, "devices": 2348, "describe": 2349, "description": 2350, "diox": 2351, "dire": 2352, "dioxide": 2353, "discover": 2354, "discus": 2355, "dogs": 2356, "duct": 2357, "ech": 2358, "eco": 2359, "email": 2360, "effect": 2361, "else": 2362, "element": 2363, "employe": 2364, "enabled": 2365, "ensure": 2366, "equation": 2367, "ethical": 2368, "exam": 2369, "existing": 2370, "foc": 2371, "sed": 2372, "fear": 2373, "fix": 2374, "field": 2375, "fruits": 2376, "full": 2377, "gent": 2378, "habit": 2379, "haik": 2380, "haiku": 2381, "helps": 2382, "ired": 2383, "importance": 2384, "improved": 2385, "ince": 2386, "income": 2387, "insi": 2388, "increases": 2389, "intern": 2390, "isol": 2391, "lich": 2392, "lon": 2393, "lling": 2394, "looking": 2395, "mes": 2396, "mage": 2397, "image": 2398, "manager": 2399, "means": 2400, "medical": 2401, "members": 2402, "moment": 2403, "neural": 2404, "ograph": 2405, "opport": 2406, "orders": 2407, "pack": 2408, "pandemic": 2409, "parti": 2410, "patients": 2411, "photo": 2412, "player": 2413, "preci": 2414, "predict": 2415, "prices": 2416, "profession": 2417, "programming": 2418, "programs": 2419, "questions": 2420, "rap": 2421, "ream": 2422, "remo": 2423, "repl": 2424, "relevant": 2425, "responsible": 2426, "sai": 2427, "scal": 2428, "since": 2429, "sleep": 2430, "slow": 2431, "squ": 2432, "sw": 2433, "said": 2434, "season": 2435, "second": 2436, "sive": 2437, "solve": 2438, "sta": 2439, "stars": 2440, "sym": 2441, "tail": 2442, "town": 2443, "treat": 2444, "tweet": 2445, "target": 2446, "tense": 2447, "towards": 2448, "tract": 2449, "traditional": 2450, "trends": 2451, "true": 2452, "triangle": 2453, "uation": 2454, "units": 2455, "utr": 2456, "visual": 2457, "wise": 2458, "warming": 2459, "wonder": 2460, "Â°": 2461, "ä»İ": 2462, "å®": 2463, "åĩ": 2464, "åį": 2465, "æĬ±": 2466, "æľº": 2467, "30": 2468, "40": 2469, "AN": 2470, "Add": 2471, "Apple": 2472, "Arti": 2473, "Artificial": 2474, "Auf": 2475, "Dear": 2476, "Determine": 2477, "Educ": 2478, "Earth": 2479, "Europe": 2480, "II": 2481, "Identi": 2482, "Int": 2483, "Invest": 2484, "NA": 2485, "Outline": 2486, "Pri": 2487, "Rec": 2488, "Smart": 2489, "Take": 2490, "Translate": 2491, "Two": 2492, "Use": 2493, "Ver": 2494, "bring": 2495, "Wo": 2496, "approach": 2497, "atory": 2498, "coff": 2499, "ee": 2500, "coffee": 2501, "conser": 2502, "courage": 2503, "eren": 2504, "experiences": 2505, "flex": 2506, "ga": 2507, "ger": 2508, "havi": 2509, "healthy": 2510, "influence": 2511, "iter": 2512, "itter": 2513, "ization": 2514, "lou": 2515, "onic": 2516, "sweet": 2517, "sides": 2518, "versity": 2519, "zes": 2520, "ä½¿": 2521, "å½": 2522, "æĶ¹": 2523, "èĩª": 2524, "AW": 2525, "Ale": 2526, "Banan": 2527, "Bit": 2528, "But": 2529, "Begin": 2530, "Cri": 2531, "Canada": 2532, "Charles": 2533, "Dr": 2534, "Dieses": 2535, "Great": 2536, "Gibt": 2537, "Hy": 2538, "ID": 2539, "Imp": 2540, "Identifizieren": 2541, "King": 2542, "Klassi": 2543, "Lassen": 2544, "Li": 2545, "Napo": 2546, "Napole": 2547, "North": 2548, "Ok": 2549, "Sag": 2550, "Select": 2551, "Ser": 2552, "Str": 2553, "Sagen": 2554, "Viet": 2555, "Vietnam": 2556, "ahead": 2557, "acts": 2558, "accurately": 2559, "addition": 2560, "address": 2561, "advice": 2562, "agon": 2563, "against": 2564, "aled": 2565, "altern": 2566, "amage": 2567, "amount": 2568, "anted": 2569, "andom": 2570, "appropriate": 2571, "asp": 2572, "ry": 2573, "asked": 2574, "asket": 2575, "asketball": 2576, "atbo": 2577, "author": 2578, "average": 2579, "ban": 2580, "Cu": 2581, "bile": 2582, "bility": 2583, "bird": 2584, "bol": 2585, "bound": 2586, "bro": 2587, "becoming": 2588, "branch": 2589, "bringing": 2590, "cand": 2591, "cel": 2592, "cing": 2593, "cli": 2594, "called": 2595, "capital": 2596, "classi": 2597, "clean": 2598, "compe": 2599, "concentration": 2600, "conflict": 2601, "consists": 2602, "contribu": 2603, "contrast": 2604, "coral": 2605, "coronavirus": 2606, "counts": 2607, "crimin": 2608, "damage": 2609, "during": 2610, "definition": 2611, "dest": 2612, "dinner": 2613, "door": 2614, "draw": 2615, "driven": 2616, "driving": 2617, "dropower": 2618, "dynam": 2619, "emo": 2620, "ets": 2621, "easy": 2622, "ectr": 2623, "engage": 2624, "environments": 2625, "environmental": 2626, "estic": 2627, "essay": 2628, "foot": 2629, "fos": 2630, "four": 2631, "faster": 2632, "feedback": 2633, "fication": 2634, "filled": 2635, "fossil": 2636, "fuels": 2637, "furniture": 2638, "give": 2639, "ghter": 2640, "gress": 2641, "grammar": 2642, "helped": 2643, "hip": 2644, "hist": 2645, "highly": 2646, "hope": 2647, "infr": 2648, "inte": 2649, "incenti": 2650, "individual": 2651, "insights": 2652, "involves": 2653, "lack": 2654, "left": 2655, "lived": 2656, "living": 2657, "loo": 2658, "loyal": 2659, "mountain": 2660, "matical": 2661, "maxim": 2662, "met": 2663, "message": 2664, "mistakes": 2665, "mobile": 2666, "month": 2667, "neutr": 2668, "occurs": 2669, "ooden": 2670, "opened": 2671, "por": 2672, "party": 2673, "perfect": 2674, "plast": 2675, "polic": 2676, "processes": 2677, "promote": 2678, "purchase": 2679, "quer": 2680, "quo": 2681, "radi": 2682, "rent": 2683, "rema": 2684, "remember": 2685, "review": 2686, "recommendations": 2687, "record": 2688, "reefs": 2689, "released": 2690, "remain": 2691, "results": 2692, "rising": 2693, "rocer": 2694, "robotics": 2695, "same": 2696, "sc": 2697, "slo": 2698, "son": 2699, "sales": 2700, "scheme": 2701, "seem": 2702, "setting": 2703, "sharing": 2704, "shopping": 2705, "size": 2706, "sites": 2707, "soon": 2708, "solving": 2709, "spending": 2710, "speech": 2711, "square": 2712, "stent": 2713, "stri": 2714, "pes": 2715, "types": 2716, "students": 2717, "style": 2718, "suggests": 2719, "symbol": 2720, "takes": 2721, "taking": 2722, "tall": 2723, "teeth": 2724, "testing": 2725, "thesis": 2726, "things": 2727, "til": 2728, "title": 2729, "ticular": 2730, "particular": 2731, "times": 2732, "titu": 2733, "torque": 2734, "track": 2735, "transform": 2736, "transport": 2737, "uable": 2738, "uals": 2739, "ured": 2740, "unemployment": 2741, "universe": 2742, "usage": 2743, "valuable": 2744, "variety": 2745, "veh": 2746, "vehic": 2747, "vil": 2748, "want": 2749, "writing": 2750, "weak": 2751, "websites": 2752, "wide": 2753, "yourself": 2754, "ä¿": 2755, "å½ĵ": 2756, "æĮ": 2757, "AP": 2758, "Although": 2759, "Brain": 2760, "Compute": 2761, "Dieser": 2762, "Extrahi": 2763, "Extrahieren": 2764, "Get": 2765, "Good": 2766, "Incre": 2767, "Klassifizieren": 2768, "La": 2769, "Nun": 2770, "Nein": 2771, "Pho": 2772, "Photo": 2773, "Propose": 2774, "Research": 2775, "Sol": 2776, "Sp": 2777, "Sicherlich": 2778, "Twitter": 2779, "Up": 2780, "abe": 2781, "abel": 2782, "alf": 2783, "always": 2784, "atbot": 2785, "const": 2786, "eople": 2787, "ectives": 2788, "ening": 2789, "ities": 2790, "ler": 2791, "metho": 2792, "methods": 2793, "ove": 2794, "omes": 2795, "ped": 2796, "rise": 2797, "roup": 2798, "group": 2799, "rocery": 2800, "tili": 2801, "uck": 2802, "ulation": 2803, "ins": 2804, "valuate": 2805, "¢Ħ": 2806, "åĳ": 2807, "æĥ": 2808, "çĶ±": 2809, "é¢Ħ": 2810, "éĤ": 2811, "198": 2812, "ANs": 2813, "Bat": 2814, "By": 2815, "Briti": 2816, "British": 2817, "CO": 2818, "CS": 2819, "Ca": 2820, "Cath": 2821, "Cats": 2822, "Col": 2823, "COV": 2824, "COVID": 2825, "CSS": 2826, "Cathol": 2827, "Dec": 2828, "Di": 2829, "top": 2830, "Dais": 2831, "Daisy": 2832, "Ele": 2833, "Eng": 2834, "Engl": 2835, "Environ": 2836, "English": 2837, "Environmental": 2838, "Erz": 2839, "Glo": 2840, "Global": 2841, "LE": 2842, "Net": 2843, "works": 2844, "Okay": 2845, "Per": 2846, "Po": 2847, "ints": 2848, "points": 2849, "Pr": 2850, "Py": 2851, "Plan": 2852, "Pyth": 2853, "Python": 2854, "Tell": 2855, "Thank": 2856, "Titel": 2857, "Welcher": 2858, "Word": 2859, "Your": 2860, "afe": 2861, "aves": 2862, "abling": 2863, "adap": 2864, "table": 2865, "adjust": 2866, "aign": 2867, "ailed": 2868, "alien": 2869, "alo": 2870, "alse": 2871, "alling": 2872, "anced": 2873, "antic": 2874, "anx": 2875, "analytics": 2876, "anges": 2877, "anning": 2878, "answer": 2879, "anything": 2880, "appreci": 2881, "aras": 2882, "Paras": 2883, "Parasite": 2884, "aren": 2885, "asc": 2886, "atom": 2887, "basketball": 2888, "bill": 2889, "bits": 2890, "bow": 2891, "bio": 2892, "body": 2893, "boil": 2894, "brain": 2895, "brave": 2896, "card": 2897, "cate": 2898, "cine": 2899, "calculate": 2900, "campaign": 2901, "capture": 2902, "client": 2903, "collaboration": 2904, "comfort": 2905, "commit": 2906, "communicate": 2907, "concise": 2908, "consequ": 2909, "consequences": 2910, "consump": 2911, "consumption": 2912, "control": 2913, "cording": 2914, "created": 2915, "credit": 2916, "cultur": 2917, "device": 2918, "delic": 2919, "delicious": 2920, "detect": 2921, "direct": 2922, "diversity": 2923, "docu": 2924, "drastically": 2925, "echn": 2926, "Techn": 2927, "equal": 2928, "ecting": 2929, "aff": 2930, "efficiency": 2931, "electr": 2932, "eliness": 2933, "emotional": 2934, "enabling": 2935, "enjoy": 2936, "engaging": 2937, "ercise": 2938, "esterday": 2939, "etc": 2940, "exci": 2941, "expected": 2942, "fail": 2943, "father": 2944, "fiction": 2945, "files": 2946, "focus": 2947, "formul": 2948, "formula": 2949, "friend": 2950, "gas": 2951, "gir": 2952, "grocery": 2953, "generations": 2954, "girl": 2955, "grand": 2956, "gression": 2957, "greenhouse": 2958, "half": 2959, "having": 2960, "hold": 2961, "happen": 2962, "humans": 2963, "hydropower": 2964, "ibility": 2965, "ider": 2966, "Le": 2967, "Leider": 2968, "ik": 2969, "icros": 2970, "ident": 2971, "impl": 2972, "implement": 2973, "implications": 2974, "increasingly": 2975, "individuals": 2976, "industries": 2977, "informed": 2978, "ingredients": 2979, "inspir": 2980, "inspiring": 2981, "instructions": 2982, "ips": 2983, "irth": 2984, "birth": 2985, "isolated": 2986, "izes": 2987, "jung": 2988, "ki": 2989, "lap": 2990, "lau": 2991, "length": 2992, "links": 2993, "launch": 2994, "laws": 2995, "layer": 2996, "leg": 2997, "ley": 2998, "letter": 2999, "lip": 3000, "likely": 3001, "linear": 3002, "loc": 3003, "loneliness": 3004, "mind": 3005, "mund": 3006, "magical": 3007, "management": 3008, "maximum": 3009, "migration": 3010, "mundane": 3011, "nuc": 3012, "named": 3013, "needs": 3014, "ocean": 3015, "oke": 3016, "ocs": 3017, "Docs": 3018, "once": 3019, "onom": 3020, "operating": 3021, "optimize": 3022, "pay": 3023, "pers": 3024, "pitch": 3025, "painting": 3026, "parrot": 3027, "plit": 3028, "plastic": 3029, "poor": 3030, "poses": 3031, "priv": 3032, "princess": 3033, "progress": 3034, "productive": 3035, "products": 3036, "quote": 3037, "random": 3038, "rul": 3039, "rapid": 3040, "reats": 3041, "rece": 3042, "rei": 3043, "repe": 3044, "reading": 3045, "recently": 3046, "reducing": 3047, "relationships": 3048, "remembered": 3049, "resol": 3050, "rights": 3051, "rose": 3052, "save": 3053, "saw": 3054, "sense": 3055, "sequence": 3056, "server": 3057, "several": 3058, "shop": 3059, "sile": 3060, "simil": 3061, "sition": 3062, "snacks": 3063, "society": 3064, "speak": 3065, "states": 3066, "stock": 3067, "stratus": 3068, "strength": 3069, "string": 3070, "summary": 3071, "support": 3072, "synony": 3073, "synthesis": 3074, "tax": 3075, "tend": 3076, "tro": 3077, "terms": 3078, "threats": 3079, "thus": 3080, "thereof": 3081, "thought": 3082, "tips": 3083, "tively": 3084, "total": 3085, "traffic": 3086, "transactions": 3087, "transportation": 3088, "tric": 3089, "ulate": 3090, "until": 3091, "valent": 3092, "wanted": 3093, "waste": 3094, "wee": 3095, "week": 3096, "wildlife": 3097, "wonderful": 3098, "yo": 3099, "urt": 3100, "zens": 3101, "zer": 3102, "zon": 3103, "âĢĵ": 3104, "âĢĿ": 3105, "åŃ": 3106, "æ°´": 3107, "çİ": 3108, "è¯·": 3109, "éĤ£": 3110, "13": 3111, "Ama": 3112, "Att": 3113, "API": 3114, "Alexa": 3115, "Bel": 3116, "Brainstorm": 3117, "Climate": 3118, "Choose": 3119, "Dock": 3120, "During": 3121, "Docker": 3122, "Evaluate": 3123, "Every": 3124, "Education": 3125, "Five": 3126, "Geben": 3127, "Her": 3128, "Here": 3129, "His": 3130, "Introduc": 3131, "Laut": 3132, "Listen": 3133, "People": 3134, "Pre": 3135, "zi": 3136, "Prote": 3137, "SA": 3138, "Tom": 3139, "row": 3140, "orrow": 3141, "Web": 3142, "antum": 3143, "Qu": 3144, "ato": 3145, "auto": 3146, "ba": 3147, "bst": 3148, "box": 3149, "chair": 3150, "changes": 3151, "cons": 3152, "conservation": 3153, "crafts": 3154, "decreases": 3155, "ellow": 3156, "erst": 3157, "estim": 3158, "experien": 3159, "fel": 3160, "fj": 3161, "gers": 3162, "highest": 3163, "ify": 3164, "lock": 3165, "log": 3166, "oday": 3167, "Today": 3168, "pical": 3169, "park": 3170, "ring": 3171, "rics": 3172, "scre": 3173, "stop": 3174, "wei": 3175, "åĩı": 3176, "æĽ": 3177, "ç®Ģ": 3178, "éĿ": 3179, "'re": 3180, "70": 3181, "Amazon": 3182, "Autom": 3183, "Based": 3184, "Bitte": 3185, "Buil": 3186, "Care": 3187, "Comput": 3188, "Crisis": 3189, "Cuban": 3190, "Dat": 3191, "Each": 3192, "Further": 3193, "Furthermore": 3194, "Have": 3195, "Hum": 3196, "Healthy": 3197, "Its": 3198, "Lon": 3199, "London": 3200, "Max": 3201, "Micros": 3202, "Mis": 3203, "Mountain": 3204, "Mark": 3205, "Medical": 3206, "Microsoft": 3207, "Missile": 3208, "Napoleon": 3209, "Natural": 3210, "Sleep": 3211, "Sort": 3212, "SEO": 3213, "SmartBat": 3214, "Technolo": 3215, "Transform": 3216, "Vac": 3217, "Ve": 3218, "Vir": 3219, "Waterloo": 3220, "Which": 3221, "Zuerst": 3222, "auc": 3223, "above": 3224, "ablesp": 3225, "ablespo": 3226, "ablespoons": 3227, "according": 3228, "ached": 3229, "acing": 3230, "activity": 3231, "aft": 3232, "agree": 3233, "agri": 3234, "allowed": 3235, "alternative": 3236, "amounts": 3237, "ancing": 3238, "antive": 3239, "analyzing": 3240, "angered": 3241, "animals": 3242, "aphor": 3243, "arri": 3244, "arity": 3245, "arrow": 3246, "aser": 3247, "assign": 3248, "ators": 3249, "atten": 3250, "attitu": 3251, "atching": 3252, "aterial": 3253, "athle": 3254, "ativity": 3255, "attention": 3256, "avoid": 3257, "bag": 3258, "bree": 3259, "ballo": 3260, "bark": 3261, "behavi": 3262, "belo": 3263, "beloved": 3264, "biodiversity": 3265, "boiling": 3266, "brand": 3267, "breeze": 3268, "cat": 3269, "causes": 3270, "campaigns": 3271, "cannot": 3272, "capabilities": 3273, "career": 3274, "cellent": 3275, "chatbot": 3276, "challenges": 3277, "check": 3278, "citi": 3279, "citizens": 3280, "clus": 3281, "clusion": 3282, "coding": 3283, "copy": 3284, "core": 3285, "costs": 3286, "college": 3287, "combines": 3288, "commitment": 3289, "community": 3290, "companies": 3291, "competi": 3292, "complete": 3293, "completed": 3294, "computing": 3295, "continuous": 3296, "copyright": 3297, "corrup": 3298, "counting": 3299, "creatures": 3300, "crisis": 3301, "cryp": 3302, "culture": 3303, "cultural": 3304, "current": 3305, "dict": 3306, "dle": 3307, "rid": 3308, "deforestation": 3309, "detri": 3310, "decimal": 3311, "dedication": 3312, "dependent": 3313, "detrimental": 3314, "developing": 3315, "diet": 3316, "diverse": 3317, "divis": 3318, "diagn": 3319, "diagram": 3320, "direction": 3321, "distribu": 3322, "domestic": 3323, "dragon": 3324, "dynamics": 3325, "early": 3326, "ectively": 3327, "ecosystems": 3328, "elf": 3329, "elebr": 3330, "emphas": 3331, "employees": 3332, "enables": 3333, "endangered": 3334, "enses": 3335, "enter": 3336, "equi": 3337, "equivalent": 3338, "ership": 3339, "establ": 3340, "evol": 3341, "excellent": 3342, "explan": 3343, "express": 3344, "extra": 3345, "explanation": 3346, "eye": 3347, "eyes": 3348, "fit": 3349, "fought": 3350, "fresh": 3351, "factors": 3352, "famili": 3353, "feature": 3354, "ference": 3355, "fied": 3356, "fif": 3357, "finding": 3358, "firm": 3359, "forced": 3360, "friends": 3361, "gate": 3362, "gri": 3363, "gurt": 3364, "geograph": 3365, "gency": 3366, "gluc": 3367, "glucose": 3368, "goal": 3369, "growing": 3370, "hour": 3371, "handle": 3372, "happy": 3373, "height": 3374, "hether": 3375, "hidden": 3376, "histori": 3377, "holds": 3378, "hours": 3379, "icine": 3380, "icht": 3381, "identi": 3382, "immigration": 3383, "independent": 3384, "initi": 3385, "instead": 3386, "incentives": 3387, "inked": 3388, "innov": 3389, "inspired": 3390, "interact": 3391, "interface": 3392, "iration": 3393, "ishing": 3394, "itary": 3395, "jungle": 3396, "ka": 3397, "knight": 3398, "lst": 3399, "laun": 3400, "laptop": 3401, "leader": 3402, "lights": 3403, "listening": 3404, "local": 3405, "located": 3406, "longest": 3407, "material": 3408, "maint": 3409, "aining": 3410, "master": 3411, "mathe": 3412, "manship": 3413, "mathematical": 3414, "medi": 3415, "membr": 3416, "minim": 3417, "minut": 3418, "minutes": 3419, "miss": 3420, "modi": 3421, "moral": 3422, "narr": 3423, "nood": 3424, "nesses": 3425, "neutral": 3426, "noodles": 3427, "numer": 3428, "objects": 3429, "ometric": 3430, "opin": 3431, "opportuni": 3432, "opportunities": 3433, "ordin": 3434, "orous": 3435, "ority": 3436, "othie": 3437, "outcomes": 3438, "outside": 3439, "pal": 3440, "pare": 3441, "ping": 3442, "particip": 3443, "personalized": 3444, "phabe": 3445, "prefer": 3446, "prepare": 3447, "previ": 3448, "predictive": 3449, "previous": 3450, "professional": 3451, "provided": 3452, "purposes": 3453, "rule": 3454, "reason": 3455, "recycling": 3456, "refle": 3457, "reve": 3458, "recognizing": 3459, "regular": 3460, "report": 3461, "requests": 3462, "ride": 3463, "rogative": 3464, "romantic": 3465, "rules": 3466, "safe": 3467, "smart": 3468, "satis": 3469, "scale": 3470, "science": 3471, "scientific": 3472, "scientists": 3473, "screen": 3474, "series": 3475, "serves": 3476, "significantly": 3477, "situation": 3478, "slogan": 3479, "specific": 3480, "stein": 3481, "stored": 3482, "stress": 3483, "strateg": 3484, "studying": 3485, "supply": 3486, "surface": 3487, "surve": 3488, "synonyms": 3489, "tablespoons": 3490, "tailed": 3491, "tone": 3492, "teach": 3493, "techniques": 3494, "technologies": 3495, "termin": 3496, "third": 3497, "ths": 3498, "tivation": 3499, "Mo": 3500, "toy": 3501, "topics": 3502, "trade": 3503, "treatment": 3504, "trip": 3505, "tures": 3506, "typical": 3507, "unk": 3508, "uten": 3509, "uts": 3510, "vac": 3511, "vegetables": 3512, "vehicles": 3513, "vention": 3514, "wall": 3515, "went": 3516, "warm": 3517, "wid": 3518, "yellow": 3519, "yet": 3520, "yogurt": 3521, "åģ": 3522, "åĮ": 3523, "åĽ": 3524, "åģĩ": 3525, "æ³": 3526, "æĸĩ": 3527, "çĽ": 3528, "è¯´": 3529, "éĩ": 3530, "Ac": 3531, "Arrange": 3532, "Automation": 3533, "Benut": 3534, "Benutzer": 3535, "Che": 3536, "Chri": 3537, "Dogs": 3538, "Face": 3539, "Hm": 3540, "Introducing": 3541, "Label": 3542, "Los": 3543, "Man": 3544, "Mary": 3545, "Nach": 3546, "NASA": 3547, "Op": 3548, "Orange": 3549, "Organ": 3550, "Pol": 3551, "Predic": 3552, "Rever": 3553, "Read": 3554, "Reverse": 3555, "Sy": 3556, "Some": 3557, "Start": 3558, "Ti": 3559, "Top": 3560, "avel": 3561, "atically": 3562, "bate": 3563, "contin": 3564, "eventually": 3565, "ginal": 3566, "hr": 3567, "heat": 3568, "iety": 3569, "ires": 3570, "itation": 3571, "itt": 3572, "lic": 3573, "gar": 3574, "lius": 3575, "Ju": 3576, "Julius": 3577, "loud": 3578, "morning": 3579, "ost": 3580, "bas": 3581, "path": 3582, "proj": 3583, "ram": 3584, "requires": 3585, "rob": 3586, "say": 3587, "tig": 3588, "vent": 3589, "vor": 3590, "ni": 3591, "ä¼": 3592, "ä¸»": 3593, "ä¸¾": 3594, "ä¸ĸ": 3595, "åŁ": 3596, "åħ¨": 3597, "åĮº": 3598, "æ¬": 3599, "æ±": 3600, "æİ": 3601, "æ³ķ": 3602, "æĥ³": 3603, "æłĩ": 3604, "è´": 3605, "è®²": 3606, "éĺ": 3607, "'d": 3608, "101": 3609, "26": 3610, "AC": 3611, "Are": 3612, "AWS": 3613, "Attend": 3614, "Attendant": 3615, "Bananas": 3616, "Belgi": 3617, "Cum": 3618, "Catholics": 3619, "Chinese": 3620, "Christ": 3621, "Company": 3622, "Cumul": 3623, "Cumulus": 3624, "DE": 3625, "Data": 3626, "Deforestation": 3627, "Doctor": 3628, "Einstein": 3629, "England": 3630, "Exercise": 3631, "False": 3632, "Fir": 3633, "Flight": 3634, "Fol": 3635, "Financial": 3636, "First": 3637, "Follow": 3638, "Gem": 3639, "Hab": 3640, "However": 3641, "Ide": 3642, "Impro": 3643, "Implement": 3644, "Infl": 3645, "Increase": 3646, "Jap": 3647, "Japan": 3648, "Japanese": 3649, "Juli": 3650, "LANs": 3651, "Language": 3652, "Mex": 3653, "Mid": 3654, "Monitor": 3655, "Mountains": 3656, "None": 3657, "Our": 3658, "Over": 3659, "Onion": 3660, "Output": 3661, "Pon": 3662, "Pres": 3663, "Planning": 3664, "Ponzi": 3665, "Predict": 3666, "Process": 3667, "Product": 3668, "Protest": 3669, "Processing": 3670, "Protection": 3671, "Replace": 3672, "Recent": 3673, "ST": 3674, "Sen": 3675, "Send": 3676, "Spr": 3677, "Sun": 3678, "Social": 3679, "Spring": 3680, "Stratus": 3681, "TP": 3682, "Ta": 3683, "Tips": 3684, "Technology": 3685, "That": 3686, "Well": 3687, "Yesterday": 3688, "ade": 3689, "accept": 3690, "accounting": 3691, "aches": 3692, "afety": 3693, "ahren": 3694, "aling": 3695, "alone": 3696, "along": 3697, "alphabe": 3698, "among": 3699, "anama": 3700, "Panama": 3701, "another": 3702, "ands": 3703, "announ": 3704, "anxiety": 3705, "aps": 3706, "appli": 3707, "applied": 3708, "apps": 3709, "appliances": 3710, "appreciation": 3711, "arison": 3712, "arities": 3713, "asant": 3714, "asive": 3715, "ashlight": 3716, "Fl": 3717, "Flashlight": 3718, "aspects": 3719, "asses": 3720, "assive": 3721, "atives": 3722, "auce": 3723, "automatically": 3724, "automation": 3725, "avor": 3726, "bank": 3727, "bold": 3728, "basic": 3729, "baseball": 3730, "begins": 3731, "believe": 3732, "berries": 3733, "berry": 3734, "billion": 3735, "birthday": 3736, "boy": 3737, "branches": 3738, "brief": 3739, "burning": 3740, "celebr": 3741, "clim": 3742, "captain": 3743, "carni": 3744, "carnivor": 3745, "carnivores": 3746, "centur": 3747, "century": 3748, "cepts": 3749, "cher": 3750, "chor": 3751, "challenging": 3752, "charge": 3753, "cies": 3754, "clarity": 3755, "cles": 3756, "classification": 3757, "clothes": 3758, "club": 3759, "coast": 3760, "coin": 3761, "covers": 3762, "combin": 3763, "combination": 3764, "comfortable": 3765, "compared": 3766, "comparison": 3767, "compelling": 3768, "companion": 3769, "concepts": 3770, "conclusion": 3771, "conduct": 3772, "conf": 3773, "conut": 3774, "conver": 3775, "connection": 3776, "connecting": 3777, "consumer": 3778, "containing": 3779, "controlling": 3780, "crow": 3781, "cru": 3782, "crafted": 3783, "craftsmanship": 3784, "crypto": 3785, "ctors": 3786, "done": 3787, "dates": 3788, "ddenly": 3789, "dead": 3790, "debate": 3791, "depart": 3792, "depic": 3793, "detailed": 3794, "determin": 3795, "decided": 3796, "decreased": 3797, "define": 3798, "depending": 3799, "deser": 3800, "describing": 3801, "designed": 3802, "diom": 3803, "discounts": 3804, "dish": 3805, "discovery": 3806, "discusses": 3807, "distance": 3808, "document": 3809, "drain": 3810, "drinks": 3811, "drive": 3812, "driver": 3813, "effort": 3814, "effectively": 3815, "emer": 3816, "enh": 3817, "engagement": 3818, "ennen": 3819, "espite": 3820, "expos": 3821, "expression": 3822, "explore": 3823, "exploration": 3824, "exposure": 3825, "extraordin": 3826, "extraordinary": 3827, "fight": 3828, "fly": 3829, "facts": 3830, "facturing": 3831, "famous": 3832, "felt": 3833, "fficient": 3834, "fire": 3835, "fice": 3836, "fields": 3837, "finance": 3838, "finish": 3839, "flexible": 3840, "follows": 3841, "forces": 3842, "ford": 3843, "forget": 3844, "forn": 3845, "forw": 3846, "forever": 3847, "format": 3848, "forward": 3849, "fron": 3850, "fully": 3851, "gam": 3852, "gather": 3853, "ging": 3854, "gory": 3855, "gue": 3856, "gae": 3857, "geometric": 3858, "gentle": 3859, "gger": 3860, "gist": 3861, "globe": 3862, "got": 3863, "grav": 3864, "grammat": 3865, "grammatically": 3866, "greatly": 3867, "guid": 3868, "guide": 3869, "homes": 3870, "hund": 3871, "habitat": 3872, "helping": 3873, "historical": 3874, "host": 3875, "hot": 3876, "hundred": 3877, "idiom": 3878, "iforn": 3879, "ior": 3880, "sen": 3881, "itical": 3882, "icant": 3883, "applicant": 3884, "icated": 3885, "illustr": 3886, "imports": 3887, "industrial": 3888, "infring": 3889, "infringe": 3890, "innovative": 3891, "inspire": 3892, "internal": 3893, "international": 3894, "introduce": 3895, "inviting": 3896, "iratory": 3897, "istics": 3898, "itu": 3899, "itude": 3900, "izations": 3901, "jump": 3902, "kingdom": 3903, "lat": 3904, "lcm": 3905, "lfj": 3906, "liter": 3907, "largest": 3908, "latest": 3909, "laughter": 3910, "launching": 3911, "least": 3912, "leave": 3913, "lever": 3914, "lot": 3915, "loved": 3916, "longed": 3917, "looks": 3918, "loyalty": 3919, "lyrics": 3920, "mber": 3921, "mur": 3922, "machines": 3923, "manip": 3924, "manu": 3925, "manual": 3926, "manually": 3927, "manufacturing": 3928, "marking": 3929, "markup": 3930, "markets": 3931, "memo": 3932, "measures": 3933, "membrane": 3934, "memories": 3935, "mented": 3936, "mentor": 3937, "metaphor": 3938, "method": 3939, "miles": 3940, "military": 3941, "milk": 3942, "minder": 3943, "mission": 3944, "motivate": 3945, "motivated": 3946, "movement": 3947, "music": 3948, "myster": 3949, "mysterious": 3950, "navi": 3951, "nic": 3952, "ny": 3953, "needed": 3954, "nuclear": 3955, "oT": 3956, "IoT": 3957, "ots": 3958, "offe": 3959, "office": 3960, "offered": 3961, "offers": 3962, "onomous": 3963, "onym": 3964, "operations": 3965, "orange": 3966, "organized": 3967, "original": 3968, "outcome": 3969, "phi": 3970, "Ph": 3971, "pun": 3972, "parties": 3973, "partn": 3974, "passion": 3975, "persp": 3976, "phone": 3977, "phones": 3978, "posi": 3979, "policy": 3980, "population": 3981, "prediction": 3982, "presence": 3983, "preser": 3984, "privacy": 3985, "proced": 3986, "prolonged": 3987, "productiv": 3988, "productivity": 3989, "profil": 3990, "profile": 3991, "pyram": 3992, "pyramid": 3993, "rang": 3994, "radius": 3995, "ranging": 3996, "really": 3997, "recip": 3998, "regression": 3999, "reminder": 4000, "ready": 4001, "refund": 4002, "region": 4003, "regulations": 4004, "replacing": 4005, "representation": 4006, "revolutionary": 4007, "revolutionized": 4008, "road": 4009, "rote": 4010, "running": 4011, "sauce": 4012, "score": 4013, "scr": 4014, "song": 4015, "sorted": 4016, "split": 4017, "sus": 4018, "scientist": 4019, "seeing": 4020, "shape": 4021, "showed": 4022, "sistent": 4023, "similar": 4024, "sks": 4025, "risks": 4026, "smoothie": 4027, "snow": 4028, "soil": 4029, "societies": 4030, "stands": 4031, "steak": 4032, "strange": 4033, "strings": 4034, "strategic": 4035, "suddenly": 4036, "subst": 4037, "summer": 4038, "taste": 4039, "ton": 4040, "tainment": 4041, "talk": 4042, "talking": 4043, "teacher": 4044, "teamwork": 4045, "technical": 4046, "technique": 4047, "tensive": 4048, "tered": 4049, "think": 4050, "threat": 4051, "timel": 4052, "toff": 4053, "tomorrow": 4054, "trained": 4055, "training": 4056, "uated": 4057, "uous": 4058, "utili": 4059, "ultant": 4060, "unexpected": 4061, "uration": 4062, "useful": 4063, "ushing": 4064, "vast": 4065, "variable": 4066, "vegan": 4067, "vegetable": 4068, "vibr": 4069, "viding": 4070, "viol": 4071, "visibility": 4072, "vote": 4073, "ware": 4074, "wat": 4075, "wooden": 4076, "wrote": 4077, "walking": 4078, "weight": 4079, "within": 4080, "worker": 4081, "âĢĺ": 4082, "ä¸ī": 4083, "äº²": 4084, "å¼": 4085, "åĬ": 4086, "åĵ": 4087, "åħ³": 4088, "æµ": 4089, "æŃ": 4090, "æ°Ķ": 4091, "æĮī": 4092, "æķ°": 4093, "ç§": 4094, "ĠĠĠĠĠĠĠĠĠĠĠĠ": 4095, "27": 4096, "Aut": 4097, "Alber": 4098, "Albert": 4099, "BA": 4100, "BT": 4101, "Bar": 4102, "Bir": 4103, "Build": 4104, "CT": 4105, "Cloud": 4106, "Coffe": 4107, "Com": 4108, "Character": 4109, "Coffee": 4110, "Computer": 4111, "Coral": 4112, "Day": 4113, "Did": 4114, "Everyone": 4115, "Facebook": 4116, "Formul": 4117, "Formulate": 4118, "Green": 4119, "Hal": 4120, "Hel": 4121, "IP": 4122, "Ir": 4123, "Interess": 4124, "Interessant": 4125, "LP": 4126, "Lie": 4127, "LECT": 4128, "ME": 4129, "March": 4130, "Mir": 4131, "NBA": 4132, "Nennen": 4133, "Negative": 4134, "Online": 4135, "Pick": 4136, "Rep": 4137, "Rome": 4138, "Remove": 4139, "Romeo": 4140, "Sel": 4141, "Sk": 4142, "Stra": 4143, "SELECT": 4144, "Selbst": 4145, "State": 4146, "Think": 4147, "Through": 4148, "Topic": 4149, "True": 4150, "Vor": 4151, "Vegan": 4152, "Verb": 4153, "Would": 4154, "Writing": 4155, "Where": 4156, "Who": 4157, "ait": 4158, "ress": 4159, "abol": 4160, "ashed": 4161, "bra": 4162, "ctive": 4163, "constant": 4164, "cooked": 4165, "elle": 4166, "experienced": 4167, "fon": 4168, "gel": 4169, "hon": 4170, "heit": 4171, "hello": 4172, "ico": 4173, "ittle": 4174, "mical": 4175, "oster": 4176, "onist": 4177, "ply": 4178, "prevent": 4179, "reached": 4180, "reak": 4181, "ressed": 4182, "speaking": 4183, "stu": 4184, "super": 4185, "tagonist": 4186, "uge": 4187, "unning": 4188, "zu": 4189, "äº§": 4190, "åĪł": 4191, "æ£": 4192, "æ¸": 4193, "æ±Ĥ": 4194, "æĬĢ": 4195, "æİ¨": 4196, "æĹł": 4197, "æĽ¾": 4198, "çº": 4199, "ç½": 4200, "çĥ": 4201, "çĶµ": 4202, "èĭ": 4203, "è¯Ħ": 4204, "'ve": 4205, "196": 4206, "199": 4207, "28": 4208, "32": 4209, "35": 4210, "36": 4211, "41": 4212, "ATP": 4213, "Aust": 4214, "Adverb": 4215, "Advice": 4216, "Algorith": 4217, "mic": 4218, "Allow": 4219, "Alto": 4220, "Altostratus": 4221, "Angel": 4222, "Analytics": 4223, "Angeles": 4224, "Arc": 4225, "Arctic": 4226, "Area": 4227, "Assign": 4228, "BST": 4229, "Bet": 4230, "Black": 4231, "Break": 4232, "BTQ": 4233, "Banana": 4234, "Belgium": 4235, "Bringing": 4236, "Buy": 4237, "CI": 4238, "Cases": 4239, "Coun": 4240, "Cut": 4241, "Cy": 4242, "Californ": 4243, "California": 4244, "Category": 4245, "Chair": 4246, "Cogging": 4247, "Covid": 4248, "Compile": 4249, "Countries": 4250, "Creating": 4251, "Cuba": 4252, "DNA": 4253, "Despite": 4254, "Dive": 4255, "Don": 4256, "Depression": 4257, "Differ": 4258, "Discre": 4259, "Discus": 4260, "Discreet": 4261, "Discuss": 4262, "Econom": 4263, "Einf": 4264, "End": 4265, "Ents": 4266, "Entsch": 4267, "Erving": 4268, "Fi": 4269, "Wi": 4270, "With": 4271, "Flo": 4272, "From": 4273, "Future": 4274, "Florid": 4275, "Florida": 4276, "Furniture": 4277, "GAW": 4278, "GBTQ": 4279, "Gree": 4280, "General": 4281, "Gerne": 4282, "Giant": 4283, "Grego": 4284, "Gregoire": 4285, "Happ": 4286, "Humans": 4287, "IS": 4288, "Imag": 4289, "Ideas": 4290, "Improve": 4291, "Indi": 4292, "ana": 4293, "Inser": 4294, "Insert": 4295, "Internet": 4296, "Interrogative": 4297, "Investing": 4298, "Iron": 4299, "Jones": 4300, "Kill": 4301, "LGBTQ": 4302, "Last": 4303, "Law": 4304, "Linked": 4305, "Lis": 4306, "LinkedIn": 4307, "Lisa": 4308, "Mac": 4309, "Making": 4310, "Many": 4311, "Marti": 4312, "Moc": 4313, "Mars": 4314, "Martian": 4315, "Maxwell": 4316, "Mein": 4317, "Medicine": 4318, "Motivation": 4319, "Mocking": 4320, "Mockingbird": 4321, "NLP": 4322, "New": 4323, "Nim": 4324, "Non": 4325, "Nimbo": 4326, "Nimbostratus": 4327, "Overall": 4328, "Prep": 4329, "Phone": 4330, "Photosynthesis": 4331, "Practice": 4332, "Prepare": 4333, "Rear": 4334, "Resp": 4335, "Ros": 4336, "Reach": 4337, "Rearrange": 4338, "Respiratory": 4339, "Sever": 4340, "Shop": 4341, "Sind": 4342, "Soft": 4343, "Software": 4344, "Spain": 4345, "Sty": 4346, "Sw": 4347, "Schrei": 4348, "Second": 4349, "Services": 4350, "Sleeping": 4351, "Sovi": 4352, "Solar": 4353, "Soviet": 4354, "Stay": 4355, "Stone": 4356, "Stonewall": 4357, "Straw": 4358, "Style": 4359, "Supply": 4360, "TV": 4361, "Table": 4362, "Tent": 4363, "Tri": 4364, "Taquer": 4365, "Taqueria": 4366, "Then": 4367, "Try": 4368, "Ur": 4369, "Union": 4370, "Vari": 4371, "Von": 4372, "Vaccine": 4373, "Verse": 4374, "Vielle": 4375, "Vielleicht": 4376, "Watch": 4377, "Wil": 4378, "Wooden": 4379, "Wei": 4380, "Wellness": 4381, "While": 4382, "Working": 4383, "ades": 4384, "aiss": 4385, "astructure": 4386, "aven": 4387, "absolut": 4388, "absolutely": 4389, "accomp": 4390, "aced": 4391, "aces": 4392, "acious": 4393, "acting": 4394, "accompl": 4395, "accountability": 4396, "aceful": 4397, "Pe": 4398, "achieve": 4399, "activ": 4400, "adj": 4401, "adul": 4402, "adapted": 4403, "adjustable": 4404, "advanced": 4405, "advent": 4406, "adventure": 4407, "afford": 4408, "agers": 4409, "Te": 4410, "agi": 4411, "agiari": 4412, "agiarism": 4413, "agricultural": 4414, "ahrenheit": 4415, "aid": 4416, "aims": 4417, "aissance": 4418, "aken": 4419, "amat": 4420, "amazing": 4421, "amatic": 4422, "analo": 4423, "anther": 4424, "ander": 4425, "anguages": 4426, "anner": 4427, "ansion": 4428, "appear": 4429, "appears": 4430, "apples": 4431, "arkn": 4432, "armon": 4433, "arp": 4434, "archite": 4435, "architect": 4436, "arden": 4437, "ardless": 4438, "arkness": 4439, "armony": 4440, "aset": 4441, "asons": 4442, "asets": 4443, "assess": 4444, "assist": 4445, "attri": 4446, "atering": 4447, "athletes": 4448, "atoes": 4449, "attitude": 4450, "attribut": 4451, "attributes": 4452, "audio": 4453, "autonomous": 4454, "authority": 4455, "avorite": 4456, "award": 4457, "bad": 4458, "bak": 4459, "ery": 4460, "bari": 4461, "bath": 4462, "bed": 4463, "bing": 4464, "bit": 4465, "bite": 4466, "bought": 4467, "bread": 4468, "bul": 4469, "background": 4470, "backs": 4471, "bags": 4472, "balloons": 4473, "barked": 4474, "bean": 4475, "began": 4476, "bedding": 4477, "beddings": 4478, "beginning": 4479, "behaviors": 4480, "beliefs": 4481, "benefit": 4482, "biases": 4483, "big": 4484, "black": 4485, "bling": 4486, "bloom": 4487, "bott": 4488, "boundaries": 4489, "boundary": 4490, "brings": 4491, "brown": 4492, "breach": 4493, "breaking": 4494, "brok": 4495, "broken": 4496, "buds": 4497, "bugs": 4498, "built": 4499, "buyer": 4500, "case": 4501, "cases": 4502, "catch": 4503, "catering": 4504, "cil": 4505, "cts": 4506, "cade": 4507, "causing": 4508, "calming": 4509, "camping": 4510, "cancer": 4511, "candid": 4512, "candy": 4513, "candidate": 4514, "capable": 4515, "cape": 4516, "cards": 4517, "castle": 4518, "catego": 4519, "categories": 4520, "ceed": 4521, "ceden": 4522, "cedented": 4523, "celebrated": 4524, "centage": 4525, "center": 4526, "cern": 4527, "certainly": 4528, "cessed": 4529, "chi": 4530, "chil": 4531, "ains": 4532, "choose": 4533, "chairs": 4534, "challen": 4535, "challenge": 4536, "cheet": 4537, "chemical": 4538, "cheetah": 4539, "chime": 4540, "chord": 4541, "civil": 4542, "classic": 4543, "climates": 4544, "closer": 4545, "coaching": 4546, "coal": 4547, "cogging": 4548, "coastal": 4549, "coln": 4550, "Lin": 4551, "Lincoln": 4552, "collect": 4553, "combining": 4554, "compress": 4555, "competitive": 4556, "completion": 4557, "computational": 4558, "concern": 4559, "condi": 4560, "condition": 4561, "conference": 4562, "confron": 4563, "convert": 4564, "conditions": 4565, "conditional": 4566, "connections": 4567, "consultant": 4568, "consistent": 4569, "continues": 4570, "contributions": 4571, "conversations": 4572, "corrupting": 4573, "course": 4574, "crashed": 4575, "creation": 4576, "creativity": 4577, "crime": 4578, "crip": 4579, "critical": 4580, "criminal": 4581, "crowd": 4582, "cryst": 4583, "crystal": 4584, "ctuation": 4585, "culp": 4586, "curren": 4587, "cycle": 4588, "dang": 4589, "darkness": 4590, "dream": 4591, "danger": 4592, "dataset": 4593, "datasets": 4594, "death": 4595, "decor": 4596, "defe": 4597, "degrad": 4598, "io": 4599, "demon": 4600, "decrease": 4601, "dele": 4602, "delight": 4603, "desired": 4604, "designing": 4605, "developed": 4606, "developers": 4607, "dies": 4608, "diving": 4609, "didn": 4610, "dining": 4611, "disrup": 4612, "disease": 4613, "distributed": 4614, "dramatic": 4615, "drastic": 4616, "drawbacks": 4617, "eight": 4618, "ek": 4619, "earth": 4620, "economics": 4621, "edge": 4622, "election": 4623, "elev": 4624, "elves": 4625, "electron": 4626, "electronics": 4627, "ellular": 4628, "embeddings": 4629, "embr": 4630, "emphasizes": 4631, "employee": 4632, "enagers": 4633, "encer": 4634, "enco": 4635, "encour": 4636, "ensive": 4637, "engineer": 4638, "engineering": 4639, "enjoyable": 4640, "entro": 4641, "entiate": 4642, "entropy": 4643, "eral": 4644, "eric": 4645, "established": 4646, "evening": 4647, "evolved": 4648, "extensive": 4649, "extract": 4650, "excite": 4651, "excited": 4652, "excitement": 4653, "expansion": 4654, "expenses": 4655, "expensive": 4656, "expiration": 4657, "exports": 4658, "explainability": 4659, "exploring": 4660, "favorite": 4661, "flight": 4662, "fox": 4663, "facial": 4664, "factor": 4665, "failure": 4666, "farmer": 4667, "feet": 4668, "film": 4669, "finished": 4670, "flowers": 4671, "followed": 4672, "foreign": 4673, "foundation": 4674, "fraction": 4675, "freeing": 4676, "gall": 4677, "gases": 4678, "gation": 4679, "ged": 4680, "gment": 4681, "gone": 4682, "games": 4683, "gets": 4684, "generating": 4685, "generation": 4686, "geographic": 4687, "gged": 4688, "jo": 4689, "ggers": 4690, "ggs": 4691, "ghing": 4692, "gious": 4693, "reli": 4694, "gives": 4695, "gods": 4696, "grate": 4697, "graphy": 4698, "greet": 4699, "greatest": 4700, "guil": 4701, "guidance": 4702, "harmony": 4703, "huge": 4704, "habitats": 4705, "handmade": 4706, "heaven": 4707, "heavi": 4708, "hexa": 4709, "held": 4710, "helpful": 4711, "hexadecimal": 4712, "hiking": 4713, "holid": 4714, "holiday": 4715, "households": 4716, "iWatch": 4717, "ivil": 4718, "Civil": 4719, "ices": 4720, "icit": 4721, "iconic": 4722, "illnesses": 4723, "illustrates": 4724, "impacts": 4725, "imper": 4726, "imple": 4727, "implementing": 4728, "improving": 4729, "improvements": 4730, "inate": 4731, "inations": 4732, "inci": 4733, "incorrect": 4734, "inking": 4735, "inqu": 4736, "inse": 4737, "inves": 4738, "incred": 4739, "included": 4740, "incredible": 4741, "influencer": 4742, "infrastructure": 4743, "infringement": 4744, "inputs": 4745, "installing": 4746, "integers": 4747, "intelligent": 4748, "interpre": 4749, "interpret": 4750, "introduced": 4751, "introduction": 4752, "investments": 4753, "involved": 4754, "isBST": 4755, "ision": 4756, "isms": 4757, "ishment": 4758, "itched": 4759, "itchen": 4760, "itis": 4761, "itself": 4762, "jud": 4763, "join": 4764, "jobs": 4765, "joyous": 4766, "kind": 4767, "keeping": 4768, "kilo": 4769, "labor": 4770, "languages": 4771, "link": 4772, "little": 4773, "lunch": 4774, "landscape": 4775, "largely": 4776, "lasted": 4777, "launched": 4778, "layers": 4779, "leaves": 4780, "leadership": 4781, "lefto": 4782, "lessons": 4783, "lite": 4784, "ellite": 4785, "linder": 4786, "lined": 4787, "lists": 4788, "logist": 4789, "loso": 4790, "longitude": 4791, "losses": 4792, "louder": 4793, "lying": 4794, "manner": 4795, "mers": 4796, "mit": 4797, "mun": 4798, "magn": 4799, "magic": 4800, "maintain": 4801, "manipulate": 4802, "marked": 4803, "materials": 4804, "meal": 4805, "meals": 4806, "meaningful": 4807, "measured": 4808, "median": 4809, "meditation": 4810, "meeting": 4811, "memor": 4812, "memorable": 4813, "mix": 4814, "miner": 4815, "modynamics": 4816, "mother": 4817, "modify": 4818, "monitoring": 4819, "motherboard": 4820, "mselves": 4821, "native": 4822, "nor": 4823, "near": 4824, "neur": 4825, "neurons": 4826, "nodes": 4827, "oad": 4828, "objectives": 4829, "ocab": 4830, "offering": 4831, "ography": 4832, "olly": 4833, "Holly": 4834, "oman": 4835, "onent": 4836, "onia": 4837, "opinion": 4838, "opponent": 4839, "opportun": 4840, "opportunity": 4841, "orge": 4842, "orter": 4843, "oriti": 4844, "osion": 4845, "osis": 4846, "otherwise": 4847, "ouble": 4848, "double": 4849, "ounds": 4850, "overall": 4851, "owned": 4852, "oxy": 4853, "pet": 4854, "port": 4855, "pping": 4856, "paring": 4857, "particles": 4858, "passing": 4859, "password": 4860, "pets": 4861, "peaceful": 4862, "persistent": 4863, "perspective": 4864, "philoso": 4865, "photosh": 4866, "photoshoot": 4867, "picnic": 4868, "planets": 4869, "players": 4870, "poet": 4871, "position": 4872, "pover": 4873, "political": 4874, "policies": 4875, "poverty": 4876, "powered": 4877, "print": 4878, "precedented": 4879, "precise": 4880, "preparing": 4881, "predictors": 4882, "prising": 4883, "processed": 4884, "protagonist": 4885, "proto": 4886, "profiles": 4887, "projects": 4888, "protecting": 4889, "protectionism": 4890, "protocol": 4891, "punctuation": 4892, "pursu": 4893, "pursue": 4894, "quantum": 4895, "qualities": 4896, "raining": 4897, "rates": 4898, "rong": 4899, "rapidly": 4900, "reaching": 4901, "reasons": 4902, "recru": 4903, "reign": 4904, "rely": 4905, "reality": 4906, "recei": 4907, "receive": 4908, "recognized": 4909, "reduced": 4910, "refresh": 4911, "refreshing": 4912, "regardless": 4913, "relax": 4914, "reliable": 4915, "reports": 4916, "repeated": 4917, "repeating": 4918, "resolution": 4919, "revolutionize": 4920, "ried": 4921, "roll": 4922, "rolling": 4923, "robotic": 4924, "rought": 4925, "sla": 4926, "sne": 4927, "salaries": 4928, "satellite": 4929, "satisfied": 4930, "scene": 4931, "screensh": 4932, "sealed": 4933, "section": 4934, "sector": 4935, "sensitive": 4936, "severe": 4937, "shad": 4938, "sharp": 4939, "shif": 4940, "sight": 4941, "sius": 4942, "signals": 4943, "sils": 4944, "sklfj": 4945, "smile": 4946, "snake": 4947, "snakes": 4948, "societal": 4949, "sorting": 4950, "spot": 4951, "spring": 4952, "stick": 4953, "stream": 4954, "standards": 4955, "staying": 4956, "stepped": 4957, "stove": 4958, "stocks": 4959, "stru": 4960, "structured": 4961, "sufficient": 4962, "suited": 4963, "subj": 4964, "subjective": 4965, "substantive": 4966, "supplies": 4967, "survi": 4968, "survey": 4969, "susp": 4970, "switch": 4971, "tack": 4972, "taken": 4973, "telling": 4974, "tely": 4975, "tones": 4976, "tu": 4977, "tender": 4978, "terr": 4979, "terrain": 4980, "tests": 4981, "thane": 4982, "themes": 4983, "themselves": 4984, "theory": 4985, "timeline": 4986, "took": 4987, "tori": 4988, "touch": 4989, "trail": 4990, "truck": 4991, "tractable": 4992, "turning": 4993, "turns": 4994, "twink": 4995, "ume": 4996, "ultim": 4997, "unconditional": 4998, "unknown": 4999}, "id_to_token": {"0": "<s>", "1": "</s>", "2": "<pad>", "3": "<sys>", "4": "<usr>", "5": "<ai>", "6": "Ā", "7": "ā", "8": "Ă", "9": "ă", "10": "Ą", "11": "ą", "12": "Ć", "13": "ć", "14": "Ĉ", "15": "ĉ", "16": "Ċ", "17": "ċ", "18": "Č", "19": "č", "20": "Ď", "21": "ď", "22": "Đ", "23": "đ", "24": "Ē", "25": "ē", "26": "Ĕ", "27": "ĕ", "28": "Ė", "29": "ė", "30": "Ę", "31": "ę", "32": "Ě", "33": "ě", "34": "Ĝ", "35": "ĝ", "36": "Ğ", "37": "ğ", "38": "Ġ", "39": "!", "40": "\"", "41": "#", "42": "$", "43": "%", "44": "&", "45": "'", "46": "(", "47": ")", "48": "*", "49": "+", "50": ",", "51": "-", "52": ".", "53": "/", "54": "0", "55": "1", "56": "2", "57": "3", "58": "4", "59": "5", "60": "6", "61": "7", "62": "8", "63": "9", "64": ":", "65": ";", "66": "<", "67": "=", "68": ">", "69": "?", "70": "@", "71": "A", "72": "B", "73": "C", "74": "D", "75": "E", "76": "F", "77": "G", "78": "H", "79": "I", "80": "J", "81": "K", "82": "L", "83": "M", "84": "N", "85": "O", "86": "P", "87": "Q", "88": "R", "89": "S", "90": "T", "91": "U", "92": "V", "93": "W", "94": "X", "95": "Y", "96": "Z", "97": "[", "98": "\\", "99": "]", "100": "^", "101": "_", "102": "`", "103": "a", "104": "b", "105": "c", "106": "d", "107": "e", "108": "f", "109": "g", "110": "h", "111": "i", "112": "j", "113": "k", "114": "l", "115": "m", "116": "n", "117": "o", "118": "p", "119": "q", "120": "r", "121": "s", "122": "t", "123": "u", "124": "v", "125": "w", "126": "x", "127": "y", "128": "z", "129": "{", "130": "|", "131": "}", "132": "~", "133": "ġ", "134": "Ģ", "135": "ģ", "136": "Ĥ", "137": "ĥ", "138": "Ħ", "139": "ħ", "140": "Ĩ", "141": "ĩ", "142": "Ī", "143": "ī", "144": "Ĭ", "145": "ĭ", "146": "Į", "147": "į", "148": "İ", "149": "ı", "150": "Ĳ", "151": "ĳ", "152": "Ĵ", "153": "ĵ", "154": "Ķ", "155": "ķ", "156": "ĸ", "157": "Ĺ", "158": "ĺ", "159": "Ļ", "160": "ļ", "161": "Ľ", "162": "ľ", "163": "Ŀ", "164": "ŀ", "165": "Ł", "166": "ł", "167": "¡", "168": "¢", "169": "£", "170": "¤", "171": "¥", "172": "¦", "173": "§", "174": "¨", "175": "©", "176": "ª", "177": "«", "178": "¬", "179": "Ń", "180": "®", "181": "¯", "182": "°", "183": "±", "184": "²", "185": "³", "186": "´", "187": "µ", "188": "¶", "189": "·", "190": "¸", "191": "¹", "192": "º", "193": "»", "194": "¼", "195": "½", "196": "¾", "197": "¿", "198": "À", "199": "Á", "200": "Â", "201": "Ã", "202": "Ä", "203": "Å", "204": "Æ", "205": "Ç", "206": "È", "207": "É", "208": "Ê", "209": "Ë", "210": "Ì", "211": "Í", "212": "Î", "213": "Ï", "214": "Ð", "215": "Ñ", "216": "Ò", "217": "Ó", "218": "Ô", "219": "Õ", "220": "Ö", "221": "×", "222": "Ø", "223": "Ù", "224": "Ú", "225": "Û", "226": "Ü", "227": "Ý", "228": "Þ", "229": "ß", "230": "à", "231": "á", "232": "â", "233": "ã", "234": "ä", "235": "å", "236": "æ", "237": "ç", "238": "è", "239": "é", "240": "ê", "241": "ë", "242": "ì", "243": "í", "244": "î", "245": "ï", "246": "ð", "247": "ñ", "248": "ò", "249": "ó", "250": "ô", "251": "õ", "252": "ö", "253": "÷", "254": "ø", "255": "ù", "256": "ú", "257": "û", "258": "ü", "259": "ý", "260": "þ", "261": "ÿ", "262": "nextĠstudio", "263": "NextĠStudio", "264": "NextStudio", "265": "ä¸ĭä¸Ģä»£å·¥ä½ľå®¤", "266": "ä¸ĭä¸Ģä¸ªå·¥ä½ľå®¤", "267": "NextAI", "268": "nextai", "269": "ä¸ĭä¸Ģä¸ªAI", "270": "th", "271": "in", "272": "es", "273": "on", "274": "an", "275": "at", "276": "er", "277": "en", "278": "re", "279": "el", "280": "the", "281": "st", "282": "ri", "283": "ti", "284": "or", "285": "ing", "286": "as", "287": "ow", "288": "al", "289": "is", "290": "and", "291": "ro", "292": "le", "293": "to", "294": "se", "295": "te", "296": "uc", "297": "that", "298": "tion", "299": "ar", "300": "elow", "301": "co", "302": "Below", "303": "he", "304": "ic", "305": "of", "306": "pro", "307": "ĊĊ", "308": "ou", "309": "str", "310": "mp", "311": "ent", "312": "ed", "313": "struc", "314": "esp", "315": "ch", "316": "espon", "317": "struction", "318": "esponse", "319": "it", "320": "In", "321": "The", "322": "ap", "323": "des", "324": "ion", "325": "de", "326": "for", "327": "ut", "328": "ate", "329": "ur", "330": "be", "331": "qu", "332": "est", "333": "ac", "334": "ve", "335": "con", "336": "ol", "337": "me", "338": "comp", "339": "wi", "340": "rite", "341": "vi", "342": "cri", "343": "un", "344": "ce", "345": "ation", "346": "li", "347": "mo", "348": "Write", "349": "ge", "350": "ab", "351": "pri", "352": "ask", "353": "with", "354": "ely", "355": "task", "356": "comple", "357": "ma", "358": "descri", "359": "requ", "360": "ther", "361": "put", "362": "ly", "363": "appro", "364": "ĠĠ", "365": "ately", "366": "ess", "367": "describ", "368": "tes", "369": "response", "370": "request", "371": "instruction", "372": "ul", "373": "appropri", "374": "are", "375": "describes", "376": "ad", "377": "Instruction", "378": "Response", "379": "appropriately", "380": "completes", "381": "pl", "382": "ver", "383": "us", "384": "red", "385": "ne", "386": "wh", "387": "ine", "388": "gh", "389": "si", "390": "lo", "391": "low", "392": "ter", "393": "ai", "394": "ment", "395": "di", "396": "ain", "397": "ay", "398": "ke", "399": "Du", "400": "so", "401": "ie", "402": "wor", "403": "ex", "404": "ener", "405": "ers", "406": "op", "407": "ts", "408": "can", "409": "il", "410": "provi", "411": "ence", "412": "ec", "413": "our", "414": "um", "415": "tr", "416": "we", "417": "am", "418": "ir", "419": "tex", "420": "text", "421": "sh", "422": "use", "423": "ff", "424": "sp", "425": "cre", "426": "lowing", "427": "able", "428": "input", "429": "po", "430": "ich", "431": "ant", "432": "fol", "433": "fur", "434": "ld", "435": "om", "436": "provides", "437": "oo", "438": "age", "439": "gr", "440": "further", "441": "by", "442": "ure", "443": "following", "444": "enti", "445": "context", "446": "out", "447": "pai", "448": "Input", "449": "paired", "450": "Ich", "451": "De", "452": "et", "453": "ci", "454": "all", "455": "Al", "456": "Th", "457": "em", "458": "ght", "459": "was", "460": "ive", "461": "åĪ", "462": "der", "463": "ven", "464": "gn", "465": "cl", "466": "cess", "467": "ally", "468": "sent", "469": "ust", "470": "ind", "471": "enerate", "472": "up", "473": "ted", "474": "one", "475": "pe", "476": "ces", "477": "form", "478": "ty", "479": "ave", "480": "king", "481": "ĠĠĠĠ", "482": "Nat", "483": "rom", "484": "ze", "485": "com", "486": "suc", "487": "res", "488": "ity", "489": "ag", "490": "è¾", "491": "end", "492": "Generate", "493": "Wh", "494": "è¾ĵ", "495": "Die", "496": "has", "497": "sentence", "498": "from", "499": "ast", "500": "ort", "501": "gi", "502": "ä¸", "503": "its", "504": "ds", "505": "go", "506": "ew", "507": "per", "508": "imp", "509": "Das", "510": "ame", "511": "used", "512": "duc", "513": "im", "514": "gy", "515": "more", "516": "Als", "517": "He", "518": "çĶ", "519": "ach", "520": "ann", "521": "fy", "522": "ould", "523": "ct", "524": "also", "525": "Des", "526": "ase", "527": "dat", "528": "have", "529": "tic", "530": "no", "531": "ang", "532": "bo", "533": "Cre", "534": "cont", "535": "ous", "536": "tions", "537": "ere", "538": "ful", "539": "'s", "540": "such", "541": "vel", "542": "oun", "543": "su", "544": "Create", "545": "Deine", "546": "par", "547": "hi", "548": "This", "549": "their", "550": "ting", "551": "What", "552": "bet", "553": "work", "554": "âĢ", "555": "del", "556": "Ex", "557": "ll", "558": "sy", "559": "ree", "560": "Kann", "561": "do", "562": "ater", "563": "which", "564": "Co", "565": "plain", "566": "au", "567": "ance", "568": "id", "569": "hel", "570": "Kannst", "571": "ated", "572": "fe", "573": "mar", "574": "ans", "575": "ble", "576": "ell", "577": "fic", "578": "ffer", "579": "tive", "580": "ations", "581": "cribe", "582": "ack", "583": "sol", "584": "Describe", "585": "data", "586": "ies", "587": "ser", "588": "Es", "589": "ace", "590": "ile", "591": "br", "592": "ning", "593": "any", "594": "val", "595": "ange", "596": "ect", "597": "lear", "598": "ep", "599": "help", "600": "ist", "601": "other", "602": "comm", "603": "ical", "604": "new", "605": "clu", "606": "should", "607": "Was", "608": "ms", "609": "cor", "610": "æı", "611": "An", "612": "produc", "613": "ves", "614": "Der", "615": "ph", "616": "ased", "617": "ear", "618": "way", "619": "ari", "620": "vic", "621": "Pro", "622": "ier", "623": "cis", "624": "icher", "625": "incre", "626": "your", "627": "åĨ", "628": "ak", "629": "Explain", "630": "Sicher", "631": "coun", "632": "inter", "633": "own", "634": "ving", "635": "cur", "636": "ake", "637": "ca", "638": "dis", "639": "differ", "640": "ite", "641": "iz", "642": "inclu", "643": "process", "644": "about", "645": "che", "646": "It", "647": "ative", "648": "lar", "649": "atur", "650": "stem", "651": "ating", "652": "ding", "653": "given", "654": "line", "655": "She", "656": "ween", "657": "AI", "658": "list", "659": "vir", "660": "gg", "661": "åĨĻ", "662": "æĪ", "663": "between", "664": "eff", "665": "most", "666": "ass", "667": "stor", "668": "çĶŁ", "669": "10", "670": "ber", "671": "ue", "672": "ign", "673": "è¿", "674": "Gi", "675": "alth", "676": "energy", "677": "int", "678": "system", "679": "assi", "680": "ties", "681": "les", "682": "ood", "683": "pre", "684": "und", "685": "Comp", "686": "ard", "687": "cul", "688": "ient", "689": "ill", "690": "model", "691": "sk", "692": "web", "693": "Ch", "694": "act", "695": "ary", "696": "ople", "697": "æĪĳ", "698": "è¿Ļ", "699": "entify", "700": "ia", "701": "man", "702": "ors", "703": "reduc", "704": "time", "705": "ustom", "706": "make", "707": "bu", "708": "chn", "709": "ore", "710": "tri", "711": "Name", "712": "Ad", "713": "app", "714": "gre", "715": "into", "716": "ong", "717": "will", "718": "âĢĻ", "719": "dr", "720": "Find", "721": "med", "722": "pr", "723": "Id", "724": "net", "725": "è®", "726": "Klar", "727": "ight", "728": "import", "729": "led", "730": "like", "731": "ments", "732": "plan", "733": "gram", "734": "åĪĽ", "735": "get", "736": "ial", "737": "over", "738": "ower", "739": "world", "740": "20", "741": "cial", "742": "decis", "743": "eng", "744": "people", "745": "using", "746": "oc", "747": "decision", "748": "lim", "749": "while", "750": "åĪĹ", "751": "than", "752": "ats", "753": "ev", "754": "techn", "755": "they", "756": "Con", "757": "aly", "758": "sing", "759": "ences", "760": "ever", "761": "day", "762": "ud", "763": "ä»", "764": "Rew", "765": "cr", "766": "col", "767": "num", "768": "stand", "769": "ved", "770": "cal", "771": "erson", "772": "learning", "773": "ob", "774": "power", "775": "tur", "776": "fi", "777": "Rewrite", "778": "dition", "779": "water", "780": "Identify", "781": "custom", "782": "how", "783": "ick", "784": "min", "785": "als", "786": "this", "787": "bl", "788": "fin", "789": "ä¸º", "790": "æıı", "791": "his", "792": "peri", "793": "tain", "794": "cer", "795": "high", "796": "ates", "797": "olo", "798": "ound", "799": "under", "800": "ho", "801": "ication", "802": "iness", "803": "not", "804": "ources", "805": "pic", "806": "St", "807": "amp", "808": "art", "809": "bal", "810": "come", "811": "health", "812": "light", "813": "who", "814": "ility", "815": "important", "816": "reduce", "817": "story", "818": "åľ", "819": "Given", "820": "ases", "821": "cy", "822": "word", "823": "è§", "824": "My", "825": "appl", "826": "ction", "827": "create", "828": "some", "829": "stud", "830": "tra", "831": "viron", "832": "fl", "833": "Um", "834": "è§£", "835": "cent", "836": "ip", "837": "ish", "838": "read", "839": "rou", "840": "velop", "841": "å°", "842": "æī", "843": "Dies", "844": "acti", "845": "bus", "846": "kn", "847": "lassi", "848": "ren", "849": "rize", "850": "comput", "851": "gan", "852": "off", "853": "thing", "854": "ese", "855": "Wow", "856": "include", "857": "there", "858": "vice", "859": "words", "860": "fr", "861": "struct", "862": "if", "863": "oy", "864": "round", "865": "vide", "866": "åľ¨", "867": "æī¾", "868": "Re", "869": "accur", "870": "different", "871": "lead", "872": "provide", "873": "vis", "874": "Addition", "875": "Additionally", "876": "List", "877": "ens", "878": "ents", "879": "but", "880": "been", "881": "cap", "882": "ize", "883": "ution", "884": "ink", "885": "tw", "886": "two", "887": "life", "888": "making", "889": "pres", "890": "technolo", "891": "when", "892": "äº", "893": "aph", "894": "ggest", "895": "tim", "896": "è¯", "897": "atures", "898": "cu", "899": "environ", "900": "impro", "901": "inform", "902": "person", "903": "å¥", "904": "Ein", "905": "En", "906": "af", "907": "examp", "908": "os", "909": "ose", "910": "order", "911": "redic", "912": "æł", "913": "commun", "914": "conom", "915": "ele", "916": "hum", "917": "set", "918": "tom", "919": "understand", "920": "çĶ¨", "921": "They", "922": "Wie", "923": "less", "924": "rough", "925": "vers", "926": "19", "927": "On", "928": "We", "929": "Wel", "930": "ability", "931": "av", "932": "angu", "933": "ature", "934": "business", "935": "pur", "936": "reco", "937": "å°Ĩ", "938": "Classi", "939": "Classify", "940": "air", "941": "care", "942": "example", "943": "ple", "944": "pot", "945": "ential", "946": "Su", "947": "Tr", "948": "arr", "949": "develop", "950": "experi", "951": "hn", "952": "Jo", "953": "my", "954": "ook", "955": "well", "956": "John", "957": "ics", "958": "char", "959": "inv", "960": "limate", "961": "mer", "962": "umma", "963": "back", "964": "aw", "965": "change", "966": "ded", "967": "econom", "968": "glo", "969": "mag", "970": "network", "971": "pat", "972": "pol", "973": "prof", "974": "rect", "975": "emp", "976": "spe", "977": "Un", "978": "ten", "979": "ck", "980": "ail", "981": "anguage", "982": "food", "983": "ok", "984": "predic", "985": "potential", "986": "recogn", "987": "sign", "988": "success", "989": "technology", "990": "turn", "991": "year", "992": "Provide", "993": "Summa", "994": "conne", "995": "graph", "996": "loy", "997": "spec", "998": "vices", "999": "Cal", "1000": "Summarize", "1001": "based", "1002": "blo", "1003": "culate", "1004": "orts", "1005": "play", "1006": "pos", "1007": "social", "1008": "strate", "1009": "tasks", "1010": "type", "1011": "ustr", "1012": "ular", "1013": "what", "1014": "ä½", "1015": "æł¹", "1016": "ition", "1017": "mon", "1018": "sm", "1019": "side", "1020": "vation", "1021": "How", "1022": "both", "1023": "environment", "1024": "gener", "1025": "ited", "1026": "ject", "1027": "ming", "1028": "need", "1029": "quick", "1030": "resul", "1031": "ries", "1032": "car", "1033": "site", "1034": "through", "1035": "website", "1036": "Be", "1037": "ide", "1038": "atural", "1039": "ced", "1040": "fun", "1041": "good", "1042": "ily", "1043": "mach", "1044": "natural", "1045": "ä¸Ģ", "1046": "As", "1047": "War", "1048": "area", "1049": "bers", "1050": "better", "1051": "cm", "1052": "coul", "1053": "could", "1054": "def", "1055": "design", "1056": "exp", "1057": "fac", "1058": "find", "1059": "mem", "1060": "od", "1061": "page", "1062": "proble", "1063": "program", "1064": "ques", "1065": "sel", "1066": "æľ", "1067": "Hier", "1068": "ben", "1069": "ef", "1070": "many", "1071": "right", "1072": "uch", "1073": "uni", "1074": "ath", "1075": "adv", "1076": "bi", "1077": "being", "1078": "climate", "1079": "contain", "1080": "eas", "1081": "ects", "1082": "effic", "1083": "gu", "1084": "ific", "1085": "increase", "1086": "ings", "1087": "language", "1088": "part", "1089": "rel", "1090": "three", "1091": "vari", "1092": "æıĲ", "1093": "ç»", "1094": "ĠĠĠĠĠĠĠĠ", "1095": "Make", "1096": "Suggest", "1097": "clo", "1098": "cep", "1099": "ficial", "1100": "team", "1101": "è®¡", "1102": "Give", "1103": "around", "1104": "allow", "1105": "analy", "1106": "each", "1107": "ewable", "1108": "fore", "1109": "ications", "1110": "information", "1111": "qual", "1112": "return", "1113": "ual", "1114": "uses", "1115": "would", "1116": "ather", "1117": "book", "1118": "dri", "1119": "vid", "1120": "¦Ĥ", "1121": "For", "1122": "had", "1123": "Sch", "1124": "tt", "1125": "aut", "1126": "arti", "1127": "customer", "1128": "ession", "1129": "fir", "1130": "iel", "1131": "ice", "1132": "improve", "1133": "items", "1134": "long", "1135": "media", "1136": "models", "1137": "ori", "1138": "online", "1139": "opp", "1140": "range", "1141": "reg", "1142": "she", "1143": "sum", "1144": "sur", "1145": "Design", "1146": "ball", "1147": "bre", "1148": "chang", "1149": "ines", "1150": "land", "1151": "mis", "1152": "gori", "1153": "ot", "1154": "rest", "1155": "sible", "1156": "ä»¥", "1157": "æĬ", "1158": "202", "1159": "Calculate", "1160": "So", "1161": "acy", "1162": "consi", "1163": "enn", "1164": "ffic", "1165": "global", "1166": "human", "1167": "ions", "1168": "love", "1169": "machine", "1170": "ouse", "1171": "pass", "1172": "prote", "1173": "product", "1174": "ric", "1175": "sources", "1176": "ste", "1177": "take", "1178": "try", "1179": "were", "1180": "ways", "1181": "why", "1182": "gin", "1183": "ized", "1184": "lig", "1185": "mul", "1186": "sup", "1187": "tiv", "1188": "ticle", "1189": "Fin", "1190": "One", "1191": "ables", "1192": "action", "1193": "cause", "1194": "count", "1195": "fam", "1196": "five", "1197": "ghts", "1198": "gorith", "1199": "house", "1200": "head", "1201": "home", "1202": "joy", "1203": "know", "1204": "made", "1205": "may", "1206": "marke", "1207": "mean", "1208": "ness", "1209": "number", "1210": "perform", "1211": "poem", "1212": "que", "1213": "quickly", "1214": "stay", "1215": "store", "1216": "test", "1217": "tool", "1218": "where", "1219": "å¦Ĥ", "1220": "US", "1221": "Welche", "1222": "ash", "1223": "employ", "1224": "gen", "1225": "issu", "1226": "pose", "1227": "sis", "1228": "sts", "1229": "ually", "1230": "event", "1231": "Construct", "1232": "asing", "1233": "autom", "1234": "cle", "1235": "content", "1236": "educ", "1237": "gies", "1238": "hand", "1239": "ili", "1240": "level", "1241": "nam", "1242": "phr", "1243": "reat", "1244": "ros", "1245": "sci", "1246": "ship", "1247": "systems", "1248": "tal", "1249": "Analy", "1250": "aking", "1251": "arch", "1252": "atch", "1253": "correct", "1254": "ective", "1255": "mper", "1256": "vert", "1257": "åı", "1258": "'t", "1259": "Im", "1260": "mi", "1261": "Viel", "1262": "article", "1263": "efficient", "1264": "elect", "1265": "game", "1266": "last", "1267": "patient", "1268": "sitive", "1269": "state", "1270": "step", "1271": "successful", "1272": "tern", "1273": "trans", "1274": "value", "1275": "virus", "1276": "å¾", "1277": "ama", "1278": "acter", "1279": "ages", "1280": "ctor", "1281": "Do", "1282": "hy", "1283": "hed", "1284": "let", "1285": "tics", "1286": "ural", "1287": "äºº", "1288": "Ar", "1289": "avi", "1290": "access", "1291": "algorith", "1292": "allowing", "1293": "certain", "1294": "communication", "1295": "customers", "1296": "economy", "1297": "education", "1298": "face", "1299": "features", "1300": "first", "1301": "gs", "1302": "great", "1303": "imag", "1304": "ically", "1305": "inno", "1306": "increased", "1307": "mary", "1308": "movi", "1309": "movie", "1310": "ner", "1311": "often", "1312": "old", "1313": "only", "1314": "ory", "1315": "phrase", "1316": "pically", "1317": "present", "1318": "service", "1319": "sph", "1320": "uture", "1321": "view", "1322": "å¥¹", "1323": "å¾Ī", "1324": "åĪĨ", "1325": "ç»Ļ", "1326": "è®¾", "1327": "Br", "1328": "Sie", "1329": "bel", "1330": "blic", "1331": "inu", "1332": "ital", "1333": "move", "1334": "roduc", "1335": "services", "1336": "sky", "1337": "temper", "1338": "ublic", "1339": "åĪ¶", "1340": "15", "1341": "Amer", "1342": "Americ", "1343": "Ne", "1344": "ancial", "1345": "applications", "1346": "atform", "1347": "atmo", "1348": "atmosph", "1349": "ctions", "1350": "ire", "1351": "complex", "1352": "equ", "1353": "even", "1354": "earch", "1355": "ellig", "1356": "ending", "1357": "ends", "1358": "expl", "1359": "feel", "1360": "ien", "1361": "ious", "1362": "just", "1363": "key", "1364": "large", "1365": "mil", "1366": "much", "1367": "organ", "1368": "place", "1369": "platform", "1370": "recent", "1371": "rele", "1372": "resources", "1373": "sal", "1374": "sun", "1375": "self", "1376": "small", "1377": "study", "1378": "supp", "1379": "tran", "1380": "typically", "1381": "understanding", "1382": "uring", "1383": "war", "1384": "å¯", "1385": "Analyze", "1386": "Convert", "1387": "akes", "1388": "sn", "1389": "anim", "1390": "bt", "1391": "cept", "1392": "cour", "1393": "due", "1394": "gative", "1395": "thou", "1396": "wal", "1397": "Compare", "1398": "Er", "1399": "Vielen", "1400": "Wer", "1401": "aur", "1402": "abl", "1403": "ons", "1404": "ank", "1405": "Fr", "1406": "ational", "1407": "businesses", "1408": "cover", "1409": "country", "1410": "creating", "1411": "down", "1412": "dep", "1413": "decisions", "1414": "ered", "1415": "every", "1416": "experience", "1417": "found", "1418": "fru", "1419": "grow", "1420": "ills", "1421": "mine", "1422": "mental", "1423": "multi", "1424": "open", "1425": "price", "1426": "processing", "1427": "rees", "1428": "rep", "1429": "restaur", "1430": "ses", "1431": "sit", "1432": "something", "1433": "ster", "1434": "trees", "1435": "years", "1436": "ãĢ", "1437": "ä¸ĭ", "1438": "æĺ", "1439": "Once", "1440": "anke", "1441": "bat", "1442": "tle", "1443": "cho", "1444": "phy", "1445": "termine", "1446": "these", "1447": "ung", "1448": "vol", "1449": "weet", "1450": "»º", "1451": "å»º", "1452": "12", "1453": "18", "1454": "Eine", "1455": "France", "1456": "accurate", "1457": "atmosphere", "1458": "benef", "1459": "character", "1460": "color", "1461": "computers", "1462": "don", "1463": "deli", "1464": "very", "1465": "does", "1466": "elements", "1467": "future", "1468": "images", "1469": "infl", "1470": "including", "1471": "increasing", "1472": "intellig", "1473": "iss", "1474": "job", "1475": "la", "1476": "larg", "1477": "learn", "1478": "ledge", "1479": "lives", "1480": "maj", "1481": "manage", "1482": "novel", "1483": "numbers", "1484": "ox", "1485": "pap", "1486": "pop", "1487": "planet", "1488": "problem", "1489": "rial", "1490": "solut", "1491": "spread", "1492": "structure", "1493": "tical", "1494": "ãĢĬ", "1495": "Au", "1496": "Da", "1497": "Danke", "1498": "Wor", "1499": "den", "1500": "dy", "1501": "fle", "1502": "fri", "1503": "public", "1504": "syn", "1505": "ony", "1506": "ult", "1507": "ustain", "1508": "âĢľ", "1509": "å¥½", "1510": "Finally", "1511": "Schri", "1512": "Schritt", "1513": "Trans", "1514": "away", "1515": "account", "1516": "application", "1517": "ards", "1518": "artificial", "1519": "ati", "1520": "best", "1521": "become", "1522": "cure", "1523": "caused", "1524": "cise", "1525": "computer", "1526": "ders", "1527": "din", "1528": "eth", "1529": "explain", "1530": "fer", "1531": "gl", "1532": "gether", "1533": "going", "1534": "healthcare", "1535": "ideas", "1536": "insp", "1537": "internet", "1538": "itch", "1539": "knowledge", "1540": "levels", "1541": "meaning", "1542": "oney", "1543": "oper", "1544": "pain", "1545": "paper", "1546": "performance", "1547": "production", "1548": "respon", "1549": "restaurant", "1550": "sentences", "1551": "show", "1552": "statement", "1553": "together", "1554": "topic", "1555": "tries", "1556": "ustry", "1557": "Compose", "1558": "Health", "1559": "Se", "1560": "Tw", "1561": "ah", "1562": "ones", "1563": "ax", "1564": "ane", "1565": "divid", "1566": "ieren", "1567": "itor", "1568": "mat", "1569": "run", "1570": "ture", "1571": "¡®", "1572": "åħ", "1573": "å¯¹", "1574": "æĢ", "1575": "æĤ", "1576": "ç¡®", "1577": "éĢ", "1578": "Diese", "1579": "Ren", "1580": "Wenn", "1581": "When", "1582": "accuracy", "1583": "activi", "1584": "activities", "1585": "bon", "1586": "cted", "1587": "cling", "1588": "creative", "1589": "curi", "1590": "deci", "1591": "differences", "1592": "fact", "1593": "fiz", "1594": "financial", "1595": "green", "1596": "impact", "1597": "individ", "1598": "industry", "1599": "interest", "1600": "ird", "1601": "ism", "1602": "must", "1603": "max", "1604": "major", "1605": "name", "1606": "networks", "1607": "ock", "1608": "oftw", "1609": "oftware", "1610": "poll", "1611": "promo", "1612": "quality", "1613": "question", "1614": "revol", "1615": "renewable", "1616": "require", "1617": "sound", "1618": "scienti", "1619": "secure", "1620": "sil", "1621": "simp", "1622": "signific", "1623": "skills", "1624": "sports", "1625": "species", "1626": "tree", "1627": "tional", "1628": "utions", "1629": "solutions", "1630": "users", "1631": "verse", "1632": "won", "1633": "zing", "1634": "æ¯", "1635": "æĢ»", "1636": "æĤ¨", "1637": "201", "1638": "Cate", "1639": "Hey", "1640": "aging", "1641": "ants", "1642": "Pl", "1643": "auty", "1644": "connect", "1645": "dom", "1646": "decre", "1647": "dem", "1648": "dia", "1649": "fast", "1650": "fizieren", "1651": "generate", "1652": "hop", "1653": "los", "1654": "py", "1655": "personal", "1656": "sustain", "1657": "speed", "1658": "Ab", "1659": "Absolut", "1660": "Chin", "1661": "HT", "1662": "If", "1663": "States", "1664": "United", "1665": "Warum", "1666": "abili", "1667": "abor", "1668": "advant", "1669": "ason", "1670": "aten", "1671": "because", "1672": "benefits", "1673": "buil", "1674": "cie", "1675": "cus", "1676": "cessary", "1677": "chall", "1678": "colle", "1679": "ues", "1680": "coming", "1681": "common", "1682": "cycling", "1683": "dro", "1684": "dig", "1685": "dist", "1686": "dise", "1687": "enable", "1688": "events", "1689": "few", "1690": "flow", "1691": "free", "1692": "family", "1693": "gover", "1694": "greater", "1695": "happ", "1696": "ither", "1697": "either", "1698": "idea", "1699": "inc", "1700": "introduc", "1701": "intelligence", "1702": "invol", "1703": "leep", "1704": "leading", "1705": "look", "1706": "mid", "1707": "money", "1708": "multiple", "1709": "now", "1710": "necessary", "1711": "nex", "1712": "next", "1713": "object", "1714": "output", "1715": "passage", "1716": "pollution", "1717": "possible", "1718": "purpose", "1719": "revolution", "1720": "root", "1721": "ross", "1722": "search", "1723": "see", "1724": "short", "1725": "significant", "1726": "socie", "1727": "strategies", "1728": "today", "1729": "train", "1730": "æ¯Ķ", "1731": "Mach", "1732": "Me", "1733": "Out", "1734": "chain", "1735": "concept", "1736": "ey", "1737": "hard", "1738": "influ", "1739": "mart", "1740": "nature", "1741": "night", "1742": "ney", "1743": "ona", "1744": "phys", "1745": "sche", "1746": "thes", "1747": "¾İ", "1748": "æĺ¯", "1749": "ç¾İ", "1750": "è¯Ĩ", "1751": "Ap", "1752": "HTM", "1753": "HTML", "1754": "Is", "1755": "aring", "1756": "Wind", "1757": "ows", "1758": "agraph", "1759": "aver", "1760": "aving", "1761": "abilities", "1762": "actions", "1763": "actice", "1764": "aged", "1765": "amoun", "1766": "audi", "1767": "auth", "1768": "auti", "1769": "autiful", "1770": "below", "1771": "beautiful", "1772": "beauty", "1773": "before", "1774": "belie", "1775": "blue", "1776": "block", "1777": "cats", "1778": "cip", "1779": "clou", "1780": "commend", "1781": "compan", "1782": "contro", "1783": "countries", "1784": "date", "1785": "deep", "1786": "dern", "1787": "diffic", "1788": "difference", "1789": "effects", "1790": "electric", "1791": "ense", "1792": "ength", "1793": "ering", "1794": "exist", "1795": "facto", "1796": "fiel", "1797": "sub", "1798": "fig", "1799": "forest", "1800": "govern", "1801": "higher", "1802": "ible", "1803": "inks", "1804": "innovation", "1805": "ise", "1806": "ju", "1807": "law", "1808": "lay", "1809": "men", "1810": "oking", "1811": "oods", "1812": "ountain", "1813": "past", "1814": "paragraph", "1815": "period", "1816": "positive", "1817": "powerful", "1818": "real", "1819": "recor", "1820": "resulting", "1821": "ribu", "1822": "robo", "1823": "sea", "1824": "sequ", "1825": "single", "1826": "space", "1827": "sty", "1828": "working", "1829": "100", "1830": "Bu", "1831": "Change", "1832": "Char", "1833": "Fren", "1834": "French", "1835": "There", "1836": "angle", "1837": "aste", "1838": "chool", "1839": "cook", "1840": "els", "1841": "function", "1842": "ges", "1843": "ierend", "1844": "Bas", "1845": "Basierend", "1846": "issue", "1847": "mal", "1848": "ploy", "1849": "point", "1850": "prev", "1851": "riting", "1852": "unch", "1853": "No", "1854": "ä½ľ", "1855": "æŀ", "1856": "'m", "1857": "Cor", "1858": "Custom", "1859": "Come", "1860": "Person", "1861": "Renewable", "1862": "Using", "1863": "ared", "1864": "array", "1865": "atus", "1866": "automate", "1867": "base", "1868": "break", "1869": "cir", "1870": "centr", "1871": "class", "1872": "company", "1873": "cond", "1874": "convers", "1875": "consider", "1876": "curity", "1877": "demand", "1878": "descrip", "1879": "development", "1880": "doctor", "1881": "ected", "1882": "electricity", "1883": "ety", "1884": "far", "1885": "factorial", "1886": "follow", "1887": "fort", "1888": "him", "1889": "heart", "1890": "history", "1891": "ian", "1892": "identify", "1893": "keep", "1894": "logo", "1895": "mus", "1896": "modern", "1897": "mole", "1898": "options", "1899": "outh", "1900": "ource", "1901": "pie", "1902": "plant", "1903": "plants", "1904": "platforms", "1905": "prin", "1906": "project", "1907": "problems", "1908": "profit", "1909": "providing", "1910": "purch", "1911": "recognition", "1912": "school", "1913": "software", "1914": "security", "1915": "start", "1916": "tag", "1917": "ters", "1918": "vo", "1919": "fil", "1920": "star", "1921": "those", "1922": "tools", "1923": "transp", "1924": "user", "1925": "ush", "1926": "values", "1927": "verb", "1928": "without", "1929": "zed", "1930": "Catego", "1931": "Categorize", "1932": "Ear", "1933": "GP", "1934": "Ge", "1935": "GPT", "1936": "Inter", "1937": "Or", "1938": "Res", "1939": "ute", "1940": "Three", "1941": "anan", "1942": "deploy", "1943": "elling", "1944": "engine", "1945": "ester", "1946": "fs", "1947": "force", "1948": "ination", "1949": "comb", "1950": "ling", "1951": "lef", "1952": "loss", "1953": "mor", "1954": "meth", "1955": "oot", "1956": "special", "1957": "though", "1958": "win", "1959": "Ed", "1960": "Edit", "1961": "walk", "1962": "æ°", "1963": "æĶ", "1964": "æĬĬ", "1965": "ç¼", "1966": "Austr", "1967": "And", "1968": "Austral", "1969": "Can", "1970": "Customer", "1971": "Let", "1972": "Machine", "1973": "Noinput", "1974": "Ste", "1975": "ps", "1976": "Tex", "1977": "Welch", "1978": "Yes", "1979": "across", "1980": "active", "1981": "ada", "1982": "advantages", "1983": "ager", "1984": "algorithms", "1985": "andem", "1986": "andemic", "1987": "animal", "1988": "answ", "1989": "areas", "1990": "ationship", "1991": "avail", "1992": "bar", "1993": "bur", "1994": "begin", "1995": "call", "1996": "camp", "1997": "challeng", "1998": "ched", "1999": "cloud", "2000": "coll", "2001": "contr", "2002": "cry", "2003": "defin", "2004": "delivery", "2005": "did", "2006": "difficult", "2007": "diseases", "2008": "dress", "2009": "easier", "2010": "emiss", "2011": "emissions", "2012": "fect", "2013": "feed", "2014": "feeling", "2015": "functions", "2016": "goods", "2017": "generally", "2018": "government", "2019": "grad", "2020": "iti", "2021": "icate", "2022": "iet", "2023": "indust", "2024": "inging", "2025": "invest", "2026": "iture", "2027": "item", "2028": "lines", "2029": "lement", "2030": "might", "2031": "mark", "2032": "meet", "2033": "motiv", "2034": "niture", "2035": "never", "2036": "news", "2037": "obj", "2038": "oft", "2039": "others", "2040": "ourney", "2041": "pattern", "2042": "physical", "2043": "playing", "2044": "post", "2045": "predictions", "2046": "primary", "2047": "produce", "2048": "rup", "2049": "recommend", "2050": "relationship", "2051": "resh", "2052": "role", "2053": "source", "2054": "seen", "2055": "sever", "2056": "simple", "2057": "snack", "2058": "solar", "2059": "still", "2060": "sto", "2061": "stead", "2062": "steps", "2063": "suggest", "2064": "sustainable", "2065": "trust", "2066": "travel", "2067": "ule", "2068": "unique", "2069": "ures", "2070": "press", "2071": "vity", "2072": "adi", "2073": "veget", "2074": "voice", "2075": "wind", "2076": "ä»ĸ", "2077": "æľī", "2078": "æŀĦ", "2079": "ç¼ĸ", "2080": "éĢī", "2081": "16", "2082": "200", "2083": "Australia", "2084": "Mar", "2085": "Mon", "2086": "Nor", "2087": "SE", "2088": "These", "2089": "Water", "2090": "Zut", "2091": "Zutaten", "2092": "aching", "2093": "asso", "2094": "ashion", "2095": "bri", "2096": "craf", "2097": "ecti", "2098": "ene", "2099": "entiment", "2100": "mel", "2101": "ome", "2102": "research", "2103": "room", "2104": "temperature", "2105": "ç®", "2106": "America", "2107": "China", "2108": "Fur", "2109": "Gats", "2110": "Gatsby", "2111": "Offer", "2112": "South", "2113": "Step", "2114": "Text", "2115": "achie", "2116": "after", "2117": "algorithm", "2118": "ances", "2119": "argu", "2120": "associ", "2121": "associated", "2122": "ator", "2123": "audience", "2124": "available", "2125": "bright", "2126": "battle", "2127": "blog", "2128": "blockchain", "2129": "board", "2130": "books", "2131": "buy", "2132": "came", "2133": "cast", "2134": "clear", "2135": "cred", "2136": "carbon", "2137": "changed", "2138": "changing", "2139": "circle", "2140": "code", "2141": "cold", "2142": "colors", "2143": "collabor", "2144": "comes", "2145": "concentr", "2146": "confl", "2147": "ict", "2148": "connected", "2149": "considered", "2150": "continu", "2151": "cules", "2152": "dden", "2153": "dget", "2154": "debt", "2155": "determine", "2156": "depend", "2157": "digital", "2158": "drast", "2159": "easily", "2160": "ection", "2161": "economic", "2162": "effective", "2163": "employment", "2164": "ended", "2165": "ext", "2166": "extre", "2167": "essential", "2168": "everyone", "2169": "explor", "2170": "extreme", "2171": "fashion", "2172": "fu", "2173": "figure", "2174": "forestation", "2175": "fruit", "2176": "gging", "2177": "giving", "2178": "goals", "2179": "gration", "2180": "growth", "2181": "hab", "2182": "hai", "2183": "hol", "2184": "iency", "2185": "inst", "2186": "includes", "2187": "ished", "2188": "issues", "2189": "iting", "2190": "izing", "2191": "journey", "2192": "larger", "2193": "lied", "2194": "lies", "2195": "limited", "2196": "lower", "2197": "mess", "2198": "mist", "2199": "market", "2200": "marketing", "2201": "meas", "2202": "member", "2203": "molecules", "2204": "negative", "2205": "oth", "2206": "occur", "2207": "offer", "2208": "onavirus", "2209": "optim", "2210": "opping", "2211": "orted", "2212": "ought", "2213": "oung", "2214": "patterns", "2215": "peace", "2216": "pho", "2217": "pieces", "2218": "popular", "2219": "practice", "2220": "pression", "2221": "protect", "2222": "protection", "2223": "resp", "2224": "rors", "2225": "errors", "2226": "ref", "2227": "represent", "2228": "recognize", "2229": "regul", "2230": "related", "2231": "relev", "2232": "result", "2233": "rot", "2234": "sat", "2235": "sentiment", "2236": "smo", "2237": "sort", "2238": "solution", "2239": "someone", "2240": "storage", "2241": "strong", "2242": "strategy", "2243": "suit", "2244": "suitable", "2245": "tar", "2246": "tor", "2247": "tow", "2248": "techni", "2249": "temperatures", "2250": "theme", "2251": "tit", "2252": "At", "2253": "upon", "2254": "usually", "2255": "various", "2256": "weather", "2257": "wild", "2258": "young", "2259": "ä½ł", "2260": "èĩ", "2261": "ĠĠĠĠĠĠ", "2262": "Ben", "2263": "Deep", "2264": "Eu", "2265": "Extra", "2266": "Gre", "2267": "Inv", "2268": "Linu", "2269": "Linux", "2270": "Med", "2271": "Sh", "2272": "Sup", "2273": "Tit", "2274": "Tour", "2275": "adition", "2276": "assen", "2277": "ground", "2278": "inf", "2279": "known", "2280": "lin", "2281": "lands", "2282": "lik", "2283": "mail", "2284": "monitor", "2285": "onents", "2286": "oog", "2287": "Goog", "2288": "Google", "2289": "oose", "2290": "redient", "2291": "redients", "2292": "storm", "2293": "uate", "2294": "xa", "2295": "¦ģ", "2296": "å¤", "2297": "åı¯", "2298": "æķ", "2299": "æĸ", "2300": "æĹ", "2301": "è¦ģ", "2302": "All", "2303": "American", "2304": "Bri", "2305": "Dis", "2306": "Develop", "2307": "Euro", "2308": "Gener", "2309": "Ger", "2310": "Ist", "2311": "Set", "2312": "Transl", "2313": "Windows", "2314": "Zu", "2315": "abase", "2316": "aditional", "2317": "again", "2318": "allows", "2319": "anch", "2320": "anti", "2321": "analysis", "2322": "ape", "2323": "apo", "2324": "appe", "2325": "ars", "2326": "argument", "2327": "aries", "2328": "avo", "2329": "bats", "2330": "budget", "2331": "build", "2332": "cell", "2333": "cup", "2334": "cean", "2335": "cerem", "2336": "ceremony", "2337": "characters", "2338": "close", "2339": "components", "2340": "consu", "2341": "consum", "2342": "contact", "2343": "container", "2344": "contains", "2345": "conversation", "2346": "database", "2347": "dete", "2348": "devices", "2349": "describe", "2350": "description", "2351": "diox", "2352": "dire", "2353": "dioxide", "2354": "discover", "2355": "discus", "2356": "dogs", "2357": "duct", "2358": "ech", "2359": "eco", "2360": "email", "2361": "effect", "2362": "else", "2363": "element", "2364": "employe", "2365": "enabled", "2366": "ensure", "2367": "equation", "2368": "ethical", "2369": "exam", "2370": "existing", "2371": "foc", "2372": "sed", "2373": "fear", "2374": "fix", "2375": "field", "2376": "fruits", "2377": "full", "2378": "gent", "2379": "habit", "2380": "haik", "2381": "haiku", "2382": "helps", "2383": "ired", "2384": "importance", "2385": "improved", "2386": "ince", "2387": "income", "2388": "insi", "2389": "increases", "2390": "intern", "2391": "isol", "2392": "lich", "2393": "lon", "2394": "lling", "2395": "looking", "2396": "mes", "2397": "mage", "2398": "image", "2399": "manager", "2400": "means", "2401": "medical", "2402": "members", "2403": "moment", "2404": "neural", "2405": "ograph", "2406": "opport", "2407": "orders", "2408": "pack", "2409": "pandemic", "2410": "parti", "2411": "patients", "2412": "photo", "2413": "player", "2414": "preci", "2415": "predict", "2416": "prices", "2417": "profession", "2418": "programming", "2419": "programs", "2420": "questions", "2421": "rap", "2422": "ream", "2423": "remo", "2424": "repl", "2425": "relevant", "2426": "responsible", "2427": "sai", "2428": "scal", "2429": "since", "2430": "sleep", "2431": "slow", "2432": "squ", "2433": "sw", "2434": "said", "2435": "season", "2436": "second", "2437": "sive", "2438": "solve", "2439": "sta", "2440": "stars", "2441": "sym", "2442": "tail", "2443": "town", "2444": "treat", "2445": "tweet", "2446": "target", "2447": "tense", "2448": "towards", "2449": "tract", "2450": "traditional", "2451": "trends", "2452": "true", "2453": "triangle", "2454": "uation", "2455": "units", "2456": "utr", "2457": "visual", "2458": "wise", "2459": "warming", "2460": "wonder", "2461": "Â°", "2462": "ä»İ", "2463": "å®", "2464": "åĩ", "2465": "åį", "2466": "æĬ±", "2467": "æľº", "2468": "30", "2469": "40", "2470": "AN", "2471": "Add", "2472": "Apple", "2473": "Arti", "2474": "Artificial", "2475": "Auf", "2476": "Dear", "2477": "Determine", "2478": "Educ", "2479": "Earth", "2480": "Europe", "2481": "II", "2482": "Identi", "2483": "Int", "2484": "Invest", "2485": "NA", "2486": "Outline", "2487": "Pri", "2488": "Rec", "2489": "Smart", "2490": "Take", "2491": "Translate", "2492": "Two", "2493": "Use", "2494": "Ver", "2495": "bring", "2496": "Wo", "2497": "approach", "2498": "atory", "2499": "coff", "2500": "ee", "2501": "coffee", "2502": "conser", "2503": "courage", "2504": "eren", "2505": "experiences", "2506": "flex", "2507": "ga", "2508": "ger", "2509": "havi", "2510": "healthy", "2511": "influence", "2512": "iter", "2513": "itter", "2514": "ization", "2515": "lou", "2516": "onic", "2517": "sweet", "2518": "sides", "2519": "versity", "2520": "zes", "2521": "ä½¿", "2522": "å½", "2523": "æĶ¹", "2524": "èĩª", "2525": "AW", "2526": "Ale", "2527": "Banan", "2528": "Bit", "2529": "But", "2530": "Begin", "2531": "Cri", "2532": "Canada", "2533": "Charles", "2534": "Dr", "2535": "Dieses", "2536": "Great", "2537": "Gibt", "2538": "Hy", "2539": "ID", "2540": "Imp", "2541": "Identifizieren", "2542": "King", "2543": "Klassi", "2544": "Lassen", "2545": "Li", "2546": "Napo", "2547": "Napole", "2548": "North", "2549": "Ok", "2550": "Sag", "2551": "Select", "2552": "Ser", "2553": "Str", "2554": "Sagen", "2555": "Viet", "2556": "Vietnam", "2557": "ahead", "2558": "acts", "2559": "accurately", "2560": "addition", "2561": "address", "2562": "advice", "2563": "agon", "2564": "against", "2565": "aled", "2566": "altern", "2567": "amage", "2568": "amount", "2569": "anted", "2570": "andom", "2571": "appropriate", "2572": "asp", "2573": "ry", "2574": "asked", "2575": "asket", "2576": "asketball", "2577": "atbo", "2578": "author", "2579": "average", "2580": "ban", "2581": "Cu", "2582": "bile", "2583": "bility", "2584": "bird", "2585": "bol", "2586": "bound", "2587": "bro", "2588": "becoming", "2589": "branch", "2590": "bringing", "2591": "cand", "2592": "cel", "2593": "cing", "2594": "cli", "2595": "called", "2596": "capital", "2597": "classi", "2598": "clean", "2599": "compe", "2600": "concentration", "2601": "conflict", "2602": "consists", "2603": "contribu", "2604": "contrast", "2605": "coral", "2606": "coronavirus", "2607": "counts", "2608": "crimin", "2609": "damage", "2610": "during", "2611": "definition", "2612": "dest", "2613": "dinner", "2614": "door", "2615": "draw", "2616": "driven", "2617": "driving", "2618": "dropower", "2619": "dynam", "2620": "emo", "2621": "ets", "2622": "easy", "2623": "ectr", "2624": "engage", "2625": "environments", "2626": "environmental", "2627": "estic", "2628": "essay", "2629": "foot", "2630": "fos", "2631": "four", "2632": "faster", "2633": "feedback", "2634": "fication", "2635": "filled", "2636": "fossil", "2637": "fuels", "2638": "furniture", "2639": "give", "2640": "ghter", "2641": "gress", "2642": "grammar", "2643": "helped", "2644": "hip", "2645": "hist", "2646": "highly", "2647": "hope", "2648": "infr", "2649": "inte", "2650": "incenti", "2651": "individual", "2652": "insights", "2653": "involves", "2654": "lack", "2655": "left", "2656": "lived", "2657": "living", "2658": "loo", "2659": "loyal", "2660": "mountain", "2661": "matical", "2662": "maxim", "2663": "met", "2664": "message", "2665": "mistakes", "2666": "mobile", "2667": "month", "2668": "neutr", "2669": "occurs", "2670": "ooden", "2671": "opened", "2672": "por", "2673": "party", "2674": "perfect", "2675": "plast", "2676": "polic", "2677": "processes", "2678": "promote", "2679": "purchase", "2680": "quer", "2681": "quo", "2682": "radi", "2683": "rent", "2684": "rema", "2685": "remember", "2686": "review", "2687": "recommendations", "2688": "record", "2689": "reefs", "2690": "released", "2691": "remain", "2692": "results", "2693": "rising", "2694": "rocer", "2695": "robotics", "2696": "same", "2697": "sc", "2698": "slo", "2699": "son", "2700": "sales", "2701": "scheme", "2702": "seem", "2703": "setting", "2704": "sharing", "2705": "shopping", "2706": "size", "2707": "sites", "2708": "soon", "2709": "solving", "2710": "spending", "2711": "speech", "2712": "square", "2713": "stent", "2714": "stri", "2715": "pes", "2716": "types", "2717": "students", "2718": "style", "2719": "suggests", "2720": "symbol", "2721": "takes", "2722": "taking", "2723": "tall", "2724": "teeth", "2725": "testing", "2726": "thesis", "2727": "things", "2728": "til", "2729": "title", "2730": "ticular", "2731": "particular", "2732": "times", "2733": "titu", "2734": "torque", "2735": "track", "2736": "transform", "2737": "transport", "2738": "uable", "2739": "uals", "2740": "ured", "2741": "unemployment", "2742": "universe", "2743": "usage", "2744": "valuable", "2745": "variety", "2746": "veh", "2747": "vehic", "2748": "vil", "2749": "want", "2750": "writing", "2751": "weak", "2752": "websites", "2753": "wide", "2754": "yourself", "2755": "ä¿", "2756": "å½ĵ", "2757": "æĮ", "2758": "AP", "2759": "Although", "2760": "Brain", "2761": "Compute", "2762": "Dieser", "2763": "Extrahi", "2764": "Extrahieren", "2765": "Get", "2766": "Good", "2767": "Incre", "2768": "Klassifizieren", "2769": "La", "2770": "Nun", "2771": "Nein", "2772": "Pho", "2773": "Photo", "2774": "Propose", "2775": "Research", "2776": "Sol", "2777": "Sp", "2778": "Sicherlich", "2779": "Twitter", "2780": "Up", "2781": "abe", "2782": "abel", "2783": "alf", "2784": "always", "2785": "atbot", "2786": "const", "2787": "eople", "2788": "ectives", "2789": "ening", "2790": "ities", "2791": "ler", "2792": "metho", "2793": "methods", "2794": "ove", "2795": "omes", "2796": "ped", "2797": "rise", "2798": "roup", "2799": "group", "2800": "rocery", "2801": "tili", "2802": "uck", "2803": "ulation", "2804": "ins", "2805": "valuate", "2806": "¢Ħ", "2807": "åĳ", "2808": "æĥ", "2809": "çĶ±", "2810": "é¢Ħ", "2811": "éĤ", "2812": "198", "2813": "ANs", "2814": "Bat", "2815": "By", "2816": "Briti", "2817": "British", "2818": "CO", "2819": "CS", "2820": "Ca", "2821": "Cath", "2822": "Cats", "2823": "Col", "2824": "COV", "2825": "COVID", "2826": "CSS", "2827": "Cathol", "2828": "Dec", "2829": "Di", "2830": "top", "2831": "Dais", "2832": "Daisy", "2833": "Ele", "2834": "Eng", "2835": "Engl", "2836": "Environ", "2837": "English", "2838": "Environmental", "2839": "Erz", "2840": "Glo", "2841": "Global", "2842": "LE", "2843": "Net", "2844": "works", "2845": "Okay", "2846": "Per", "2847": "Po", "2848": "ints", "2849": "points", "2850": "Pr", "2851": "Py", "2852": "Plan", "2853": "Pyth", "2854": "Python", "2855": "Tell", "2856": "Thank", "2857": "Titel", "2858": "Welcher", "2859": "Word", "2860": "Your", "2861": "afe", "2862": "aves", "2863": "abling", "2864": "adap", "2865": "table", "2866": "adjust", "2867": "aign", "2868": "ailed", "2869": "alien", "2870": "alo", "2871": "alse", "2872": "alling", "2873": "anced", "2874": "antic", "2875": "anx", "2876": "analytics", "2877": "anges", "2878": "anning", "2879": "answer", "2880": "anything", "2881": "appreci", "2882": "aras", "2883": "Paras", "2884": "Parasite", "2885": "aren", "2886": "asc", "2887": "atom", "2888": "basketball", "2889": "bill", "2890": "bits", "2891": "bow", "2892": "bio", "2893": "body", "2894": "boil", "2895": "brain", "2896": "brave", "2897": "card", "2898": "cate", "2899": "cine", "2900": "calculate", "2901": "campaign", "2902": "capture", "2903": "client", "2904": "collaboration", "2905": "comfort", "2906": "commit", "2907": "communicate", "2908": "concise", "2909": "consequ", "2910": "consequences", "2911": "consump", "2912": "consumption", "2913": "control", "2914": "cording", "2915": "created", "2916": "credit", "2917": "cultur", "2918": "device", "2919": "delic", "2920": "delicious", "2921": "detect", "2922": "direct", "2923": "diversity", "2924": "docu", "2925": "drastically", "2926": "echn", "2927": "Techn", "2928": "equal", "2929": "ecting", "2930": "aff", "2931": "efficiency", "2932": "electr", "2933": "eliness", "2934": "emotional", "2935": "enabling", "2936": "enjoy", "2937": "engaging", "2938": "ercise", "2939": "esterday", "2940": "etc", "2941": "exci", "2942": "expected", "2943": "fail", "2944": "father", "2945": "fiction", "2946": "files", "2947": "focus", "2948": "formul", "2949": "formula", "2950": "friend", "2951": "gas", "2952": "gir", "2953": "grocery", "2954": "generations", "2955": "girl", "2956": "grand", "2957": "gression", "2958": "greenhouse", "2959": "half", "2960": "having", "2961": "hold", "2962": "happen", "2963": "humans", "2964": "hydropower", "2965": "ibility", "2966": "ider", "2967": "Le", "2968": "Leider", "2969": "ik", "2970": "icros", "2971": "ident", "2972": "impl", "2973": "implement", "2974": "implications", "2975": "increasingly", "2976": "individuals", "2977": "industries", "2978": "informed", "2979": "ingredients", "2980": "inspir", "2981": "inspiring", "2982": "instructions", "2983": "ips", "2984": "irth", "2985": "birth", "2986": "isolated", "2987": "izes", "2988": "jung", "2989": "ki", "2990": "lap", "2991": "lau", "2992": "length", "2993": "links", "2994": "launch", "2995": "laws", "2996": "layer", "2997": "leg", "2998": "ley", "2999": "letter", "3000": "lip", "3001": "likely", "3002": "linear", "3003": "loc", "3004": "loneliness", "3005": "mind", "3006": "mund", "3007": "magical", "3008": "management", "3009": "maximum", "3010": "migration", "3011": "mundane", "3012": "nuc", "3013": "named", "3014": "needs", "3015": "ocean", "3016": "oke", "3017": "ocs", "3018": "Docs", "3019": "once", "3020": "onom", "3021": "operating", "3022": "optimize", "3023": "pay", "3024": "pers", "3025": "pitch", "3026": "painting", "3027": "parrot", "3028": "plit", "3029": "plastic", "3030": "poor", "3031": "poses", "3032": "priv", "3033": "princess", "3034": "progress", "3035": "productive", "3036": "products", "3037": "quote", "3038": "random", "3039": "rul", "3040": "rapid", "3041": "reats", "3042": "rece", "3043": "rei", "3044": "repe", "3045": "reading", "3046": "recently", "3047": "reducing", "3048": "relationships", "3049": "remembered", "3050": "resol", "3051": "rights", "3052": "rose", "3053": "save", "3054": "saw", "3055": "sense", "3056": "sequence", "3057": "server", "3058": "several", "3059": "shop", "3060": "sile", "3061": "simil", "3062": "sition", "3063": "snacks", "3064": "society", "3065": "speak", "3066": "states", "3067": "stock", "3068": "stratus", "3069": "strength", "3070": "string", "3071": "summary", "3072": "support", "3073": "synony", "3074": "synthesis", "3075": "tax", "3076": "tend", "3077": "tro", "3078": "terms", "3079": "threats", "3080": "thus", "3081": "thereof", "3082": "thought", "3083": "tips", "3084": "tively", "3085": "total", "3086": "traffic", "3087": "transactions", "3088": "transportation", "3089": "tric", "3090": "ulate", "3091": "until", "3092": "valent", "3093": "wanted", "3094": "waste", "3095": "wee", "3096": "week", "3097": "wildlife", "3098": "wonderful", "3099": "yo", "3100": "urt", "3101": "zens", "3102": "zer", "3103": "zon", "3104": "âĢĵ", "3105": "âĢĿ", "3106": "åŃ", "3107": "æ°´", "3108": "çİ", "3109": "è¯·", "3110": "éĤ£", "3111": "13", "3112": "Ama", "3113": "Att", "3114": "API", "3115": "Alexa", "3116": "Bel", "3117": "Brainstorm", "3118": "Climate", "3119": "Choose", "3120": "Dock", "3121": "During", "3122": "Docker", "3123": "Evaluate", "3124": "Every", "3125": "Education", "3126": "Five", "3127": "Geben", "3128": "Her", "3129": "Here", "3130": "His", "3131": "Introduc", "3132": "Laut", "3133": "Listen", "3134": "People", "3135": "Pre", "3136": "zi", "3137": "Prote", "3138": "SA", "3139": "Tom", "3140": "row", "3141": "orrow", "3142": "Web", "3143": "antum", "3144": "Qu", "3145": "ato", "3146": "auto", "3147": "ba", "3148": "bst", "3149": "box", "3150": "chair", "3151": "changes", "3152": "cons", "3153": "conservation", "3154": "crafts", "3155": "decreases", "3156": "ellow", "3157": "erst", "3158": "estim", "3159": "experien", "3160": "fel", "3161": "fj", "3162": "gers", "3163": "highest", "3164": "ify", "3165": "lock", "3166": "log", "3167": "oday", "3168": "Today", "3169": "pical", "3170": "park", "3171": "ring", "3172": "rics", "3173": "scre", "3174": "stop", "3175": "wei", "3176": "åĩı", "3177": "æĽ", "3178": "ç®Ģ", "3179": "éĿ", "3180": "'re", "3181": "70", "3182": "Amazon", "3183": "Autom", "3184": "Based", "3185": "Bitte", "3186": "Buil", "3187": "Care", "3188": "Comput", "3189": "Crisis", "3190": "Cuban", "3191": "Dat", "3192": "Each", "3193": "Further", "3194": "Furthermore", "3195": "Have", "3196": "Hum", "3197": "Healthy", "3198": "Its", "3199": "Lon", "3200": "London", "3201": "Max", "3202": "Micros", "3203": "Mis", "3204": "Mountain", "3205": "Mark", "3206": "Medical", "3207": "Microsoft", "3208": "Missile", "3209": "Napoleon", "3210": "Natural", "3211": "Sleep", "3212": "Sort", "3213": "SEO", "3214": "SmartBat", "3215": "Technolo", "3216": "Transform", "3217": "Vac", "3218": "Ve", "3219": "Vir", "3220": "Waterloo", "3221": "Which", "3222": "Zuerst", "3223": "auc", "3224": "above", "3225": "ablesp", "3226": "ablespo", "3227": "ablespoons", "3228": "according", "3229": "ached", "3230": "acing", "3231": "activity", "3232": "aft", "3233": "agree", "3234": "agri", "3235": "allowed", "3236": "alternative", "3237": "amounts", "3238": "ancing", "3239": "antive", "3240": "analyzing", "3241": "angered", "3242": "animals", "3243": "aphor", "3244": "arri", "3245": "arity", "3246": "arrow", "3247": "aser", "3248": "assign", "3249": "ators", "3250": "atten", "3251": "attitu", "3252": "atching", "3253": "aterial", "3254": "athle", "3255": "ativity", "3256": "attention", "3257": "avoid", "3258": "bag", "3259": "bree", "3260": "ballo", "3261": "bark", "3262": "behavi", "3263": "belo", "3264": "beloved", "3265": "biodiversity", "3266": "boiling", "3267": "brand", "3268": "breeze", "3269": "cat", "3270": "causes", "3271": "campaigns", "3272": "cannot", "3273": "capabilities", "3274": "career", "3275": "cellent", "3276": "chatbot", "3277": "challenges", "3278": "check", "3279": "citi", "3280": "citizens", "3281": "clus", "3282": "clusion", "3283": "coding", "3284": "copy", "3285": "core", "3286": "costs", "3287": "college", "3288": "combines", "3289": "commitment", "3290": "community", "3291": "companies", "3292": "competi", "3293": "complete", "3294": "completed", "3295": "computing", "3296": "continuous", "3297": "copyright", "3298": "corrup", "3299": "counting", "3300": "creatures", "3301": "crisis", "3302": "cryp", "3303": "culture", "3304": "cultural", "3305": "current", "3306": "dict", "3307": "dle", "3308": "rid", "3309": "deforestation", "3310": "detri", "3311": "decimal", "3312": "dedication", "3313": "dependent", "3314": "detrimental", "3315": "developing", "3316": "diet", "3317": "diverse", "3318": "divis", "3319": "diagn", "3320": "diagram", "3321": "direction", "3322": "distribu", "3323": "domestic", "3324": "dragon", "3325": "dynamics", "3326": "early", "3327": "ectively", "3328": "ecosystems", "3329": "elf", "3330": "elebr", "3331": "emphas", "3332": "employees", "3333": "enables", "3334": "endangered", "3335": "enses", "3336": "enter", "3337": "equi", "3338": "equivalent", "3339": "ership", "3340": "establ", "3341": "evol", "3342": "excellent", "3343": "explan", "3344": "express", "3345": "extra", "3346": "explanation", "3347": "eye", "3348": "eyes", "3349": "fit", "3350": "fought", "3351": "fresh", "3352": "factors", "3353": "famili", "3354": "feature", "3355": "ference", "3356": "fied", "3357": "fif", "3358": "finding", "3359": "firm", "3360": "forced", "3361": "friends", "3362": "gate", "3363": "gri", "3364": "gurt", "3365": "geograph", "3366": "gency", "3367": "gluc", "3368": "glucose", "3369": "goal", "3370": "growing", "3371": "hour", "3372": "handle", "3373": "happy", "3374": "height", "3375": "hether", "3376": "hidden", "3377": "histori", "3378": "holds", "3379": "hours", "3380": "icine", "3381": "icht", "3382": "identi", "3383": "immigration", "3384": "independent", "3385": "initi", "3386": "instead", "3387": "incentives", "3388": "inked", "3389": "innov", "3390": "inspired", "3391": "interact", "3392": "interface", "3393": "iration", "3394": "ishing", "3395": "itary", "3396": "jungle", "3397": "ka", "3398": "knight", "3399": "lst", "3400": "laun", "3401": "laptop", "3402": "leader", "3403": "lights", "3404": "listening", "3405": "local", "3406": "located", "3407": "longest", "3408": "material", "3409": "maint", "3410": "aining", "3411": "master", "3412": "mathe", "3413": "manship", "3414": "mathematical", "3415": "medi", "3416": "membr", "3417": "minim", "3418": "minut", "3419": "minutes", "3420": "miss", "3421": "modi", "3422": "moral", "3423": "narr", "3424": "nood", "3425": "nesses", "3426": "neutral", "3427": "noodles", "3428": "numer", "3429": "objects", "3430": "ometric", "3431": "opin", "3432": "opportuni", "3433": "opportunities", "3434": "ordin", "3435": "orous", "3436": "ority", "3437": "othie", "3438": "outcomes", "3439": "outside", "3440": "pal", "3441": "pare", "3442": "ping", "3443": "particip", "3444": "personalized", "3445": "phabe", "3446": "prefer", "3447": "prepare", "3448": "previ", "3449": "predictive", "3450": "previous", "3451": "professional", "3452": "provided", "3453": "purposes", "3454": "rule", "3455": "reason", "3456": "recycling", "3457": "refle", "3458": "reve", "3459": "recognizing", "3460": "regular", "3461": "report", "3462": "requests", "3463": "ride", "3464": "rogative", "3465": "romantic", "3466": "rules", "3467": "safe", "3468": "smart", "3469": "satis", "3470": "scale", "3471": "science", "3472": "scientific", "3473": "scientists", "3474": "screen", "3475": "series", "3476": "serves", "3477": "significantly", "3478": "situation", "3479": "slogan", "3480": "specific", "3481": "stein", "3482": "stored", "3483": "stress", "3484": "strateg", "3485": "studying", "3486": "supply", "3487": "surface", "3488": "surve", "3489": "synonyms", "3490": "tablespoons", "3491": "tailed", "3492": "tone", "3493": "teach", "3494": "techniques", "3495": "technologies", "3496": "termin", "3497": "third", "3498": "ths", "3499": "tivation", "3500": "Mo", "3501": "toy", "3502": "topics", "3503": "trade", "3504": "treatment", "3505": "trip", "3506": "tures", "3507": "typical", "3508": "unk", "3509": "uten", "3510": "uts", "3511": "vac", "3512": "vegetables", "3513": "vehicles", "3514": "vention", "3515": "wall", "3516": "went", "3517": "warm", "3518": "wid", "3519": "yellow", "3520": "yet", "3521": "yogurt", "3522": "åģ", "3523": "åĮ", "3524": "åĽ", "3525": "åģĩ", "3526": "æ³", "3527": "æĸĩ", "3528": "çĽ", "3529": "è¯´", "3530": "éĩ", "3531": "Ac", "3532": "Arrange", "3533": "Automation", "3534": "Benut", "3535": "Benutzer", "3536": "Che", "3537": "Chri", "3538": "Dogs", "3539": "Face", "3540": "Hm", "3541": "Introducing", "3542": "Label", "3543": "Los", "3544": "Man", "3545": "Mary", "3546": "Nach", "3547": "NASA", "3548": "Op", "3549": "Orange", "3550": "Organ", "3551": "Pol", "3552": "Predic", "3553": "Rever", "3554": "Read", "3555": "Reverse", "3556": "Sy", "3557": "Some", "3558": "Start", "3559": "Ti", "3560": "Top", "3561": "avel", "3562": "atically", "3563": "bate", "3564": "contin", "3565": "eventually", "3566": "ginal", "3567": "hr", "3568": "heat", "3569": "iety", "3570": "ires", "3571": "itation", "3572": "itt", "3573": "lic", "3574": "gar", "3575": "lius", "3576": "Ju", "3577": "Julius", "3578": "loud", "3579": "morning", "3580": "ost", "3581": "bas", "3582": "path", "3583": "proj", "3584": "ram", "3585": "requires", "3586": "rob", "3587": "say", "3588": "tig", "3589": "vent", "3590": "vor", "3591": "ni", "3592": "ä¼", "3593": "ä¸»", "3594": "ä¸¾", "3595": "ä¸ĸ", "3596": "åŁ", "3597": "åħ¨", "3598": "åĮº", "3599": "æ¬", "3600": "æ±", "3601": "æİ", "3602": "æ³ķ", "3603": "æĥ³", "3604": "æłĩ", "3605": "è´", "3606": "è®²", "3607": "éĺ", "3608": "'d", "3609": "101", "3610": "26", "3611": "AC", "3612": "Are", "3613": "AWS", "3614": "Attend", "3615": "Attendant", "3616": "Bananas", "3617": "Belgi", "3618": "Cum", "3619": "Catholics", "3620": "Chinese", "3621": "Christ", "3622": "Company", "3623": "Cumul", "3624": "Cumulus", "3625": "DE", "3626": "Data", "3627": "Deforestation", "3628": "Doctor", "3629": "Einstein", "3630": "England", "3631": "Exercise", "3632": "False", "3633": "Fir", "3634": "Flight", "3635": "Fol", "3636": "Financial", "3637": "First", "3638": "Follow", "3639": "Gem", "3640": "Hab", "3641": "However", "3642": "Ide", "3643": "Impro", "3644": "Implement", "3645": "Infl", "3646": "Increase", "3647": "Jap", "3648": "Japan", "3649": "Japanese", "3650": "Juli", "3651": "LANs", "3652": "Language", "3653": "Mex", "3654": "Mid", "3655": "Monitor", "3656": "Mountains", "3657": "None", "3658": "Our", "3659": "Over", "3660": "Onion", "3661": "Output", "3662": "Pon", "3663": "Pres", "3664": "Planning", "3665": "Ponzi", "3666": "Predict", "3667": "Process", "3668": "Product", "3669": "Protest", "3670": "Processing", "3671": "Protection", "3672": "Replace", "3673": "Recent", "3674": "ST", "3675": "Sen", "3676": "Send", "3677": "Spr", "3678": "Sun", "3679": "Social", "3680": "Spring", "3681": "Stratus", "3682": "TP", "3683": "Ta", "3684": "Tips", "3685": "Technology", "3686": "That", "3687": "Well", "3688": "Yesterday", "3689": "ade", "3690": "accept", "3691": "accounting", "3692": "aches", "3693": "afety", "3694": "ahren", "3695": "aling", "3696": "alone", "3697": "along", "3698": "alphabe", "3699": "among", "3700": "anama", "3701": "Panama", "3702": "another", "3703": "ands", "3704": "announ", "3705": "anxiety", "3706": "aps", "3707": "appli", "3708": "applied", "3709": "apps", "3710": "appliances", "3711": "appreciation", "3712": "arison", "3713": "arities", "3714": "asant", "3715": "asive", "3716": "ashlight", "3717": "Fl", "3718": "Flashlight", "3719": "aspects", "3720": "asses", "3721": "assive", "3722": "atives", "3723": "auce", "3724": "automatically", "3725": "automation", "3726": "avor", "3727": "bank", "3728": "bold", "3729": "basic", "3730": "baseball", "3731": "begins", "3732": "believe", "3733": "berries", "3734": "berry", "3735": "billion", "3736": "birthday", "3737": "boy", "3738": "branches", "3739": "brief", "3740": "burning", "3741": "celebr", "3742": "clim", "3743": "captain", "3744": "carni", "3745": "carnivor", "3746": "carnivores", "3747": "centur", "3748": "century", "3749": "cepts", "3750": "cher", "3751": "chor", "3752": "challenging", "3753": "charge", "3754": "cies", "3755": "clarity", "3756": "cles", "3757": "classification", "3758": "clothes", "3759": "club", "3760": "coast", "3761": "coin", "3762": "covers", "3763": "combin", "3764": "combination", "3765": "comfortable", "3766": "compared", "3767": "comparison", "3768": "compelling", "3769": "companion", "3770": "concepts", "3771": "conclusion", "3772": "conduct", "3773": "conf", "3774": "conut", "3775": "conver", "3776": "connection", "3777": "connecting", "3778": "consumer", "3779": "containing", "3780": "controlling", "3781": "crow", "3782": "cru", "3783": "crafted", "3784": "craftsmanship", "3785": "crypto", "3786": "ctors", "3787": "done", "3788": "dates", "3789": "ddenly", "3790": "dead", "3791": "debate", "3792": "depart", "3793": "depic", "3794": "detailed", "3795": "determin", "3796": "decided", "3797": "decreased", "3798": "define", "3799": "depending", "3800": "deser", "3801": "describing", "3802": "designed", "3803": "diom", "3804": "discounts", "3805": "dish", "3806": "discovery", "3807": "discusses", "3808": "distance", "3809": "document", "3810": "drain", "3811": "drinks", "3812": "drive", "3813": "driver", "3814": "effort", "3815": "effectively", "3816": "emer", "3817": "enh", "3818": "engagement", "3819": "ennen", "3820": "espite", "3821": "expos", "3822": "expression", "3823": "explore", "3824": "exploration", "3825": "exposure", "3826": "extraordin", "3827": "extraordinary", "3828": "fight", "3829": "fly", "3830": "facts", "3831": "facturing", "3832": "famous", "3833": "felt", "3834": "fficient", "3835": "fire", "3836": "fice", "3837": "fields", "3838": "finance", "3839": "finish", "3840": "flexible", "3841": "follows", "3842": "forces", "3843": "ford", "3844": "forget", "3845": "forn", "3846": "forw", "3847": "forever", "3848": "format", "3849": "forward", "3850": "fron", "3851": "fully", "3852": "gam", "3853": "gather", "3854": "ging", "3855": "gory", "3856": "gue", "3857": "gae", "3858": "geometric", "3859": "gentle", "3860": "gger", "3861": "gist", "3862": "globe", "3863": "got", "3864": "grav", "3865": "grammat", "3866": "grammatically", "3867": "greatly", "3868": "guid", "3869": "guide", "3870": "homes", "3871": "hund", "3872": "habitat", "3873": "helping", "3874": "historical", "3875": "host", "3876": "hot", "3877": "hundred", "3878": "idiom", "3879": "iforn", "3880": "ior", "3881": "sen", "3882": "itical", "3883": "icant", "3884": "applicant", "3885": "icated", "3886": "illustr", "3887": "imports", "3888": "industrial", "3889": "infring", "3890": "infringe", "3891": "innovative", "3892": "inspire", "3893": "internal", "3894": "international", "3895": "introduce", "3896": "inviting", "3897": "iratory", "3898": "istics", "3899": "itu", "3900": "itude", "3901": "izations", "3902": "jump", "3903": "kingdom", "3904": "lat", "3905": "lcm", "3906": "lfj", "3907": "liter", "3908": "largest", "3909": "latest", "3910": "laughter", "3911": "launching", "3912": "least", "3913": "leave", "3914": "lever", "3915": "lot", "3916": "loved", "3917": "longed", "3918": "looks", "3919": "loyalty", "3920": "lyrics", "3921": "mber", "3922": "mur", "3923": "machines", "3924": "manip", "3925": "manu", "3926": "manual", "3927": "manually", "3928": "manufacturing", "3929": "marking", "3930": "markup", "3931": "markets", "3932": "memo", "3933": "measures", "3934": "membrane", "3935": "memories", "3936": "mented", "3937": "mentor", "3938": "metaphor", "3939": "method", "3940": "miles", "3941": "military", "3942": "milk", "3943": "minder", "3944": "mission", "3945": "motivate", "3946": "motivated", "3947": "movement", "3948": "music", "3949": "myster", "3950": "mysterious", "3951": "navi", "3952": "nic", "3953": "ny", "3954": "needed", "3955": "nuclear", "3956": "oT", "3957": "IoT", "3958": "ots", "3959": "offe", "3960": "office", "3961": "offered", "3962": "offers", "3963": "onomous", "3964": "onym", "3965": "operations", "3966": "orange", "3967": "organized", "3968": "original", "3969": "outcome", "3970": "phi", "3971": "Ph", "3972": "pun", "3973": "parties", "3974": "partn", "3975": "passion", "3976": "persp", "3977": "phone", "3978": "phones", "3979": "posi", "3980": "policy", "3981": "population", "3982": "prediction", "3983": "presence", "3984": "preser", "3985": "privacy", "3986": "proced", "3987": "prolonged", "3988": "productiv", "3989": "productivity", "3990": "profil", "3991": "profile", "3992": "pyram", "3993": "pyramid", "3994": "rang", "3995": "radius", "3996": "ranging", "3997": "really", "3998": "recip", "3999": "regression", "4000": "reminder", "4001": "ready", "4002": "refund", "4003": "region", "4004": "regulations", "4005": "replacing", "4006": "representation", "4007": "revolutionary", "4008": "revolutionized", "4009": "road", "4010": "rote", "4011": "running", "4012": "sauce", "4013": "score", "4014": "scr", "4015": "song", "4016": "sorted", "4017": "split", "4018": "sus", "4019": "scientist", "4020": "seeing", "4021": "shape", "4022": "showed", "4023": "sistent", "4024": "similar", "4025": "sks", "4026": "risks", "4027": "smoothie", "4028": "snow", "4029": "soil", "4030": "societies", "4031": "stands", "4032": "steak", "4033": "strange", "4034": "strings", "4035": "strategic", "4036": "suddenly", "4037": "subst", "4038": "summer", "4039": "taste", "4040": "ton", "4041": "tainment", "4042": "talk", "4043": "talking", "4044": "teacher", "4045": "teamwork", "4046": "technical", "4047": "technique", "4048": "tensive", "4049": "tered", "4050": "think", "4051": "threat", "4052": "timel", "4053": "toff", "4054": "tomorrow", "4055": "trained", "4056": "training", "4057": "uated", "4058": "uous", "4059": "utili", "4060": "ultant", "4061": "unexpected", "4062": "uration", "4063": "useful", "4064": "ushing", "4065": "vast", "4066": "variable", "4067": "vegan", "4068": "vegetable", "4069": "vibr", "4070": "viding", "4071": "viol", "4072": "visibility", "4073": "vote", "4074": "ware", "4075": "wat", "4076": "wooden", "4077": "wrote", "4078": "walking", "4079": "weight", "4080": "within", "4081": "worker", "4082": "âĢĺ", "4083": "ä¸ī", "4084": "äº²", "4085": "å¼", "4086": "åĬ", "4087": "åĵ", "4088": "åħ³", "4089": "æµ", "4090": "æŃ", "4091": "æ°Ķ", "4092": "æĮī", "4093": "æķ°", "4094": "ç§", "4095": "ĠĠĠĠĠĠĠĠĠĠĠĠ", "4096": "27", "4097": "Aut", "4098": "Alber", "4099": "Albert", "4100": "BA", "4101": "BT", "4102": "Bar", "4103": "Bir", "4104": "Build", "4105": "CT", "4106": "Cloud", "4107": "Coffe", "4108": "Com", "4109": "Character", "4110": "Coffee", "4111": "Computer", "4112": "Coral", "4113": "Day", "4114": "Did", "4115": "Everyone", "4116": "Facebook", "4117": "Formul", "4118": "Formulate", "4119": "Green", "4120": "Hal", "4121": "Hel", "4122": "IP", "4123": "Ir", "4124": "Interess", "4125": "Interessant", "4126": "LP", "4127": "Lie", "4128": "LECT", "4129": "ME", "4130": "March", "4131": "Mir", "4132": "NBA", "4133": "Nennen", "4134": "Negative", "4135": "Online", "4136": "Pick", "4137": "Rep", "4138": "Rome", "4139": "Remove", "4140": "Romeo", "4141": "Sel", "4142": "Sk", "4143": "Stra", "4144": "SELECT", "4145": "Selbst", "4146": "State", "4147": "Think", "4148": "Through", "4149": "Topic", "4150": "True", "4151": "Vor", "4152": "Vegan", "4153": "Verb", "4154": "Would", "4155": "Writing", "4156": "Where", "4157": "Who", "4158": "ait", "4159": "ress", "4160": "abol", "4161": "ashed", "4162": "bra", "4163": "ctive", "4164": "constant", "4165": "cooked", "4166": "elle", "4167": "experienced", "4168": "fon", "4169": "gel", "4170": "hon", "4171": "heit", "4172": "hello", "4173": "ico", "4174": "ittle", "4175": "mical", "4176": "oster", "4177": "onist", "4178": "ply", "4179": "prevent", "4180": "reached", "4181": "reak", "4182": "ressed", "4183": "speaking", "4184": "stu", "4185": "super", "4186": "tagonist", "4187": "uge", "4188": "unning", "4189": "zu", "4190": "äº§", "4191": "åĪł", "4192": "æ£", "4193": "æ¸", "4194": "æ±Ĥ", "4195": "æĬĢ", "4196": "æİ¨", "4197": "æĹł", "4198": "æĽ¾", "4199": "çº", "4200": "ç½", "4201": "çĥ", "4202": "çĶµ", "4203": "èĭ", "4204": "è¯Ħ", "4205": "'ve", "4206": "196", "4207": "199", "4208": "28", "4209": "32", "4210": "35", "4211": "36", "4212": "41", "4213": "ATP", "4214": "Aust", "4215": "Adverb", "4216": "Advice", "4217": "Algorith", "4218": "mic", "4219": "Allow", "4220": "Alto", "4221": "Altostratus", "4222": "Angel", "4223": "Analytics", "4224": "Angeles", "4225": "Arc", "4226": "Arctic", "4227": "Area", "4228": "Assign", "4229": "BST", "4230": "Bet", "4231": "Black", "4232": "Break", "4233": "BTQ", "4234": "Banana", "4235": "Belgium", "4236": "Bringing", "4237": "Buy", "4238": "CI", "4239": "Cases", "4240": "Coun", "4241": "Cut", "4242": "Cy", "4243": "Californ", "4244": "California", "4245": "Category", "4246": "Chair", "4247": "Cogging", "4248": "Covid", "4249": "Compile", "4250": "Countries", "4251": "Creating", "4252": "Cuba", "4253": "DNA", "4254": "Despite", "4255": "Dive", "4256": "Don", "4257": "Depression", "4258": "Differ", "4259": "Discre", "4260": "Discus", "4261": "Discreet", "4262": "Discuss", "4263": "Econom", "4264": "Einf", "4265": "End", "4266": "Ents", "4267": "Entsch", "4268": "Erving", "4269": "Fi", "4270": "Wi", "4271": "With", "4272": "Flo", "4273": "From", "4274": "Future", "4275": "Florid", "4276": "Florida", "4277": "Furniture", "4278": "GAW", "4279": "GBTQ", "4280": "Gree", "4281": "General", "4282": "Gerne", "4283": "Giant", "4284": "Grego", "4285": "Gregoire", "4286": "Happ", "4287": "Humans", "4288": "IS", "4289": "Imag", "4290": "Ideas", "4291": "Improve", "4292": "Indi", "4293": "ana", "4294": "Inser", "4295": "Insert", "4296": "Internet", "4297": "Interrogative", "4298": "Investing", "4299": "Iron", "4300": "Jones", "4301": "Kill", "4302": "LGBTQ", "4303": "Last", "4304": "Law", "4305": "Linked", "4306": "Lis", "4307": "LinkedIn", "4308": "Lisa", "4309": "Mac", "4310": "Making", "4311": "Many", "4312": "Marti", "4313": "Moc", "4314": "Mars", "4315": "Martian", "4316": "Maxwell", "4317": "Mein", "4318": "Medicine", "4319": "Motivation", "4320": "Mocking", "4321": "Mockingbird", "4322": "NLP", "4323": "New", "4324": "Nim", "4325": "Non", "4326": "Nimbo", "4327": "Nimbostratus", "4328": "Overall", "4329": "Prep", "4330": "Phone", "4331": "Photosynthesis", "4332": "Practice", "4333": "Prepare", "4334": "Rear", "4335": "Resp", "4336": "Ros", "4337": "Reach", "4338": "Rearrange", "4339": "Respiratory", "4340": "Sever", "4341": "Shop", "4342": "Sind", "4343": "Soft", "4344": "Software", "4345": "Spain", "4346": "Sty", "4347": "Sw", "4348": "Schrei", "4349": "Second", "4350": "Services", "4351": "Sleeping", "4352": "Sovi", "4353": "Solar", "4354": "Soviet", "4355": "Stay", "4356": "Stone", "4357": "Stonewall", "4358": "Straw", "4359": "Style", "4360": "Supply", "4361": "TV", "4362": "Table", "4363": "Tent", "4364": "Tri", "4365": "Taquer", "4366": "Taqueria", "4367": "Then", "4368": "Try", "4369": "Ur", "4370": "Union", "4371": "Vari", "4372": "Von", "4373": "Vaccine", "4374": "Verse", "4375": "Vielle", "4376": "Vielleicht", "4377": "Watch", "4378": "Wil", "4379": "Wooden", "4380": "Wei", "4381": "Wellness", "4382": "While", "4383": "Working", "4384": "ades", "4385": "aiss", "4386": "astructure", "4387": "aven", "4388": "absolut", "4389": "absolutely", "4390": "accomp", "4391": "aced", "4392": "aces", "4393": "acious", "4394": "acting", "4395": "accompl", "4396": "accountability", "4397": "aceful", "4398": "Pe", "4399": "achieve", "4400": "activ", "4401": "adj", "4402": "adul", "4403": "adapted", "4404": "adjustable", "4405": "advanced", "4406": "advent", "4407": "adventure", "4408": "afford", "4409": "agers", "4410": "Te", "4411": "agi", "4412": "agiari", "4413": "agiarism", "4414": "agricultural", "4415": "ahrenheit", "4416": "aid", "4417": "aims", "4418": "aissance", "4419": "aken", "4420": "amat", "4421": "amazing", "4422": "amatic", "4423": "analo", "4424": "anther", "4425": "ander", "4426": "anguages", "4427": "anner", "4428": "ansion", "4429": "appear", "4430": "appears", "4431": "apples", "4432": "arkn", "4433": "armon", "4434": "arp", "4435": "archite", "4436": "architect", "4437": "arden", "4438": "ardless", "4439": "arkness", "4440": "armony", "4441": "aset", "4442": "asons", "4443": "asets", "4444": "assess", "4445": "assist", "4446": "attri", "4447": "atering", "4448": "athletes", "4449": "atoes", "4450": "attitude", "4451": "attribut", "4452": "attributes", "4453": "audio", "4454": "autonomous", "4455": "authority", "4456": "avorite", "4457": "award", "4458": "bad", "4459": "bak", "4460": "ery", "4461": "bari", "4462": "bath", "4463": "bed", "4464": "bing", "4465": "bit", "4466": "bite", "4467": "bought", "4468": "bread", "4469": "bul", "4470": "background", "4471": "backs", "4472": "bags", "4473": "balloons", "4474": "barked", "4475": "bean", "4476": "began", "4477": "bedding", "4478": "beddings", "4479": "beginning", "4480": "behaviors", "4481": "beliefs", "4482": "benefit", "4483": "biases", "4484": "big", "4485": "black", "4486": "bling", "4487": "bloom", "4488": "bott", "4489": "boundaries", "4490": "boundary", "4491": "brings", "4492": "brown", "4493": "breach", "4494": "breaking", "4495": "brok", "4496": "broken", "4497": "buds", "4498": "bugs", "4499": "built", "4500": "buyer", "4501": "case", "4502": "cases", "4503": "catch", "4504": "catering", "4505": "cil", "4506": "cts", "4507": "cade", "4508": "causing", "4509": "calming", "4510": "camping", "4511": "cancer", "4512": "candid", "4513": "candy", "4514": "candidate", "4515": "capable", "4516": "cape", "4517": "cards", "4518": "castle", "4519": "catego", "4520": "categories", "4521": "ceed", "4522": "ceden", "4523": "cedented", "4524": "celebrated", "4525": "centage", "4526": "center", "4527": "cern", "4528": "certainly", "4529": "cessed", "4530": "chi", "4531": "chil", "4532": "ains", "4533": "choose", "4534": "chairs", "4535": "challen", "4536": "challenge", "4537": "cheet", "4538": "chemical", "4539": "cheetah", "4540": "chime", "4541": "chord", "4542": "civil", "4543": "classic", "4544": "climates", "4545": "closer", "4546": "coaching", "4547": "coal", "4548": "cogging", "4549": "coastal", "4550": "coln", "4551": "Lin", "4552": "Lincoln", "4553": "collect", "4554": "combining", "4555": "compress", "4556": "competitive", "4557": "completion", "4558": "computational", "4559": "concern", "4560": "condi", "4561": "condition", "4562": "conference", "4563": "confron", "4564": "convert", "4565": "conditions", "4566": "conditional", "4567": "connections", "4568": "consultant", "4569": "consistent", "4570": "continues", "4571": "contributions", "4572": "conversations", "4573": "corrupting", "4574": "course", "4575": "crashed", "4576": "creation", "4577": "creativity", "4578": "crime", "4579": "crip", "4580": "critical", "4581": "criminal", "4582": "crowd", "4583": "cryst", "4584": "crystal", "4585": "ctuation", "4586": "culp", "4587": "curren", "4588": "cycle", "4589": "dang", "4590": "darkness", "4591": "dream", "4592": "danger", "4593": "dataset", "4594": "datasets", "4595": "death", "4596": "decor", "4597": "defe", "4598": "degrad", "4599": "io", "4600": "demon", "4601": "decrease", "4602": "dele", "4603": "delight", "4604": "desired", "4605": "designing", "4606": "developed", "4607": "developers", "4608": "dies", "4609": "diving", "4610": "didn", "4611": "dining", "4612": "disrup", "4613": "disease", "4614": "distributed", "4615": "dramatic", "4616": "drastic", "4617": "drawbacks", "4618": "eight", "4619": "ek", "4620": "earth", "4621": "economics", "4622": "edge", "4623": "election", "4624": "elev", "4625": "elves", "4626": "electron", "4627": "electronics", "4628": "ellular", "4629": "embeddings", "4630": "embr", "4631": "emphasizes", "4632": "employee", "4633": "enagers", "4634": "encer", "4635": "enco", "4636": "encour", "4637": "ensive", "4638": "engineer", "4639": "engineering", "4640": "enjoyable", "4641": "entro", "4642": "entiate", "4643": "entropy", "4644": "eral", "4645": "eric", "4646": "established", "4647": "evening", "4648": "evolved", "4649": "extensive", "4650": "extract", "4651": "excite", "4652": "excited", "4653": "excitement", "4654": "expansion", "4655": "expenses", "4656": "expensive", "4657": "expiration", "4658": "exports", "4659": "explainability", "4660": "exploring", "4661": "favorite", "4662": "flight", "4663": "fox", "4664": "facial", "4665": "factor", "4666": "failure", "4667": "farmer", "4668": "feet", "4669": "film", "4670": "finished", "4671": "flowers", "4672": "followed", "4673": "foreign", "4674": "foundation", "4675": "fraction", "4676": "freeing", "4677": "gall", "4678": "gases", "4679": "gation", "4680": "ged", "4681": "gment", "4682": "gone", "4683": "games", "4684": "gets", "4685": "generating", "4686": "generation", "4687": "geographic", "4688": "gged", "4689": "jo", "4690": "ggers", "4691": "ggs", "4692": "ghing", "4693": "gious", "4694": "reli", "4695": "gives", "4696": "gods", "4697": "grate", "4698": "graphy", "4699": "greet", "4700": "greatest", "4701": "guil", "4702": "guidance", "4703": "harmony", "4704": "huge", "4705": "habitats", "4706": "handmade", "4707": "heaven", "4708": "heavi", "4709": "hexa", "4710": "held", "4711": "helpful", "4712": "hexadecimal", "4713": "hiking", "4714": "holid", "4715": "holiday", "4716": "households", "4717": "iWatch", "4718": "ivil", "4719": "Civil", "4720": "ices", "4721": "icit", "4722": "iconic", "4723": "illnesses", "4724": "illustrates", "4725": "impacts", "4726": "imper", "4727": "imple", "4728": "implementing", "4729": "improving", "4730": "improvements", "4731": "inate", "4732": "inations", "4733": "inci", "4734": "incorrect", "4735": "inking", "4736": "inqu", "4737": "inse", "4738": "inves", "4739": "incred", "4740": "included", "4741": "incredible", "4742": "influencer", "4743": "infrastructure", "4744": "infringement", "4745": "inputs", "4746": "installing", "4747": "integers", "4748": "intelligent", "4749": "interpre", "4750": "interpret", "4751": "introduced", "4752": "introduction", "4753": "investments", "4754": "involved", "4755": "isBST", "4756": "ision", "4757": "isms", "4758": "ishment", "4759": "itched", "4760": "itchen", "4761": "itis", "4762": "itself", "4763": "jud", "4764": "join", "4765": "jobs", "4766": "joyous", "4767": "kind", "4768": "keeping", "4769": "kilo", "4770": "labor", "4771": "languages", "4772": "link", "4773": "little", "4774": "lunch", "4775": "landscape", "4776": "largely", "4777": "lasted", "4778": "launched", "4779": "layers", "4780": "leaves", "4781": "leadership", "4782": "lefto", "4783": "lessons", "4784": "lite", "4785": "ellite", "4786": "linder", "4787": "lined", "4788": "lists", "4789": "logist", "4790": "loso", "4791": "longitude", "4792": "losses", "4793": "louder", "4794": "lying", "4795": "manner", "4796": "mers", "4797": "mit", "4798": "mun", "4799": "magn", "4800": "magic", "4801": "maintain", "4802": "manipulate", "4803": "marked", "4804": "materials", "4805": "meal", "4806": "meals", "4807": "meaningful", "4808": "measured", "4809": "median", "4810": "meditation", "4811": "meeting", "4812": "memor", "4813": "memorable", "4814": "mix", "4815": "miner", "4816": "modynamics", "4817": "mother", "4818": "modify", "4819": "monitoring", "4820": "motherboard", "4821": "mselves", "4822": "native", "4823": "nor", "4824": "near", "4825": "neur", "4826": "neurons", "4827": "nodes", "4828": "oad", "4829": "objectives", "4830": "ocab", "4831": "offering", "4832": "ography", "4833": "olly", "4834": "Holly", "4835": "oman", "4836": "onent", "4837": "onia", "4838": "opinion", "4839": "opponent", "4840": "opportun", "4841": "opportunity", "4842": "orge", "4843": "orter", "4844": "oriti", "4845": "osion", "4846": "osis", "4847": "otherwise", "4848": "ouble", "4849": "double", "4850": "ounds", "4851": "overall", "4852": "owned", "4853": "oxy", "4854": "pet", "4855": "port", "4856": "pping", "4857": "paring", "4858": "particles", "4859": "passing", "4860": "password", "4861": "pets", "4862": "peaceful", "4863": "persistent", "4864": "perspective", "4865": "philoso", "4866": "photosh", "4867": "photoshoot", "4868": "picnic", "4869": "planets", "4870": "players", "4871": "poet", "4872": "position", "4873": "pover", "4874": "political", "4875": "policies", "4876": "poverty", "4877": "powered", "4878": "print", "4879": "precedented", "4880": "precise", "4881": "preparing", "4882": "predictors", "4883": "prising", "4884": "processed", "4885": "protagonist", "4886": "proto", "4887": "profiles", "4888": "projects", "4889": "protecting", "4890": "protectionism", "4891": "protocol", "4892": "punctuation", "4893": "pursu", "4894": "pursue", "4895": "quantum", "4896": "qualities", "4897": "raining", "4898": "rates", "4899": "rong", "4900": "rapidly", "4901": "reaching", "4902": "reasons", "4903": "recru", "4904": "reign", "4905": "rely", "4906": "reality", "4907": "recei", "4908": "receive", "4909": "recognized", "4910": "reduced", "4911": "refresh", "4912": "refreshing", "4913": "regardless", "4914": "relax", "4915": "reliable", "4916": "reports", "4917": "repeated", "4918": "repeating", "4919": "resolution", "4920": "revolutionize", "4921": "ried", "4922": "roll", "4923": "rolling", "4924": "robotic", "4925": "rought", "4926": "sla", "4927": "sne", "4928": "salaries", "4929": "satellite", "4930": "satisfied", "4931": "scene", "4932": "screensh", "4933": "sealed", "4934": "section", "4935": "sector", "4936": "sensitive", "4937": "severe", "4938": "shad", "4939": "sharp", "4940": "shif", "4941": "sight", "4942": "sius", "4943": "signals", "4944": "sils", "4945": "sklfj", "4946": "smile", "4947": "snake", "4948": "snakes", "4949": "societal", "4950": "sorting", "4951": "spot", "4952": "spring", "4953": "stick", "4954": "stream", "4955": "standards", "4956": "staying", "4957": "stepped", "4958": "stove", "4959": "stocks", "4960": "stru", "4961": "structured", "4962": "sufficient", "4963": "suited", "4964": "subj", "4965": "subjective", "4966": "substantive", "4967": "supplies", "4968": "survi", "4969": "survey", "4970": "susp", "4971": "switch", "4972": "tack", "4973": "taken", "4974": "telling", "4975": "tely", "4976": "tones", "4977": "tu", "4978": "tender", "4979": "terr", "4980": "terrain", "4981": "tests", "4982": "thane", "4983": "themes", "4984": "themselves", "4985": "theory", "4986": "timeline", "4987": "took", "4988": "tori", "4989": "touch", "4990": "trail", "4991": "truck", "4992": "tractable", "4993": "turning", "4994": "turns", "4995": "twink", "4996": "ume", "4997": "ultim", "4998": "unconditional", "4999": "unknown"}, "merges": {"t h": 0, "i n": 1, "e s": 2, "o n": 3, "a n": 4, "a t": 5, "e r": 6, "e n": 7, "r e": 8, "e l": 9, "th e": 10, "s t": 11, "r i": 12, "t i": 13, "o r": 14, "in g": 15, "a s": 16, "o w": 17, "a l": 18, "i s": 19, "an d": 20, "r o": 21, "l e": 22, "t o": 23, "s e": 24, "t e": 25, "u c": 26, "th at": 27, "ti on": 28, "a r": 29, "el ow": 30, "c o": 31, "B elow": 32, "h e": 33, "i c": 34, "o f": 35, "p ro": 36, "Ċ Ċ": 37, "o u": 38, "st r": 39, "m p": 40, "en t": 41, "e d": 42, "str uc": 43, "es p": 44, "c h": 45, "esp on": 46, "struc tion": 47, "espon se": 48, "i t": 49, "I n": 50, "T he": 51, "a p": 52, "d es": 53, "i on": 54, "d e": 55, "f or": 56, "u t": 57, "at e": 58, "u r": 59, "b e": 60, "q u": 61, "es t": 62, "a c": 63, "v e": 64, "c on": 65, "o l": 66, "m e": 67, "co mp": 68, "w i": 69, "ri te": 70, "v i": 71, "c ri": 72, "u n": 73, "c e": 74, "at ion": 75, "l i": 76, "m o": 77, "W rite": 78, "g e": 79, "a b": 80, "p ri": 81, "as k": 82, "wi th": 83, "el y": 84, "t ask": 85, "comp le": 86, "m a": 87, "des cri": 88, "re qu": 89, "th er": 90, "p ut": 91, "l y": 92, "ap pro": 93, "Ġ Ġ": 94, "at ely": 95, "es s": 96, "descri b": 97, "t es": 98, "r esponse": 99, "requ est": 100, "in struction": 101, "u l": 102, "appro pri": 103, "a re": 104, "describ es": 105, "a d": 106, "In struction": 107, "R esponse": 108, "appropri ately": 109, "comple tes": 110, "p l": 111, "v er": 112, "u s": 113, "re d": 114, "n e": 115, "w h": 116, "in e": 117, "g h": 118, "s i": 119, "l o": 120, "l ow": 121, "t er": 122, "a i": 123, "m ent": 124, "d i": 125, "a in": 126, "a y": 127, "k e": 128, "D u": 129, "s o": 130, "i e": 131, "w or": 132, "e x": 133, "en er": 134, "er s": 135, "o p": 136, "t s": 137, "c an": 138, "i l": 139, "pro vi": 140, "en ce": 141, "e c": 142, "ou r": 143, "u m": 144, "t r": 145, "w e": 146, "a m": 147, "i r": 148, "te x": 149, "tex t": 150, "s h": 151, "u se": 152, "f f": 153, "s p": 154, "c re": 155, "low ing": 156, "ab le": 157, "in put": 158, "p o": 159, "ic h": 160, "an t": 161, "f ol": 162, "f ur": 163, "l d": 164, "o m": 165, "provi des": 166, "o o": 167, "a ge": 168, "g r": 169, "fur ther": 170, "b y": 171, "u re": 172, "fol lowing": 173, "en ti": 174, "con text": 175, "ou t": 176, "p ai": 177, "In put": 178, "pai red": 179, "I ch": 180, "D e": 181, "e t": 182, "c i": 183, "al l": 184, "A l": 185, "T h": 186, "e m": 187, "gh t": 188, "w as": 189, "i ve": 190, "å Ī": 191, "d er": 192, "v en": 193, "g n": 194, "c l": 195, "c ess": 196, "al ly": 197, "s ent": 198, "u st": 199, "in d": 200, "ener ate": 201, "u p": 202, "te d": 203, "on e": 204, "p e": 205, "c es": 206, "for m": 207, "t y": 208, "a ve": 209, "k ing": 210, "ĠĠ ĠĠ": 211, "N at": 212, "ro m": 213, "z e": 214, "co m": 215, "s uc": 216, "r es": 217, "it y": 218, "a g": 219, "è ¾": 220, "en d": 221, "G enerate": 222, "W h": 223, "è¾ ĵ": 224, "D ie": 225, "h as": 226, "sent ence": 227, "f rom": 228, "a st": 229, "or t": 230, "g i": 231, "ä ¸": 232, "it s": 233, "d s": 234, "g o": 235, "e w": 236, "p er": 237, "i mp": 238, "D as": 239, "a me": 240, "use d": 241, "d uc": 242, "i m": 243, "g y": 244, "mo re": 245, "Al s": 246, "H e": 247, "ç Ķ": 248, "a ch": 249, "an n": 250, "f y": 251, "ou ld": 252, "c t": 253, "al so": 254, "D es": 255, "as e": 256, "d at": 257, "h ave": 258, "ti c": 259, "n o": 260, "an g": 261, "b o": 262, "C re": 263, "con t": 264, "ou s": 265, "tion s": 266, "er e": 267, "f ul": 268, "' s": 269, "suc h": 270, "v el": 271, "ou n": 272, "s u": 273, "Cre ate": 274, "De ine": 275, "p ar": 276, "h i": 277, "Th is": 278, "the ir": 279, "t ing": 280, "Wh at": 281, "be t": 282, "wor k": 283, "â Ģ": 284, "d el": 285, "E x": 286, "l l": 287, "s y": 288, "re e": 289, "K ann": 290, "d o": 291, "at er": 292, "wh ich": 293, "C o": 294, "pl ain": 295, "a u": 296, "an ce": 297, "i d": 298, "h el": 299, "Kann st": 300, "at ed": 301, "f e": 302, "m ar": 303, "an s": 304, "b le": 305, "el l": 306, "f ic": 307, "ff er": 308, "ti ve": 309, "ation s": 310, "cri be": 311, "ac k": 312, "s ol": 313, "Des cribe": 314, "dat a": 315, "i es": 316, "s er": 317, "E s": 318, "ac e": 319, "i le": 320, "b r": 321, "n ing": 322, "an y": 323, "v al": 324, "an ge": 325, "ec t": 326, "le ar": 327, "e p": 328, "hel p": 329, "i st": 330, "o ther": 331, "com m": 332, "ic al": 333, "ne w": 334, "cl u": 335, "sh ould": 336, "W as": 337, "m s": 338, "c or": 339, "æ ı": 340, "A n": 341, "pro duc": 342, "v es": 343, "D er": 344, "p h": 345, "as ed": 346, "e ar": 347, "w ay": 348, "a ri": 349, "v ic": 350, "P ro": 351, "i er": 352, "c is": 353, "ich er": 354, "in cre": 355, "y our": 356, "å Ĩ": 357, "a k": 358, "Ex plain": 359, "S icher": 360, "co un": 361, "in ter": 362, "ow n": 363, "v ing": 364, "c ur": 365, "a ke": 366, "c a": 367, "d is": 368, "di ffer": 369, "i te": 370, "i z": 371, "in clu": 372, "pro cess": 373, "ab out": 374, "c he": 375, "I t": 376, "at ive": 377, "l ar": 378, "at ur": 379, "st em": 380, "at ing": 381, "d ing": 382, "gi ven": 383, "l ine": 384, "S he": 385, "we en": 386, "A I": 387, "li st": 388, "vi r": 389, "g g": 390, "åĨ Ļ": 391, "æ Ī": 392, "bet ween": 393, "e ff": 394, "mo st": 395, "as s": 396, "st or": 397, "çĶ Ł": 398, "1 0": 399, "b er": 400, "u e": 401, "i gn": 402, "è ¿": 403, "G i": 404, "al th": 405, "ener gy": 406, "in t": 407, "sy stem": 408, "as si": 409, "ti es": 410, "l es": 411, "oo d": 412, "p re": 413, "un d": 414, "Co mp": 415, "ar d": 416, "c ul": 417, "i ent": 418, "il l": 419, "mo del": 420, "s k": 421, "we b": 422, "C h": 423, "ac t": 424, "ar y": 425, "op le": 426, "æĪ ĳ": 427, "è¿ Ļ": 428, "enti fy": 429, "i a": 430, "m an": 431, "or s": 432, "red uc": 433, "ti me": 434, "ust om": 435, "ma ke": 436, "b u": 437, "ch n": 438, "o re": 439, "t ri": 440, "N ame": 441, "A d": 442, "ap p": 443, "g re": 444, "in to": 445, "on g": 446, "wi ll": 447, "âĢ Ļ": 448, "d r": 449, "F ind": 450, "m ed": 451, "p r": 452, "I d": 453, "ne t": 454, "è ®": 455, "K lar": 456, "i ght": 457, "imp ort": 458, "le d": 459, "li ke": 460, "ment s": 461, "pl an": 462, "gr am": 463, "åĪ Ľ": 464, "ge t": 465, "i al": 466, "o ver": 467, "ow er": 468, "wor ld": 469, "2 0": 470, "ci al": 471, "de cis": 472, "en g": 473, "pe ople": 474, "us ing": 475, "o c": 476, "decis ion": 477, "li m": 478, "wh ile": 479, "åĪ Ĺ": 480, "th an": 481, "at s": 482, "e v": 483, "te chn": 484, "the y": 485, "C on": 486, "al y": 487, "s ing": 488, "en ces": 489, "e ver": 490, "d ay": 491, "u d": 492, "ä »": 493, "R ew": 494, "c r": 495, "co l": 496, "n um": 497, "st and": 498, "v ed": 499, "c al": 500, "ers on": 501, "lear ning": 502, "o b": 503, "p ower": 504, "t ur": 505, "f i": 506, "Rew rite": 507, "di tion": 508, "w ater": 509, "Id entify": 510, "c ustom": 511, "h ow": 512, "ic k": 513, "m in": 514, "al s": 515, "th is": 516, "b l": 517, "f in": 518, "ä¸ º": 519, "æı ı": 520, "h is": 521, "per i": 522, "t ain": 523, "c er": 524, "hi gh": 525, "at es": 526, "ol o": 527, "oun d": 528, "un der": 529, "h o": 530, "ic ation": 531, "in ess": 532, "no t": 533, "our ces": 534, "p ic": 535, "S t": 536, "a mp": 537, "ar t": 538, "b al": 539, "co me": 540, "he alth": 541, "li ght": 542, "wh o": 543, "il ity": 544, "import ant": 545, "reduc e": 546, "stor y": 547, "å ľ": 548, "Gi ven": 549, "as es": 550, "c y": 551, "wor d": 552, "è §": 553, "M y": 554, "ap pl": 555, "c tion": 556, "cre ate": 557, "so me": 558, "st ud": 559, "tr a": 560, "vir on": 561, "f l": 562, "U m": 563, "è§ £": 564, "c ent": 565, "i p": 566, "is h": 567, "re ad": 568, "ro u": 569, "vel op": 570, "å °": 571, "æ ī": 572, "D ies": 573, "ac ti": 574, "b us": 575, "k n": 576, "l assi": 577, "r en": 578, "ri ze": 579, "comp ut": 580, "g an": 581, "of f": 582, "th ing": 583, "es e": 584, "W ow": 585, "inclu de": 586, "ther e": 587, "vic e": 588, "wor ds": 589, "f r": 590, "struc t": 591, "i f": 592, "o y": 593, "ro und": 594, "vi de": 595, "åľ ¨": 596, "æī ¾": 597, "R e": 598, "ac cur": 599, "differ ent": 600, "le ad": 601, "provi de": 602, "v is": 603, "Ad dition": 604, "Addition ally": 605, "L ist": 606, "en s": 607, "ent s": 608, "b ut": 609, "be en": 610, "c ap": 611, "i ze": 612, "u tion": 613, "in k": 614, "t w": 615, "tw o": 616, "li fe": 617, "ma king": 618, "p res": 619, "techn olo": 620, "wh en": 621, "ä º": 622, "ap h": 623, "gg est": 624, "ti m": 625, "è ¯": 626, "atur es": 627, "c u": 628, "en viron": 629, "im pro": 630, "in form": 631, "p erson": 632, "å ¥": 633, "E in": 634, "E n": 635, "a f": 636, "ex amp": 637, "o s": 638, "o se": 639, "or der": 640, "red ic": 641, "æ ł": 642, "comm un": 643, "con om": 644, "el e": 645, "h um": 646, "se t": 647, "to m": 648, "under stand": 649, "çĶ ¨": 650, "The y": 651, "W ie": 652, "l ess": 653, "rou gh": 654, "ver s": 655, "1 9": 656, "O n": 657, "W e": 658, "W el": 659, "ab ility": 660, "a v": 661, "ang u": 662, "at ure": 663, "bus iness": 664, "p ur": 665, "re co": 666, "å° Ĩ": 667, "C lassi": 668, "Classi fy": 669, "ai r": 670, "c are": 671, "examp le": 672, "p le": 673, "po t": 674, "enti al": 675, "S u": 676, "T r": 677, "ar r": 678, "de velop": 679, "ex peri": 680, "h n": 681, "J o": 682, "m y": 683, "oo k": 684, "w ell": 685, "Jo hn": 686, "ic s": 687, "ch ar": 688, "in v": 689, "lim ate": 690, "m er": 691, "um ma": 692, "b ack": 693, "a w": 694, "ch ange": 695, "d ed": 696, "e conom": 697, "g lo": 698, "ma g": 699, "net work": 700, "p at": 701, "p ol": 702, "pro f": 703, "re ct": 704, "e mp": 705, "sp e": 706, "U n": 707, "t en": 708, "c k": 709, "ai l": 710, "angu age": 711, "f ood": 712, "o k": 713, "p redic": 714, "pot ential": 715, "reco gn": 716, "si gn": 717, "suc cess": 718, "technolo gy": 719, "tur n": 720, "y ear": 721, "Pro vide": 722, "S umma": 723, "con ne": 724, "gr aph": 725, "lo y": 726, "sp ec": 727, "vic es": 728, "C al": 729, "Summa rize": 730, "b ased": 731, "b lo": 732, "cul ate": 733, "or ts": 734, "pl ay": 735, "po s": 736, "so cial": 737, "str ate": 738, "task s": 739, "ty pe": 740, "u str": 741, "ul ar": 742, "wh at": 743, "ä ½": 744, "æł ¹": 745, "i tion": 746, "m on": 747, "s m": 748, "si de": 749, "v ation": 750, "H ow": 751, "bo th": 752, "environ ment": 753, "g ener": 754, "i ted": 755, "j ect": 756, "m ing": 757, "ne ed": 758, "qu ick": 759, "res ul": 760, "ri es": 761, "c ar": 762, "si te": 763, "th rough": 764, "web site": 765, "B e": 766, "i de": 767, "atur al": 768, "c ed": 769, "f un": 770, "g ood": 771, "i ly": 772, "ma ch": 773, "n atural": 774, "ä¸ Ģ": 775, "A s": 776, "W ar": 777, "are a": 778, "b ers": 779, "bet ter": 780, "c m": 781, "co ul": 782, "coul d": 783, "de f": 784, "des ign": 785, "ex p": 786, "f ac": 787, "f ind": 788, "me m": 789, "o d": 790, "p age": 791, "pro ble": 792, "pro gram": 793, "qu es": 794, "s el": 795, "æ ľ": 796, "H ier": 797, "b en": 798, "e f": 799, "m any": 800, "ri ght": 801, "uc h": 802, "un i": 803, "a th": 804, "ad v": 805, "b i": 806, "be ing": 807, "c limate": 808, "cont ain": 809, "e as": 810, "ec ts": 811, "eff ic": 812, "g u": 813, "i fic": 814, "incre ase": 815, "ing s": 816, "l anguage": 817, "par t": 818, "re l": 819, "th ree": 820, "v ari": 821, "æı Ĳ": 822, "ç »": 823, "ĠĠĠĠ ĠĠĠĠ": 824, "M ake": 825, "Su ggest": 826, "c lo": 827, "ce p": 828, "fic ial": 829, "te am": 830, "è® ¡": 831, "G ive": 832, "a round": 833, "al low": 834, "an aly": 835, "e ach": 836, "ew able": 837, "f ore": 838, "ic ations": 839, "inform ation": 840, "qu al": 841, "re turn": 842, "u al": 843, "us es": 844, "w ould": 845, "a ther": 846, "b ook": 847, "d ri": 848, "vi d": 849, "¦ Ĥ": 850, "F or": 851, "h ad": 852, "S ch": 853, "t t": 854, "a ut": 855, "ar ti": 856, "custom er": 857, "ess ion": 858, "f ir": 859, "i el": 860, "ic e": 861, "impro ve": 862, "ite ms": 863, "l ong": 864, "med ia": 865, "model s": 866, "o ri": 867, "on line": 868, "op p": 869, "r ange": 870, "re g": 871, "s he": 872, "s um": 873, "s ur": 874, "Des ign": 875, "b all": 876, "b re": 877, "ch ang": 878, "in es": 879, "l and": 880, "m is": 881, "go ri": 882, "o t": 883, "r est": 884, "si ble": 885, "ä» ¥": 886, "æ Ĭ": 887, "20 2": 888, "Cal culate": 889, "S o": 890, "ac y": 891, "con si": 892, "en n": 893, "ff ic": 894, "glo bal": 895, "hum an": 896, "ion s": 897, "lo ve": 898, "mach ine": 899, "ou se": 900, "p ass": 901, "pro te": 902, "produc t": 903, "ri c": 904, "s ources": 905, "st e": 906, "t ake": 907, "tr y": 908, "w ere": 909, "way s": 910, "wh y": 911, "g in": 912, "iz ed": 913, "li g": 914, "m ul": 915, "s up": 916, "ti v": 917, "tic le": 918, "F in": 919, "O ne": 920, "ab les": 921, "ac tion": 922, "ca use": 923, "coun t": 924, "f am": 925, "f ive": 926, "gh ts": 927, "gori th": 928, "h ouse": 929, "he ad": 930, "ho me": 931, "j oy": 932, "kn ow": 933, "ma de": 934, "ma y": 935, "mar ke": 936, "me an": 937, "n ess": 938, "num ber": 939, "per form": 940, "po em": 941, "qu e": 942, "quick ly": 943, "st ay": 944, "st ore": 945, "t est": 946, "to ol": 947, "wh ere": 948, "å ¦Ĥ": 949, "U S": 950, "Wel che": 951, "as h": 952, "emp loy": 953, "g en": 954, "is su": 955, "po se": 956, "s is": 957, "st s": 958, "u ally": 959, "ev ent": 960, "Con struct": 961, "as ing": 962, "au tom": 963, "c le": 964, "cont ent": 965, "ed uc": 966, "gi es": 967, "h and": 968, "i li": 969, "le vel": 970, "n am": 971, "ph r": 972, "re at": 973, "ro s": 974, "s ci": 975, "sh ip": 976, "system s": 977, "t al": 978, "An aly": 979, "a king": 980, "ar ch": 981, "at ch": 982, "cor rect": 983, "ec tive": 984, "mp er": 985, "ver t": 986, "å ı": 987, "' t": 988, "I m": 989, "m i": 990, "V iel": 991, "ar ticle": 992, "effic ient": 993, "el ect": 994, "g ame": 995, "l ast": 996, "pat ient": 997, "si tive": 998, "st ate": 999, "st ep": 1000, "success ful": 1001, "ter n": 1002, "tr ans": 1003, "val ue": 1004, "vir us": 1005, "å ¾": 1006, "a ma": 1007, "ac ter": 1008, "ag es": 1009, "ct or": 1010, "D o": 1011, "h y": 1012, "he d": 1013, "le t": 1014, "tic s": 1015, "ur al": 1016, "äº º": 1017, "A r": 1018, "a vi": 1019, "ac cess": 1020, "al gorith": 1021, "al lowing": 1022, "cer tain": 1023, "commun ication": 1024, "custom ers": 1025, "econom y": 1026, "educ ation": 1027, "f ace": 1028, "fe atures": 1029, "fir st": 1030, "g s": 1031, "gre at": 1032, "i mag": 1033, "ic ally": 1034, "in no": 1035, "incre ased": 1036, "mar y": 1037, "mo vi": 1038, "movi e": 1039, "n er": 1040, "of ten": 1041, "ol d": 1042, "on ly": 1043, "or y": 1044, "phr ase": 1045, "pic ally": 1046, "pres ent": 1047, "ser vice": 1048, "sp h": 1049, "ut ure": 1050, "vi ew": 1051, "å¥ ¹": 1052, "å¾ Ī": 1053, "åĪ Ĩ": 1054, "ç» Ļ": 1055, "è® ¾": 1056, "B r": 1057, "S ie": 1058, "b el": 1059, "bl ic": 1060, "in u": 1061, "it al": 1062, "mo ve": 1063, "ro duc": 1064, "ser vices": 1065, "sk y": 1066, "te mper": 1067, "u blic": 1068, "åĪ ¶": 1069, "1 5": 1070, "A mer": 1071, "Amer ic": 1072, "N e": 1073, "an cial": 1074, "appl ications": 1075, "at form": 1076, "at mo": 1077, "atmo sph": 1078, "c tions": 1079, "i re": 1080, "comple x": 1081, "e qu": 1082, "e ven": 1083, "ear ch": 1084, "el lig": 1085, "end ing": 1086, "end s": 1087, "ex pl": 1088, "fe el": 1089, "i en": 1090, "i ous": 1091, "j ust": 1092, "ke y": 1093, "lar ge": 1094, "m il": 1095, "m uch": 1096, "or gan": 1097, "pl ace": 1098, "pl atform": 1099, "re cent": 1100, "re le": 1101, "res ources": 1102, "s al": 1103, "s un": 1104, "sel f": 1105, "sm all": 1106, "stud y": 1107, "sup p": 1108, "tr an": 1109, "ty pically": 1110, "understand ing": 1111, "ur ing": 1112, "w ar": 1113, "å ¯": 1114, "Analy ze": 1115, "Con vert": 1116, "ak es": 1117, "s n": 1118, "an im": 1119, "b t": 1120, "cep t": 1121, "co ur": 1122, "d ue": 1123, "g ative": 1124, "th ou": 1125, "w al": 1126, "Comp are": 1127, "E r": 1128, "Viel en": 1129, "W er": 1130, "a ur": 1131, "ab l": 1132, "on s": 1133, "an k": 1134, "F r": 1135, "ation al": 1136, "business es": 1137, "co ver": 1138, "coun try": 1139, "cre ating": 1140, "d own": 1141, "de p": 1142, "decision s": 1143, "er ed": 1144, "ever y": 1145, "experi ence": 1146, "f ound": 1147, "fr u": 1148, "gr ow": 1149, "ill s": 1150, "m ine": 1151, "ment al": 1152, "mul ti": 1153, "op en": 1154, "pri ce": 1155, "process ing": 1156, "re es": 1157, "re p": 1158, "rest aur": 1159, "s es": 1160, "s it": 1161, "some thing": 1162, "st er": 1163, "t rees": 1164, "year s": 1165, "ã Ģ": 1166, "ä¸ ĭ": 1167, "æ ĺ": 1168, "On ce": 1169, "an ke": 1170, "b at": 1171, "t le": 1172, "ch o": 1173, "ph y": 1174, "ter mine": 1175, "th ese": 1176, "un g": 1177, "v ol": 1178, "we et": 1179, "» º": 1180, "å »º": 1181, "1 2": 1182, "1 8": 1183, "E ine": 1184, "Fr ance": 1185, "accur ate": 1186, "atmosph ere": 1187, "ben ef": 1188, "char acter": 1189, "col or": 1190, "comput ers": 1191, "d on": 1192, "del i": 1193, "ver y": 1194, "do es": 1195, "ele ments": 1196, "f uture": 1197, "imag es": 1198, "in fl": 1199, "inclu ding": 1200, "incre asing": 1201, "int ellig": 1202, "is s": 1203, "j ob": 1204, "l a": 1205, "lar g": 1206, "lear n": 1207, "led ge": 1208, "li ves": 1209, "ma j": 1210, "man age": 1211, "no vel": 1212, "num bers": 1213, "o x": 1214, "p ap": 1215, "p op": 1216, "plan et": 1217, "proble m": 1218, "ri al": 1219, "sol ut": 1220, "sp read": 1221, "struct ure": 1222, "tic al": 1223, "ãĢ Ĭ": 1224, "A u": 1225, "D a": 1226, "D anke": 1227, "W or": 1228, "d en": 1229, "d y": 1230, "f le": 1231, "f ri": 1232, "p ublic": 1233, "sy n": 1234, "on y": 1235, "ul t": 1236, "ust ain": 1237, "âĢ ľ": 1238, "å¥ ½": 1239, "Fin ally": 1240, "Sch ri": 1241, "Schri tt": 1242, "Tr ans": 1243, "a way": 1244, "ac count": 1245, "appl ication": 1246, "ar ds": 1247, "arti ficial": 1248, "at i": 1249, "b est": 1250, "be come": 1251, "c ure": 1252, "ca used": 1253, "cis e": 1254, "comput er": 1255, "d ers": 1256, "d in": 1257, "e th": 1258, "ex plain": 1259, "f er": 1260, "g l": 1261, "ge ther": 1262, "go ing": 1263, "health care": 1264, "ide as": 1265, "in sp": 1266, "inter net": 1267, "it ch": 1268, "know ledge": 1269, "level s": 1270, "mean ing": 1271, "one y": 1272, "op er": 1273, "p ain": 1274, "pap er": 1275, "perform ance": 1276, "produc tion": 1277, "r espon": 1278, "restaur ant": 1279, "sent ences": 1280, "sh ow": 1281, "state ment": 1282, "to gether": 1283, "to pic": 1284, "tri es": 1285, "ustr y": 1286, "Comp ose": 1287, "He alth": 1288, "S e": 1289, "T w": 1290, "a h": 1291, "on es": 1292, "a x": 1293, "an e": 1294, "di vid": 1295, "ier en": 1296, "it or": 1297, "m at": 1298, "r un": 1299, "t ure": 1300, "¡ ®": 1301, "å ħ": 1302, "å¯ ¹": 1303, "æ Ģ": 1304, "æ Ĥ": 1305, "ç ¡®": 1306, "é Ģ": 1307, "Dies e": 1308, "R en": 1309, "W enn": 1310, "Wh en": 1311, "accur acy": 1312, "acti vi": 1313, "activi ties": 1314, "b on": 1315, "c ted": 1316, "cl ing": 1317, "cre ative": 1318, "cu ri": 1319, "de ci": 1320, "differ ences": 1321, "f act": 1322, "f iz": 1323, "fin ancial": 1324, "gre en": 1325, "imp act": 1326, "in divid": 1327, "ind ustry": 1328, "inter est": 1329, "ir d": 1330, "is m": 1331, "m ust": 1332, "ma x": 1333, "maj or": 1334, "n ame": 1335, "network s": 1336, "oc k": 1337, "of tw": 1338, "oftw are": 1339, "pol l": 1340, "pro mo": 1341, "qual ity": 1342, "ques tion": 1343, "re vol": 1344, "ren ewable": 1345, "requ ire": 1346, "s ound": 1347, "sci enti": 1348, "se cure": 1349, "si l": 1350, "si mp": 1351, "sign ific": 1352, "sk ills": 1353, "sp orts": 1354, "spec ies": 1355, "t ree": 1356, "tion al": 1357, "u tions": 1358, "sol utions": 1359, "us ers": 1360, "ver se": 1361, "w on": 1362, "z ing": 1363, "æ ¯": 1364, "æĢ »": 1365, "æĤ ¨": 1366, "20 1": 1367, "C ate": 1368, "He y": 1369, "ag ing": 1370, "an ts": 1371, "P l": 1372, "aut y": 1373, "conne ct": 1374, "d om": 1375, "de cre": 1376, "de m": 1377, "di a": 1378, "f ast": 1379, "fiz ieren": 1380, "g enerate": 1381, "h op": 1382, "lo s": 1383, "p y": 1384, "person al": 1385, "s ustain": 1386, "spe ed": 1387, "A b": 1388, "Ab solut": 1389, "Ch in": 1390, "H T": 1391, "I f": 1392, "St ates": 1393, "Un ited": 1394, "War um": 1395, "ab ili": 1396, "ab or": 1397, "adv ant": 1398, "as on": 1399, "at en": 1400, "be cause": 1401, "benef its": 1402, "bu il": 1403, "c ie": 1404, "c us": 1405, "cess ary": 1406, "ch all": 1407, "col le": 1408, "u es": 1409, "com ing": 1410, "comm on": 1411, "cy cling": 1412, "d ro": 1413, "di g": 1414, "di st": 1415, "dis e": 1416, "en able": 1417, "ev ents": 1418, "f ew": 1419, "f low": 1420, "f ree": 1421, "fam ily": 1422, "go ver": 1423, "gre ater": 1424, "h app": 1425, "i ther": 1426, "e ither": 1427, "ide a": 1428, "in c": 1429, "int roduc": 1430, "intellig ence": 1431, "inv ol": 1432, "le ep": 1433, "lead ing": 1434, "lo ok": 1435, "m id": 1436, "m oney": 1437, "multi ple": 1438, "n ow": 1439, "ne cessary": 1440, "ne x": 1441, "nex t": 1442, "ob ject": 1443, "out put": 1444, "pass age": 1445, "poll ution": 1446, "pos sible": 1447, "pur pose": 1448, "revol ution": 1449, "ro ot": 1450, "ros s": 1451, "se arch": 1452, "se e": 1453, "sh ort": 1454, "signific ant": 1455, "so cie": 1456, "strate gies": 1457, "to day": 1458, "tr ain": 1459, "æ¯ Ķ": 1460, "M ach": 1461, "M e": 1462, "O ut": 1463, "ch ain": 1464, "con cept": 1465, "e y": 1466, "h ard": 1467, "infl u": 1468, "mar t": 1469, "n ature": 1470, "n ight": 1471, "ne y": 1472, "on a": 1473, "phy s": 1474, "s che": 1475, "th es": 1476, "¾ İ": 1477, "æĺ ¯": 1478, "ç ¾İ": 1479, "è¯ Ĩ": 1480, "A p": 1481, "HT M": 1482, "HTM L": 1483, "I s": 1484, "ar ing": 1485, "W ind": 1486, "ow s": 1487, "a graph": 1488, "a ver": 1489, "a ving": 1490, "abili ties": 1491, "ac tions": 1492, "acti ce": 1493, "ag ed": 1494, "am oun": 1495, "au di": 1496, "au th": 1497, "au ti": 1498, "auti ful": 1499, "b elow": 1500, "be autiful": 1501, "be auty": 1502, "be fore": 1503, "bel ie": 1504, "bl ue": 1505, "blo ck": 1506, "c ats": 1507, "ci p": 1508, "cl ou": 1509, "comm end": 1510, "comp an": 1511, "cont ro": 1512, "coun tries": 1513, "d ate": 1514, "de ep": 1515, "der n": 1516, "di ffic": 1517, "differ ence": 1518, "eff ects": 1519, "elect ric": 1520, "en se": 1521, "eng th": 1522, "er ing": 1523, "ex ist": 1524, "fac to": 1525, "fi el": 1526, "su b": 1527, "fi g": 1528, "for est": 1529, "gover n": 1530, "high er": 1531, "i ble": 1532, "ink s": 1533, "inno vation": 1534, "is e": 1535, "j u": 1536, "l aw": 1537, "l ay": 1538, "m en": 1539, "o king": 1540, "oo ds": 1541, "oun tain": 1542, "p ast": 1543, "par agraph": 1544, "peri od": 1545, "po sitive": 1546, "power ful": 1547, "re al": 1548, "re cor": 1549, "resul ting": 1550, "ri bu": 1551, "ro bo": 1552, "se a": 1553, "se qu": 1554, "sing le": 1555, "sp ace": 1556, "st y": 1557, "wor king": 1558, "10 0": 1559, "B u": 1560, "Ch ange": 1561, "Ch ar": 1562, "F ren": 1563, "Fren ch": 1564, "Th ere": 1565, "ang le": 1566, "ast e": 1567, "cho ol": 1568, "co ok": 1569, "el s": 1570, "fun ction": 1571, "g es": 1572, "ier end": 1573, "B as": 1574, "Bas ierend": 1575, "issu e": 1576, "m al": 1577, "pl oy": 1578, "po int": 1579, "pre v": 1580, "ri ting": 1581, "un ch": 1582, "N o": 1583, "ä½ ľ": 1584, "æ ŀ": 1585, "' m": 1586, "C or": 1587, "C ustom": 1588, "Co me": 1589, "P erson": 1590, "Ren ewable": 1591, "U sing": 1592, "are d": 1593, "arr ay": 1594, "at us": 1595, "autom ate": 1596, "b ase": 1597, "bre ak": 1598, "c ir": 1599, "cent r": 1600, "cl ass": 1601, "comp any": 1602, "con d": 1603, "con vers": 1604, "consi der": 1605, "curi ty": 1606, "dem and": 1607, "descri p": 1608, "develop ment": 1609, "do ctor": 1610, "ec ted": 1611, "electric ity": 1612, "et y": 1613, "f ar": 1614, "facto rial": 1615, "fol low": 1616, "for t": 1617, "h im": 1618, "he art": 1619, "hi story": 1620, "i an": 1621, "id entify": 1622, "ke ep": 1623, "lo go": 1624, "m us": 1625, "mo dern": 1626, "mo le": 1627, "op tions": 1628, "ou th": 1629, "our ce": 1630, "p ie": 1631, "pl ant": 1632, "plan ts": 1633, "platform s": 1634, "pr in": 1635, "pro ject": 1636, "proble ms": 1637, "prof it": 1638, "provi ding": 1639, "pur ch": 1640, "recogn ition": 1641, "s chool": 1642, "s oftware": 1643, "se curity": 1644, "st art": 1645, "t ag": 1646, "ter s": 1647, "v o": 1648, "f il": 1649, "st ar": 1650, "th ose": 1651, "tool s": 1652, "tran sp": 1653, "us er": 1654, "us h": 1655, "val ues": 1656, "ver b": 1657, "with out": 1658, "z ed": 1659, "Cate go": 1660, "Catego rize": 1661, "E ar": 1662, "G P": 1663, "G e": 1664, "GP T": 1665, "In ter": 1666, "O r": 1667, "R es": 1668, "u te": 1669, "Th ree": 1670, "an an": 1671, "de ploy": 1672, "ell ing": 1673, "eng ine": 1674, "est er": 1675, "f s": 1676, "for ce": 1677, "in ation": 1678, "com b": 1679, "l ing": 1680, "le f": 1681, "los s": 1682, "m or": 1683, "me th": 1684, "oo t": 1685, "spec ial": 1686, "thou gh": 1687, "w in": 1688, "E d": 1689, "Ed it": 1690, "wal k": 1691, "æ °": 1692, "æ Ķ": 1693, "æĬ Ĭ": 1694, "ç ¼": 1695, "A ustr": 1696, "An d": 1697, "Austr al": 1698, "C an": 1699, "Custom er": 1700, "L et": 1701, "Mach ine": 1702, "No input": 1703, "S te": 1704, "p s": 1705, "T ex": 1706, "Wel ch": 1707, "Y es": 1708, "ac ross": 1709, "ac tive": 1710, "ad a": 1711, "advant ages": 1712, "ag er": 1713, "algorith ms": 1714, "and em": 1715, "andem ic": 1716, "anim al": 1717, "ans w": 1718, "are as": 1719, "ation ship": 1720, "av ail": 1721, "b ar": 1722, "b ur": 1723, "be gin": 1724, "c all": 1725, "ca mp": 1726, "chall eng": 1727, "che d": 1728, "clou d": 1729, "co ll": 1730, "con tr": 1731, "cr y": 1732, "de fin": 1733, "deli very": 1734, "di d": 1735, "diffic ult": 1736, "dise ases": 1737, "dr ess": 1738, "eas ier": 1739, "em iss": 1740, "emiss ions": 1741, "f ect": 1742, "fe ed": 1743, "feel ing": 1744, "fun ctions": 1745, "g oods": 1746, "gener ally": 1747, "govern ment": 1748, "gr ad": 1749, "i ti": 1750, "ic ate": 1751, "ie t": 1752, "ind ust": 1753, "ing ing": 1754, "inv est": 1755, "it ure": 1756, "ite m": 1757, "l ines": 1758, "le ment": 1759, "m ight": 1760, "mar k": 1761, "me et": 1762, "mo tiv": 1763, "n iture": 1764, "ne ver": 1765, "new s": 1766, "ob j": 1767, "of t": 1768, "other s": 1769, "our ney": 1770, "pat tern": 1771, "phys ical": 1772, "play ing": 1773, "po st": 1774, "predic tions": 1775, "pri mary": 1776, "produc e": 1777, "r up": 1778, "re commend": 1779, "rel ationship": 1780, "res h": 1781, "ro le": 1782, "s ource": 1783, "se en": 1784, "se ver": 1785, "simp le": 1786, "sn ack": 1787, "sol ar": 1788, "st ill": 1789, "st o": 1790, "ste ad": 1791, "step s": 1792, "su ggest": 1793, "sustain able": 1794, "tr ust": 1795, "tra vel": 1796, "u le": 1797, "uni que": 1798, "ur es": 1799, "pr ess": 1800, "v ity": 1801, "ad i": 1802, "ve get": 1803, "vo ice": 1804, "w ind": 1805, "ä» ĸ": 1806, "æľ ī": 1807, "æŀ Ħ": 1808, "ç¼ ĸ": 1809, "éĢ ī": 1810, "1 6": 1811, "20 0": 1812, "Austral ia": 1813, "M ar": 1814, "M on": 1815, "N or": 1816, "S E": 1817, "Th ese": 1818, "W ater": 1819, "Z ut": 1820, "Zut aten": 1821, "ach ing": 1822, "as so": 1823, "ash ion": 1824, "b ri": 1825, "cr af": 1826, "ec ti": 1827, "en e": 1828, "enti ment": 1829, "m el": 1830, "o me": 1831, "res earch": 1832, "ro om": 1833, "temper ature": 1834, "ç ®": 1835, "Americ a": 1836, "Chin a": 1837, "F ur": 1838, "G ats": 1839, "Gats by": 1840, "O ffer": 1841, "S outh": 1842, "Ste p": 1843, "Tex t": 1844, "ach ie": 1845, "af ter": 1846, "algorith m": 1847, "an ces": 1848, "ar gu": 1849, "asso ci": 1850, "associ ated": 1851, "at or": 1852, "audi ence": 1853, "avail able": 1854, "b right": 1855, "bat tle": 1856, "blo g": 1857, "block chain": 1858, "bo ard": 1859, "book s": 1860, "bu y": 1861, "c ame": 1862, "c ast": 1863, "c lear": 1864, "c red": 1865, "car bon": 1866, "chang ed": 1867, "chang ing": 1868, "cir cle": 1869, "co de": 1870, "co ld": 1871, "col ors": 1872, "coll abor": 1873, "com es": 1874, "con centr": 1875, "con fl": 1876, "ic t": 1877, "conne cted": 1878, "consider ed": 1879, "cont inu": 1880, "cul es": 1881, "d den": 1882, "d get": 1883, "de bt": 1884, "de termine": 1885, "dep end": 1886, "dig ital": 1887, "dr ast": 1888, "eas ily": 1889, "ec tion": 1890, "econom ic": 1891, "eff ective": 1892, "employ ment": 1893, "end ed": 1894, "ex t": 1895, "ext re": 1896, "ess ential": 1897, "every one": 1898, "expl or": 1899, "extre me": 1900, "f ashion": 1901, "f u": 1902, "fig ure": 1903, "forest ation": 1904, "fru it": 1905, "gg ing": 1906, "gi ving": 1907, "go als": 1908, "gr ation": 1909, "grow th": 1910, "h ab": 1911, "h ai": 1912, "h ol": 1913, "ien cy": 1914, "in st": 1915, "inclu des": 1916, "is hed": 1917, "issu es": 1918, "it ing": 1919, "iz ing": 1920, "j ourney": 1921, "larg er": 1922, "li ed": 1923, "li es": 1924, "lim ited": 1925, "low er": 1926, "m ess": 1927, "m ist": 1928, "marke t": 1929, "marke ting": 1930, "me as": 1931, "mem ber": 1932, "mole cules": 1933, "ne gative": 1934, "o th": 1935, "oc cur": 1936, "off er": 1937, "ona virus": 1938, "op tim": 1939, "opp ing": 1940, "or ted": 1941, "ou ght": 1942, "oun g": 1943, "pattern s": 1944, "pe ace": 1945, "ph o": 1946, "pie ces": 1947, "pop ular": 1948, "pr actice": 1949, "pr ession": 1950, "prote ct": 1951, "prote ction": 1952, "r esp": 1953, "r ors": 1954, "er rors": 1955, "re f": 1956, "re present": 1957, "recogn ize": 1958, "reg ul": 1959, "rel ated": 1960, "rele v": 1961, "resul t": 1962, "ro t": 1963, "s at": 1964, "s entiment": 1965, "s mo": 1966, "s ort": 1967, "sol ution": 1968, "some one": 1969, "stor age": 1970, "str ong": 1971, "strate gy": 1972, "su it": 1973, "suit able": 1974, "t ar": 1975, "t or": 1976, "t ow": 1977, "techn i": 1978, "temper atures": 1979, "the me": 1980, "ti t": 1981, "A t": 1982, "up on": 1983, "us ually": 1984, "vari ous": 1985, "we ather": 1986, "wi ld": 1987, "y oung": 1988, "ä½ ł": 1989, "è ĩ": 1990, "ĠĠĠĠ ĠĠ": 1991, "B en": 1992, "De ep": 1993, "E u": 1994, "Ex tra": 1995, "G re": 1996, "In v": 1997, "L inu": 1998, "Linu x": 1999, "M ed": 2000, "S h": 2001, "S up": 2002, "T it": 2003, "T our": 2004, "ad ition": 2005, "ass en": 2006, "g round": 2007, "in f": 2008, "kn own": 2009, "l in": 2010, "land s": 2011, "li k": 2012, "ma il": 2013, "mon itor": 2014, "on ents": 2015, "oo g": 2016, "G oog": 2017, "Goog le": 2018, "oo se": 2019, "red ient": 2020, "redient s": 2021, "stor m": 2022, "u ate": 2023, "x a": 2024, "¦ ģ": 2025, "å ¤": 2026, "åı ¯": 2027, "æ ķ": 2028, "æ ĸ": 2029, "æ Ĺ": 2030, "è ¦ģ": 2031, "Al l": 2032, "Americ an": 2033, "B ri": 2034, "D is": 2035, "De velop": 2036, "Eu ro": 2037, "G ener": 2038, "G er": 2039, "I st": 2040, "S et": 2041, "Trans l": 2042, "Wind ows": 2043, "Z u": 2044, "ab ase": 2045, "adition al": 2046, "ag ain": 2047, "allow s": 2048, "an ch": 2049, "an ti": 2050, "analy sis": 2051, "ap e": 2052, "ap o": 2053, "ap pe": 2054, "ar s": 2055, "argu ment": 2056, "ari es": 2057, "av o": 2058, "b ats": 2059, "bu dget": 2060, "buil d": 2061, "c ell": 2062, "c up": 2063, "ce an": 2064, "cer em": 2065, "cerem ony": 2066, "character s": 2067, "clo se": 2068, "comp onents": 2069, "con su": 2070, "con sum": 2071, "cont act": 2072, "contain er": 2073, "contain s": 2074, "convers ation": 2075, "dat abase": 2076, "de te": 2077, "de vices": 2078, "descri be": 2079, "descrip tion": 2080, "di ox": 2081, "di re": 2082, "diox ide": 2083, "dis cover": 2084, "dis cus": 2085, "do gs": 2086, "duc t": 2087, "e ch": 2088, "e co": 2089, "e mail": 2090, "eff ect": 2091, "el se": 2092, "ele ment": 2093, "employ e": 2094, "enable d": 2095, "ens ure": 2096, "equ ation": 2097, "eth ical": 2098, "ex am": 2099, "exist ing": 2100, "f oc": 2101, "se d": 2102, "fe ar": 2103, "fi x": 2104, "fiel d": 2105, "fru its": 2106, "ful l": 2107, "g ent": 2108, "hab it": 2109, "hai k": 2110, "haik u": 2111, "help s": 2112, "i red": 2113, "import ance": 2114, "impro ved": 2115, "in ce": 2116, "in come": 2117, "in si": 2118, "incre ases": 2119, "inter n": 2120, "is ol": 2121, "l ich": 2122, "l on": 2123, "ll ing": 2124, "lo oking": 2125, "m es": 2126, "ma ge": 2127, "i mage": 2128, "man ager": 2129, "me ans": 2130, "med ical": 2131, "mem bers": 2132, "mo ment": 2133, "ne ural": 2134, "o graph": 2135, "opp ort": 2136, "or ders": 2137, "p ack": 2138, "p andemic": 2139, "par ti": 2140, "patient s": 2141, "pho to": 2142, "play er": 2143, "pre ci": 2144, "predic t": 2145, "pri ces": 2146, "prof ession": 2147, "program ming": 2148, "program s": 2149, "ques tions": 2150, "r ap": 2151, "re am": 2152, "re mo": 2153, "re pl": 2154, "relev ant": 2155, "respon sible": 2156, "s ai": 2157, "s cal": 2158, "s ince": 2159, "s leep": 2160, "s low": 2161, "s qu": 2162, "s w": 2163, "sai d": 2164, "se ason": 2165, "se cond": 2166, "si ve": 2167, "sol ve": 2168, "st a": 2169, "star s": 2170, "sy m": 2171, "t ail": 2172, "t own": 2173, "t reat": 2174, "t weet": 2175, "tar get": 2176, "ten se": 2177, "tow ards": 2178, "tr act": 2179, "tr aditional": 2180, "tr ends": 2181, "tr ue": 2182, "tri angle": 2183, "u ation": 2184, "un its": 2185, "ut r": 2186, "vis ual": 2187, "w ise": 2188, "war ming": 2189, "won der": 2190, "Â °": 2191, "ä» İ": 2192, "å ®": 2193, "å ĩ": 2194, "å į": 2195, "æĬ ±": 2196, "æľ º": 2197, "3 0": 2198, "4 0": 2199, "A N": 2200, "Ad d": 2201, "Ap ple": 2202, "Ar ti": 2203, "Arti ficial": 2204, "Au f": 2205, "De ar": 2206, "De termine": 2207, "E duc": 2208, "Ear th": 2209, "Euro pe": 2210, "I I": 2211, "Id enti": 2212, "In t": 2213, "Inv est": 2214, "N A": 2215, "Out line": 2216, "P ri": 2217, "R ec": 2218, "S mart": 2219, "T ake": 2220, "Transl ate": 2221, "Tw o": 2222, "U se": 2223, "V er": 2224, "br ing": 2225, "W o": 2226, "appro ach": 2227, "at ory": 2228, "co ff": 2229, "e e": 2230, "coff ee": 2231, "con ser": 2232, "cour age": 2233, "er en": 2234, "experi ences": 2235, "fle x": 2236, "g a": 2237, "g er": 2238, "h avi": 2239, "health y": 2240, "influ ence": 2241, "it er": 2242, "it ter": 2243, "iz ation": 2244, "l ou": 2245, "on ic": 2246, "s weet": 2247, "si des": 2248, "vers ity": 2249, "z es": 2250, "ä½ ¿": 2251, "å ½": 2252, "æĶ ¹": 2253, "èĩ ª": 2254, "A W": 2255, "A le": 2256, "B anan": 2257, "B it": 2258, "B ut": 2259, "Be gin": 2260, "C ri": 2261, "Can ada": 2262, "Char les": 2263, "D r": 2264, "Dies es": 2265, "G reat": 2266, "Gi bt": 2267, "H y": 2268, "I D": 2269, "I mp": 2270, "Identi fizieren": 2271, "K ing": 2272, "K lassi": 2273, "L assen": 2274, "L i": 2275, "N apo": 2276, "Napo le": 2277, "Nor th": 2278, "O k": 2279, "S ag": 2280, "S elect": 2281, "S er": 2282, "S tr": 2283, "Sag en": 2284, "V iet": 2285, "Viet nam": 2286, "a head": 2287, "ac ts": 2288, "accur ately": 2289, "ad dition": 2290, "ad dress": 2291, "ad vice": 2292, "ag on": 2293, "again st": 2294, "al ed": 2295, "al tern": 2296, "ama ge": 2297, "amoun t": 2298, "an ted": 2299, "and om": 2300, "appropri ate": 2301, "as p": 2302, "r y": 2303, "ask ed": 2304, "ask et": 2305, "asket ball": 2306, "at bo": 2307, "auth or": 2308, "aver age": 2309, "b an": 2310, "C u": 2311, "b ile": 2312, "b ility": 2313, "b ird": 2314, "b ol": 2315, "b ound": 2316, "b ro": 2317, "be coming": 2318, "br anch": 2319, "br inging": 2320, "c and": 2321, "c el": 2322, "c ing": 2323, "c li": 2324, "cal led": 2325, "cap ital": 2326, "cl assi": 2327, "cle an": 2328, "comp e": 2329, "concentr ation": 2330, "confl ict": 2331, "consi sts": 2332, "cont ribu": 2333, "contr ast": 2334, "cor al": 2335, "cor onavirus": 2336, "coun ts": 2337, "cri min": 2338, "d amage": 2339, "d uring": 2340, "defin ition": 2341, "des t": 2342, "din ner": 2343, "do or": 2344, "dr aw": 2345, "dri ven": 2346, "dri ving": 2347, "dro power": 2348, "dy nam": 2349, "e mo": 2350, "e ts": 2351, "eas y": 2352, "ec tr": 2353, "eng age": 2354, "environ ments": 2355, "environment al": 2356, "es tic": 2357, "ess ay": 2358, "f oot": 2359, "f os": 2360, "f our": 2361, "fast er": 2362, "feed back": 2363, "fic ation": 2364, "fil led": 2365, "fos sil": 2366, "fu els": 2367, "fur niture": 2368, "g ive": 2369, "gh ter": 2370, "gr ess": 2371, "gram mar": 2372, "help ed": 2373, "hi p": 2374, "hi st": 2375, "high ly": 2376, "hop e": 2377, "in fr": 2378, "in te": 2379, "inc enti": 2380, "individ ual": 2381, "insi ghts": 2382, "invol ves": 2383, "l ack": 2384, "lef t": 2385, "li ved": 2386, "li ving": 2387, "lo o": 2388, "loy al": 2389, "m ountain": 2390, "mat ical": 2391, "max im": 2392, "me t": 2393, "mess age": 2394, "mist akes": 2395, "mo bile": 2396, "mon th": 2397, "ne utr": 2398, "occur s": 2399, "ood en": 2400, "open ed": 2401, "p or": 2402, "par ty": 2403, "per fect": 2404, "pl ast": 2405, "pol ic": 2406, "process es": 2407, "promo te": 2408, "purch ase": 2409, "qu er": 2410, "qu o": 2411, "r adi": 2412, "r ent": 2413, "re ma": 2414, "re member": 2415, "re view": 2416, "recommend ations": 2417, "recor d": 2418, "ree fs": 2419, "rele ased": 2420, "rema in": 2421, "resul ts": 2422, "ri sing": 2423, "ro cer": 2424, "robo tics": 2425, "s ame": 2426, "s c": 2427, "s lo": 2428, "s on": 2429, "sal es": 2430, "sche me": 2431, "se em": 2432, "set ting": 2433, "sh aring": 2434, "sh opping": 2435, "si ze": 2436, "sit es": 2437, "so on": 2438, "sol ving": 2439, "sp ending": 2440, "spe ech": 2441, "squ are": 2442, "st ent": 2443, "st ri": 2444, "p es": 2445, "ty pes": 2446, "stud ents": 2447, "sty le": 2448, "suggest s": 2449, "sym bol": 2450, "t akes": 2451, "t aking": 2452, "t all": 2453, "te eth": 2454, "test ing": 2455, "thes is": 2456, "thing s": 2457, "ti l": 2458, "ti tle": 2459, "tic ular": 2460, "par ticular": 2461, "tim es": 2462, "tit u": 2463, "tor que": 2464, "tr ack": 2465, "trans form": 2466, "transp ort": 2467, "u able": 2468, "u als": 2469, "u red": 2470, "un employment": 2471, "uni verse": 2472, "us age": 2473, "val uable": 2474, "vari ety": 2475, "ve h": 2476, "veh ic": 2477, "vi l": 2478, "w ant": 2479, "w riting": 2480, "we ak": 2481, "web sites": 2482, "wi de": 2483, "your self": 2484, "ä ¿": 2485, "å½ ĵ": 2486, "æ Į": 2487, "A P": 2488, "Al though": 2489, "Br ain": 2490, "Comp ute": 2491, "Dies er": 2492, "Extra hi": 2493, "Extrahi eren": 2494, "G et": 2495, "G ood": 2496, "In cre": 2497, "Klassi fizieren": 2498, "L a": 2499, "N un": 2500, "Ne in": 2501, "P ho": 2502, "Pho to": 2503, "Pro pose": 2504, "Res earch": 2505, "S ol": 2506, "S p": 2507, "Sicher lich": 2508, "Tw itter": 2509, "U p": 2510, "a be": 2511, "ab el": 2512, "al f": 2513, "al ways": 2514, "atbo t": 2515, "con st": 2516, "e ople": 2517, "ecti ves": 2518, "en ing": 2519, "i ties": 2520, "l er": 2521, "meth o": 2522, "metho ds": 2523, "o ve": 2524, "om es": 2525, "p ed": 2526, "ri se": 2527, "ro up": 2528, "g roup": 2529, "rocer y": 2530, "ti li": 2531, "uc k": 2532, "ul ation": 2533, "in s": 2534, "val uate": 2535, "¢ Ħ": 2536, "å ĳ": 2537, "æ ĥ": 2538, "çĶ ±": 2539, "é ¢Ħ": 2540, "é Ĥ": 2541, "19 8": 2542, "AN s": 2543, "B at": 2544, "B y": 2545, "Bri ti": 2546, "Briti sh": 2547, "C O": 2548, "C S": 2549, "C a": 2550, "C ath": 2551, "C ats": 2552, "C ol": 2553, "CO V": 2554, "COV ID": 2555, "CS S": 2556, "Cath ol": 2557, "D ec": 2558, "D i": 2559, "to p": 2560, "Da is": 2561, "Dais y": 2562, "E le": 2563, "En g": 2564, "En gl": 2565, "En viron": 2566, "Engl ish": 2567, "Environ mental": 2568, "Er z": 2569, "G lo": 2570, "Glo bal": 2571, "L E": 2572, "N et": 2573, "work s": 2574, "Ok ay": 2575, "P er": 2576, "P o": 2577, "in ts": 2578, "po ints": 2579, "P r": 2580, "P y": 2581, "Pl an": 2582, "Py th": 2583, "Pyth on": 2584, "T ell": 2585, "Th ank": 2586, "Tit el": 2587, "Welch er": 2588, "Wor d": 2589, "Y our": 2590, "a fe": 2591, "a ves": 2592, "abl ing": 2593, "ad ap": 2594, "t able": 2595, "ad just": 2596, "ai gn": 2597, "ai led": 2598, "al ien": 2599, "al o": 2600, "al se": 2601, "all ing": 2602, "an ced": 2603, "an tic": 2604, "an x": 2605, "analy tics": 2606, "ang es": 2607, "ann ing": 2608, "answ er": 2609, "any thing": 2610, "ap preci": 2611, "ar as": 2612, "P aras": 2613, "Paras ite": 2614, "ar en": 2615, "as c": 2616, "at om": 2617, "b asketball": 2618, "b ill": 2619, "b its": 2620, "b ow": 2621, "bi o": 2622, "bo dy": 2623, "bo il": 2624, "br ain": 2625, "br ave": 2626, "c ard": 2627, "c ate": 2628, "c ine": 2629, "cal culate": 2630, "camp aign": 2631, "cap ture": 2632, "cli ent": 2633, "collabor ation": 2634, "com fort": 2635, "comm it": 2636, "commun icate": 2637, "con cise": 2638, "con sequ": 2639, "consequ ences": 2640, "consu mp": 2641, "consump tion": 2642, "contro l": 2643, "cor ding": 2644, "cre ated": 2645, "cred it": 2646, "cul tur": 2647, "de vice": 2648, "del ic": 2649, "delic ious": 2650, "dete ct": 2651, "di rect": 2652, "di versity": 2653, "do cu": 2654, "drast ically": 2655, "e chn": 2656, "T echn": 2657, "e qual": 2658, "ec ting": 2659, "a ff": 2660, "effic iency": 2661, "el ectr": 2662, "el iness": 2663, "emo tional": 2664, "en abling": 2665, "en joy": 2666, "eng aging": 2667, "er cise": 2668, "ester day": 2669, "et c": 2670, "ex ci": 2671, "exp ected": 2672, "f ail": 2673, "f ather": 2674, "fic tion": 2675, "fil es": 2676, "foc us": 2677, "form ul": 2678, "formul a": 2679, "fri end": 2680, "g as": 2681, "g ir": 2682, "g rocery": 2683, "gener ations": 2684, "gir l": 2685, "gr and": 2686, "gr ession": 2687, "green house": 2688, "h alf": 2689, "h aving": 2690, "h old": 2691, "happ en": 2692, "hum ans": 2693, "hy dropower": 2694, "i bility": 2695, "i der": 2696, "L e": 2697, "Le ider": 2698, "i k": 2699, "ic ros": 2700, "id ent": 2701, "imp l": 2702, "imp lement": 2703, "impl ications": 2704, "increasing ly": 2705, "individ uals": 2706, "indust ries": 2707, "inform ed": 2708, "ing redients": 2709, "insp ir": 2710, "inspir ing": 2711, "instruction s": 2712, "ip s": 2713, "ir th": 2714, "b irth": 2715, "isol ated": 2716, "iz es": 2717, "j ung": 2718, "k i": 2719, "l ap": 2720, "l au": 2721, "l ength": 2722, "l inks": 2723, "la unch": 2724, "law s": 2725, "lay er": 2726, "le g": 2727, "le y": 2728, "let ter": 2729, "li p": 2730, "lik ely": 2731, "line ar": 2732, "lo c": 2733, "lon eliness": 2734, "m ind": 2735, "m und": 2736, "mag ical": 2737, "manage ment": 2738, "maxim um": 2739, "mi gration": 2740, "mund ane": 2741, "n uc": 2742, "nam ed": 2743, "need s": 2744, "o cean": 2745, "o ke": 2746, "oc s": 2747, "D ocs": 2748, "on ce": 2749, "on om": 2750, "oper ating": 2751, "optim ize": 2752, "p ay": 2753, "p ers": 2754, "p itch": 2755, "pain ting": 2756, "par rot": 2757, "pl it": 2758, "plast ic": 2759, "po or": 2760, "pos es": 2761, "pri v": 2762, "prin cess": 2763, "pro gress": 2764, "produc tive": 2765, "produc ts": 2766, "quo te": 2767, "r andom": 2768, "r ul": 2769,
[...]
